{
  "version": "1.0",
  "truncation": null,
  "padding": null,
  "added_tokens": [
    {
      "id": 0,
      "content": "<|bos|>",
      "single_word": false,
      "lstrip": false,
      "rstrip": false,
      "normalized": false,
      "special": true
    },
    {
      "id": 1,
      "content": "<|eos|>",
      "single_word": false,
      "lstrip": false,
      "rstrip": false,
      "normalized": false,
      "special": true
    },
    {
      "id": 2,
      "content": "<|pad|>",
      "single_word": false,
      "lstrip": false,
      "rstrip": false,
      "normalized": false,
      "special": true
    },
    {
      "id": 3,
      "content": "<|system|>",
      "single_word": false,
      "lstrip": false,
      "rstrip": false,
      "normalized": false,
      "special": true
    },
    {
      "id": 4,
      "content": "<|user|>",
      "single_word": false,
      "lstrip": false,
      "rstrip": false,
      "normalized": false,
      "special": true
    },
    {
      "id": 5,
      "content": "<|assistant|>",
      "single_word": false,
      "lstrip": false,
      "rstrip": false,
      "normalized": false,
      "special": true
    }
  ],
  "normalizer": null,
  "pre_tokenizer": {
    "type": "ByteLevel",
    "add_prefix_space": false,
    "trim_offsets": true,
    "use_regex": true
  },
  "post_processor": null,
  "decoder": {
    "type": "ByteLevel",
    "add_prefix_space": true,
    "trim_offsets": true,
    "use_regex": true
  },
  "model": {
    "type": "BPE",
    "dropout": null,
    "unk_token": null,
    "continuing_subword_prefix": null,
    "end_of_word_suffix": null,
    "fuse_unk": false,
    "byte_fallback": false,
    "ignore_merges": false,
    "vocab": {
      "<|bos|>": 0,
      "<|eos|>": 1,
      "<|pad|>": 2,
      "<|system|>": 3,
      "<|user|>": 4,
      "<|assistant|>": 5,
      "!": 6,
      "\"": 7,
      "#": 8,
      "$": 9,
      "%": 10,
      "&": 11,
      "'": 12,
      "(": 13,
      ")": 14,
      "*": 15,
      "+": 16,
      ",": 17,
      "-": 18,
      ".": 19,
      "/": 20,
      "0": 21,
      "1": 22,
      "2": 23,
      "3": 24,
      "4": 25,
      "5": 26,
      "6": 27,
      "7": 28,
      "8": 29,
      "9": 30,
      ":": 31,
      ";": 32,
      "<": 33,
      "=": 34,
      ">": 35,
      "?": 36,
      "@": 37,
      "A": 38,
      "B": 39,
      "C": 40,
      "D": 41,
      "E": 42,
      "F": 43,
      "G": 44,
      "H": 45,
      "I": 46,
      "J": 47,
      "K": 48,
      "L": 49,
      "M": 50,
      "N": 51,
      "O": 52,
      "P": 53,
      "Q": 54,
      "R": 55,
      "S": 56,
      "T": 57,
      "U": 58,
      "V": 59,
      "W": 60,
      "X": 61,
      "Y": 62,
      "Z": 63,
      "[": 64,
      "\\": 65,
      "]": 66,
      "^": 67,
      "_": 68,
      "`": 69,
      "a": 70,
      "b": 71,
      "c": 72,
      "d": 73,
      "e": 74,
      "f": 75,
      "g": 76,
      "h": 77,
      "i": 78,
      "j": 79,
      "k": 80,
      "l": 81,
      "m": 82,
      "n": 83,
      "o": 84,
      "p": 85,
      "q": 86,
      "r": 87,
      "s": 88,
      "t": 89,
      "u": 90,
      "v": 91,
      "w": 92,
      "x": 93,
      "y": 94,
      "z": 95,
      "{": 96,
      "|": 97,
      "}": 98,
      "~": 99,
      "¡": 100,
      "¢": 101,
      "£": 102,
      "¤": 103,
      "¥": 104,
      "¦": 105,
      "§": 106,
      "¨": 107,
      "©": 108,
      "ª": 109,
      "«": 110,
      "¬": 111,
      "®": 112,
      "¯": 113,
      "°": 114,
      "±": 115,
      "²": 116,
      "³": 117,
      "´": 118,
      "µ": 119,
      "¶": 120,
      "·": 121,
      "¸": 122,
      "¹": 123,
      "º": 124,
      "»": 125,
      "¼": 126,
      "½": 127,
      "¾": 128,
      "¿": 129,
      "À": 130,
      "Á": 131,
      "Â": 132,
      "Ã": 133,
      "Ä": 134,
      "Å": 135,
      "Æ": 136,
      "Ç": 137,
      "È": 138,
      "É": 139,
      "Ê": 140,
      "Ë": 141,
      "Ì": 142,
      "Í": 143,
      "Î": 144,
      "Ï": 145,
      "Ð": 146,
      "Ñ": 147,
      "Ò": 148,
      "Ó": 149,
      "Ô": 150,
      "Õ": 151,
      "Ö": 152,
      "×": 153,
      "Ø": 154,
      "Ù": 155,
      "Ú": 156,
      "Û": 157,
      "Ü": 158,
      "Ý": 159,
      "Þ": 160,
      "ß": 161,
      "à": 162,
      "á": 163,
      "â": 164,
      "ã": 165,
      "ä": 166,
      "å": 167,
      "æ": 168,
      "ç": 169,
      "è": 170,
      "é": 171,
      "ê": 172,
      "ë": 173,
      "ì": 174,
      "í": 175,
      "î": 176,
      "ï": 177,
      "ð": 178,
      "ñ": 179,
      "ò": 180,
      "ó": 181,
      "ô": 182,
      "õ": 183,
      "ö": 184,
      "÷": 185,
      "ø": 186,
      "ù": 187,
      "ú": 188,
      "û": 189,
      "ü": 190,
      "ý": 191,
      "þ": 192,
      "ÿ": 193,
      "Ā": 194,
      "ā": 195,
      "Ă": 196,
      "ă": 197,
      "Ą": 198,
      "ą": 199,
      "Ć": 200,
      "ć": 201,
      "Ĉ": 202,
      "ĉ": 203,
      "Ċ": 204,
      "ċ": 205,
      "Č": 206,
      "č": 207,
      "Ď": 208,
      "ď": 209,
      "Đ": 210,
      "đ": 211,
      "Ē": 212,
      "ē": 213,
      "Ĕ": 214,
      "ĕ": 215,
      "Ė": 216,
      "ė": 217,
      "Ę": 218,
      "ę": 219,
      "Ě": 220,
      "ě": 221,
      "Ĝ": 222,
      "ĝ": 223,
      "Ğ": 224,
      "ğ": 225,
      "Ġ": 226,
      "ġ": 227,
      "Ģ": 228,
      "ģ": 229,
      "Ĥ": 230,
      "ĥ": 231,
      "Ħ": 232,
      "ħ": 233,
      "Ĩ": 234,
      "ĩ": 235,
      "Ī": 236,
      "ī": 237,
      "Ĭ": 238,
      "ĭ": 239,
      "Į": 240,
      "į": 241,
      "İ": 242,
      "ı": 243,
      "Ĳ": 244,
      "ĳ": 245,
      "Ĵ": 246,
      "ĵ": 247,
      "Ķ": 248,
      "ķ": 249,
      "ĸ": 250,
      "Ĺ": 251,
      "ĺ": 252,
      "Ļ": 253,
      "ļ": 254,
      "Ľ": 255,
      "ľ": 256,
      "Ŀ": 257,
      "ŀ": 258,
      "Ł": 259,
      "ł": 260,
      "Ń": 261,
      "ĠĠ": 262,
      "čĊ": 263,
      "Ġt": 264,
      "Ġi": 265,
      "Ġa": 266,
      "er": 267,
      "Ġs": 268,
      "he": 269,
      "ĠĠĠĠ": 270,
      "re": 271,
      "on": 272,
      "Ġc": 273,
      "in": 274,
      "at": 275,
      "st": 276,
      "le": 277,
      "Ġf": 278,
      "or": 279,
      "ou": 280,
      "an": 281,
      "<|": 282,
      "|>": 283,
      "ĠĠĠ": 284,
      "Ġthe": 285,
      "me": 286,
      "Ġw": 287,
      "Ġb": 288,
      "Ġd": 289,
      "os": 290,
      "Ġ=": 291,
      "Ġp": 292,
      "ing": 293,
      "Ġy": 294,
      "it": 295,
      "en": 296,
      "as": 297,
      "Ġm": 298,
      "Ġn": 299,
      "Ġit": 300,
      "al": 301,
      "ke": 302,
      "ow": 303,
      "Ġl": 304,
      "Ġyou": 305,
      "nd": 306,
      "Ġto": 307,
      "us": 308,
      "ut": 309,
      "Ġth": 310,
      "ad": 311,
      "eos": 312,
      "|><|": 313,
      "``": 314,
      "Ġre": 315,
      "es": 316,
      "ar": 317,
      "et": 318,
      "ĠI": 319,
      "ĠĠĠĠĠĠĠ": 320,
      "ct": 321,
      "'s": 322,
      "ed": 323,
      "si": 324,
      "Ġin": 325,
      "ck": 326,
      "Ġh": 327,
      "ll": 328,
      "ot": 329,
      "Ġe": 330,
      "Ġand": 331,
      "od": 332,
      "ant": 333,
      "Ġif": 334,
      "ri": 335,
      "Ġg": 336,
      "Ġ{": 337,
      "Ġ'": 338,
      ");": 339,
      "ame": 340,
      "nt": 341,
      ".<|": 342,
      "Ġo": 343,
      "Ġfi": 344,
      "Ġis": 345,
      "th": 346,
      "ve": 347,
      "mp": 348,
      "Ġthat": 349,
      "ht": 350,
      "Ġr": 351,
      "user": 352,
      "ly": 353,
      "Ġ(": 354,
      "sist": 355,
      "ol": 356,
      "Ġon": 357,
      "Ġ1": 358,
      "Ġ`": 359,
      "sistant": 360,
      "assistant": 361,
      "```": 362,
      "Ġfor": 363,
      "ex": 364,
      "ion": 365,
      "ig": 366,
      "Ġbut": 367,
      "Ġst": 368,
      "ce": 369,
      "ay": 370,
      "ver": 371,
      "ith": 372,
      "un": 373,
      "ro": 374,
      "ter": 375,
      "ur": 376,
      "ake": 377,
      "is": 378,
      "ls": 379,
      "up": 380,
      "Ġdo": 381,
      "ge": 382,
      "Ġli": 383,
      "Ġor": 384,
      "ore": 385,
      "ĠĠĠĠĠĠĠĠĠĠĠ": 386,
      "Ġ}": 387,
      "fi": 388,
      "</": 389,
      "Ġcan": 390,
      "pt": 391,
      "li": 392,
      "('": 393,
      "ch": 394,
      "Ġwith": 395,
      "hat": 396,
      "Ġcon": 397,
      "ĠT": 398,
      "Ġne": 399,
      "id": 400,
      "00": 401,
      "()": 402,
      "ent": 403,
      "ir": 404,
      "head": 405,
      "ext": 406,
      "Ġ0": 407,
      "ath": 408,
      "ate": 409,
      "ere": 410,
      "op": 411,
      "ment": 412,
      "ĠA": 413,
      "Ġfile": 414,
      "Ġsc": 415,
      "==": 416,
      "lo": 417,
      "Ġus": 418,
      "ue": 419,
      "om": 420,
      "se": 421,
      "ĠC": 422,
      "and": 423,
      "ust": 424,
      "Ġbe": 425,
      "um": 426,
      "Ġso": 427,
      "ction": 428,
      "Ġme": 429,
      "Ġ-": 430,
      "ĠIf": 431,
      "pe": 432,
      "ime": 433,
      "Ġnot": 434,
      "ort": 435,
      "=\"": 436,
      "Ġof": 437,
      "name": 438,
      "ood": 439,
      "?<|": 440,
      "yth": 441,
      "urn": 442,
      "ight": 443,
      "int": 444,
      "row": 445,
      "Ġ<": 446,
      "Ġlike": 447,
      "Ġlo": 448,
      "ript": 449,
      "ld": 450,
      "Ġyour": 451,
      "Ġtr": 452,
      "Ġ2": 453,
      "ave": 454,
      "ine": 455,
      "Ġup": 456,
      "Ġj": 457,
      "lso": 458,
      "ap": 459,
      "nake": 460,
      "')": 461,
      "Ġse": 462,
      "let": 463,
      "Ġex": 464,
      "',": 465,
      "ĠĠĠĠĠ": 466,
      "Ġan": 467,
      "'t": 468,
      "out": 469,
      "ml": 470,
      "ĠS": 471,
      "tx": 472,
      "con": 473,
      "turn": 474,
      "em": 475,
      "ython": 476,
      "Ġsh": 477,
      "la": 478,
      "key": 479,
      "pen": 480,
      "Ġreturn": 481,
      "ĠH": 482,
      "Ġas": 483,
      "heck": 484,
      "ks": 485,
      "der": 486,
      "age": 487,
      "if": 488,
      "art": 489,
      "ack": 490,
      "get": 491,
      "val": 492,
      "Ġwor": 493,
      "de": 494,
      "Ġ/": 495,
      "Ġwant": 496,
      "imp": 497,
      "qu": 498,
      "();": 499,
      "ab": 500,
      "sc": 501,
      "Ġch": 502,
      "bos": 503,
      "Ġ#": 504,
      "Ġctx": 505,
      "rint": 506,
      "ul": 507,
      "Ġsnake": 508,
      "ĠB": 509,
      "Ġ+": 510,
      "ep": 511,
      "Ġhave": 512,
      "ode": 513,
      "Ġneed": 514,
      "hen": 515,
      "ont": 516,
      "Ġjust": 517,
      "ic": 518,
      "ror": 519,
      "ure": 520,
      "ill": 521,
      "ata": 522,
      "ok": 523,
      "vas": 524,
      "âĢ": 525,
      "Ġco": 526,
      "unction": 527,
      "Ġhead": 528,
      "all": 529,
      "Ġ\"": 530,
      "Ġad": 531,
      "sv": 532,
      "ra": 533,
      "Ġcheck": 534,
      "Ġuse": 535,
      "yle": 536,
      "one": 537,
      "Ġwh": 538,
      "ĠP": 539,
      "Ġ===": 540,
      "html": 541,
      "Ġsome": 542,
      "ally": 543,
      "'ll": 544,
      "\">": 545,
      "Ġtry": 546,
      "iv": 547,
      "ire": 548,
      "ast": 549,
      "ount": 550,
      "Ġde": 551,
      "ip": 552,
      "ze": 553,
      "ss": 554,
      "ound": 555,
      "Ġhe": 556,
      "lick": 557,
      "Ġle": 558,
      "gr": 559,
      "ĠM": 560,
      "Ġconst": 561,
      "):": 562,
      "il": 563,
      "fill": 564,
      "Ġrow": 565,
      "';": 566,
      "px": 567,
      "ĠF": 568,
      "rom": 569,
      "ĠW": 570,
      "python": 571,
      "Ġprint": 572,
      "ument": 573,
      "ect": 574,
      "sion": 575,
      "ĠBut": 576,
      "Ġwhat": 577,
      "own": 578,
      "ĠAlso": 579,
      "ind": 580,
      "Ġgame": 581,
      "cument": 582,
      "ould": 583,
      "ain": 584,
      "ite": 585,
      "Ġcol": 586,
      "pa": 587,
      "im": 588,
      "'re": 589,
      "pl": 590,
      "Ġfood": 591,
      "Ġnew": 592,
      "Ġback": 593,
      "Ġpro": 594,
      "Ġmy": 595,
      "ton": 596,
      "rid": 597,
      "path": 598,
      "'m": 599,
      "Ġget": 600,
      "Ġthis": 601,
      "older": 602,
      "Ġscript": 603,
      "ody": 604,
      "Ġopen": 605,
      "Ġ[": 606,
      "ult": 607,
      "Ġmake": 608,
      "St": 609,
      "lement": 610,
      "Ġone": 611,
      "Ġread": 612,
      "Ġat": 613,
      "&&": 614,
      "ĠHere": 615,
      "ile": 616,
      "Ġadd": 617,
      "date": 618,
      "ist": 619,
      "Ġqu": 620,
      "file": 621,
      "ick": 622,
      "Ġscore": 623,
      "};": 624,
      "');": 625,
      "Ġset": 626,
      "Ġ*": 627,
      "ĠĠĠĠĠĠĠĠĠĠĠĠĠĠĠ": 628,
      "Ġ3": 629,
      "Ġthen": 630,
      "Ġcode": 631,
      "Ġtime": 632,
      "Ġ//": 633,
      "Ġspe": 634,
      "for": 635,
      "Ġ5": 636,
      "ĠN": 637,
      "ers": 638,
      "âĢĶ": 639,
      "ĠL": 640,
      "Ġwe": 641,
      "Ġfix": 642,
      "lace": 643,
      "Ġare": 644,
      "Ġ&&": 645,
      "read": 646,
      "idth": 647,
      "ĠU": 648,
      "ces": 649,
      "set": 650,
      "Ġdocument": 651,
      "error": 652,
      "Ġal": 653,
      "Ġlist": 654,
      "ach": 655,
      "ser": 656,
      "Ġmo": 657,
      "Ġid": 658,
      "Ġcanvas": 659,
      "Ġv": 660,
      "Ġwhen": 661,
      "Ġfir": 662,
      "ĠO": 663,
      "Ġfrom": 664,
      "You": 665,
      "able": 666,
      "script": 667,
      "Ġrun": 668,
      "andom": 669,
      "act": 670,
      "Ġalso": 671,
      "ard": 672,
      "be": 673,
      "Ġ=>": 674,
      "are": 675,
      "ĠD": 676,
      "Ġline": 677,
      "Ġwr": 678,
      "pp": 679,
      "Ġke": 680,
      "ĠIt": 681,
      "Ġ>": 682,
      "Ġen": 683,
      "ive": 684,
      "text": 685,
      "Ġdir": 686,
      "import": 687,
      "Ġkeep": 688,
      "ually": 689,
      "lse": 690,
      "Ġ10": 691,
      "Ġout": 692,
      "amp": 693,
      "ĠThat": 694,
      "Ġnext": 695,
      "Element": 696,
      "Ġkey": 697,
      "Ġdoes": 698,
      "hey": 699,
      "Ġfirst": 700,
      "That": 701,
      "Ġerror": 702,
      "Ġfiles": 703,
      "ff": 704,
      "to": 705,
      "ag": 706,
      "Id": 707,
      "ange": 708,
      "data": 709,
      "Ġstill": 710,
      "ew": 711,
      "ght": 712,
      "Ġelse": 713,
      "))": 714,
      "Ġte": 715,
      "Ġos": 716,
      "ase": 717,
      "By": 718,
      "Ġlet": 719,
      "Ġfunction": 720,
      "ation": 721,
      "ail": 722,
      "getElement": 723,
      "ById": 724,
      "Ġspeed": 725,
      "getElementById": 726,
      "oth": 727,
      "Ġby": 728,
      "Ġsimp": 729,
      "aus": 730,
      "add": 731,
      "Ġhas": 732,
      "body": 733,
      "rrow": 734,
      "Ġshow": 735,
      "Ġdon": 736,
      "low": 737,
      "am": 738,
      "Ġcsv": 739,
      "ems": 740,
      "='": 741,
      "Ġ|": 742,
      "time": 743,
      "Cont": 744,
      "div": 745,
      "def": 746,
      "Ġgrid": 747,
      "ĠR": 748,
      "Ġhand": 749,
      "Ġall": 750,
      "Ġonly": 751,
      "Ġcont": 752,
      "vent": 753,
      "Ġnum": 754,
      "ĠThe": 755,
      "right": 756,
      "const": 757,
      ").": 758,
      "Ġcle": 759,
      "style": 760,
      "Ġk": 761,
      "gin": 762,
      "ome": 763,
      "ps": 764,
      "Ġsimple": 765,
      "Ġ.": 766,
      "sh": 767,
      "Ġmore": 768,
      "function": 769,
      "ty": 770,
      "ost": 771,
      "ays": 772,
      "']": 773,
      "Ġcomp": 774,
      "ize": 775,
      "csv": 776,
      "put": 777,
      "Ġsee": 778,
      "fter": 779,
      "ft": 780,
      "Ġ20": 781,
      "ground": 782,
      "ass": 783,
      "Ġht": 784,
      "ds": 785,
      "Ġworks": 786,
      "Ġ100": 787,
      "ub": 788,
      "Ġpre": 789,
      "ble": 790,
      "Ġdis": 791,
      "ans": 792,
      "ull": 793,
      "but": 794,
      "Ġany": 795,
      "Ġpl": 796,
      "Ġdire": 797,
      "Ġdata": 798,
      "20": 799,
      "Ġbu": 800,
      "Ġname": 801,
      "cess": 802,
      "ause": 803,
      "game": 804,
      "Ġmight": 805,
      "enter": 806,
      "Ġres": 807,
      "Ġval": 808,
      "ote": 809,
      "itle": 810,
      "ash": 811,
      "`.": 812,
      "Ġno": 813,
      "play": 814,
      "ax": 815,
      "ĠFor": 816,
      "Ġ$": 817,
      "Style": 818,
      "Ġcount": 819,
      "Ġmin": 820,
      "ample": 821,
      "bo": 822,
      "kip": 823,
      "width": 824,
      "our": 825,
      "Er": 826,
      "aybe": 827,
      "Ġover": 828,
      "Ġbackground": 829,
      "Ġupdate": 830,
      "Ġfine": 831,
      "fillStyle": 832,
      "ring": 833,
      "ĠJ": 834,
      "size": 835,
      "Error": 836,
      "nter": 837,
      "Ġdra": 838,
      "ry": 839,
      "Ġspa": 840,
      "Ġever": 841,
      "ĠYou": 842,
      "anks": 843,
      "atch": 844,
      "['": 845,
      "Ġcom": 846,
      "ac": 847,
      "Ġcl": 848,
      "fer": 849,
      "ĠMath": 850,
      "Ġthing": 851,
      "Ġbrow": 852,
      "av": 853,
      "ak": 854,
      "Ġnow": 855,
      "ĠnextD": 856,
      "Ġhandle": 857,
      "Arrow": 858,
      "Ġthere": 859,
      "Ġapp": 860,
      "Ġafter": 861,
      "Ġim": 862,
      "umn": 863,
      "title": 864,
      "thing": 865,
      "Sure": 866,
      "Ġusing": 867,
      "Ġ4": 868,
      "Ġwork": 869,
      "ĠG": 870,
      "Ġ||": 871,
      "Ġinst": 872,
      "Ġtext": 873,
      "ink": 874,
      "Ġhel": 875,
      "start": 876,
      "que": 877,
      "lock": 878,
      "Inter": 879,
      "Ġclick": 880,
      "':": 881,
      "ign": 882,
      "Ġshould": 883,
      "ose": 884,
      "ead": 885,
      "Ġthem": 886,
      "Ġver": 887,
      "Ġu": 888,
      "),": 889,
      "button": 890,
      "Ġhtml": 891,
      "Ġsomething": 892,
      "Ġbutton": 893,
      "ener": 894,
      "Interval": 895,
      "tn": 896,
      "ting": 897,
      "Ġcenter": 898,
      "score": 899,
      "Ġloop": 900,
      "ice": 901,
      "wor": 902,
      "ĠCan": 903,
      "Ġ!": 904,
      "atter": 905,
      "Ġfont": 906,
      "Ġper": 907,
      "Ġact": 908,
      "\")": 909,
      "dir": 910,
      "Over": 911,
      "Ġnumb": 912,
      "Rect": 913,
      "folder": 914,
      "Content": 915,
      "Math": 916,
      "Ġmaybe": 917,
      "ong": 918,
      "opy": 919,
      "end": 920,
      "ory": 921,
      "flo": 922,
      "ree": 923,
      "..": 924,
      "Ġfolder": 925,
      "Ġskip": 926,
      "can": 927,
      "ML": 928,
      "Ġbrowser": 929,
      "random": 930,
      "Ġstart": 931,
      "mo": 932,
      "tal": 933,
      "ĠE": 934,
      "].": 935,
      "Ġmar": 936,
      "TML": 937,
      "Ġdoesn": 938,
      "place": 939,
      "ict": 940,
      "ndex": 941,
      "Ġhelp": 942,
      "now": 943,
      "Ġgo": 944,
      "ies": 945,
      "Ġreader": 946,
      "Ġeach": 947,
      "Ġtrying": 948,
      "alse": 949,
      "textContent": 950,
      "ĠnextDir": 951,
      "mpty": 952,
      "fore": 953,
      "ole": 954,
      "Ġtoo": 955,
      "outer": 956,
      "Ġsecon": 957,
      "ower": 958,
      "click": 959,
      "Ġdraw": 960,
      "line": 961,
      "Ġser": 962,
      "Ġab": 963,
      "ng": 964,
      "List": 965,
      "Ġar": 966,
      "Ġhow": 967,
      "];": 968,
      "Ġtotal": 969,
      "Food": 970,
      "items": 971,
      "canvas": 972,
      "Ġthey": 973,
      "Ġcolumn": 974,
      "Here": 975,
      "Ġrows": 976,
      "with": 977,
      "fa": 978,
      "indow": 979,
      "Ġbec": 980,
      "//": 981,
      "appen": 982,
      "floor": 983,
      "ifi": 984,
      "quest": 985,
      "Ġversion": 986,
      "Ġevery": 987,
      "sing": 988,
      "ang": 989,
      "fillRect": 990,
      "ne": 991,
      "Ġsy": 992,
      "old": 993,
      "Ġpo": 994,
      "Ġbefore": 995,
      "Ġcr": 996,
      "print": 997,
      "Ġmod": 998,
      "Ġway": 999,
      "Ġrouter": 1000,
      "dat": 1001,
      "Ġmargin": 1002,
      "Ġempty": 1003,
      "load": 1004,
      "Ġun": 1005,
      "Ġcomm": 1006,
      "ity": 1007,
      "sp": 1008,
      "Ġquick": 1009,
      "ines": 1010,
      "ait": 1011,
      "Ġdif": 1012,
      "ĠLet": 1013,
      "Ġ+=": 1014,
      "cept": 1015,
      "Ġiss": 1016,
      "Ġaut": 1017,
      "ĠCS": 1018,
      "pg": 1019,
      "Ġright": 1020,
      "grad": 1021,
      "Ġ8": 1022,
      "Ġph": 1023,
      "Ġcur": 1024,
      "js": 1025,
      "Ġx": 1026,
      "Ġcolor": 1027,
      "Ġwill": 1028,
      "Ġdri": 1029,
      "Ġla": 1030,
      "Ġheight": 1031,
      "do": 1032,
      "other": 1033,
      "Ġsize": 1034,
      "').": 1035,
      "gg": 1036,
      "Event": 1037,
      "lf": 1038,
      "Ġbo": 1039,
      "Ġdro": 1040,
      "ĠPython": 1041,
      "Ġfast": 1042,
      "10": 1043,
      "height": 1044,
      "Ġdate": 1045,
      "Ġmis": 1046,
      "Ġext": 1047,
      "Ġslow": 1048,
      "down": 1049,
      "Ġold": 1050,
      "ĠSo": 1051,
      "Listener": 1052,
      "EventListener": 1053,
      "Ġclean": 1054,
      "ĠHTML": 1055,
      "Ġpage": 1056,
      "fault": 1057,
      "If": 1058,
      "Ġload": 1059,
      "jpg": 1060,
      "back": 1061,
      "Ġtw": 1062,
      "addEventListener": 1063,
      "Ġ==": 1064,
      "Ġgive": 1065,
      "cl": 1066,
      "ress": 1067,
      "400": 1068,
      "gh": 1069,
      "\",": 1070,
      "ify": 1071,
      "Ġsure": 1072,
      "Ġdiffer": 1073,
      "__": 1074,
      "ues": 1075,
      "Ġlook": 1076,
      "Ġmove": 1077,
      "col": 1078,
      "nder": 1079,
      "ial": 1080,
      "cal": 1081,
      "cont": 1082,
      "te": 1083,
      "Ġpath": 1084,
      "Ġbecause": 1085,
      "rent": 1086,
      "Ġpar": 1087,
      "igh": 1088,
      "ater": 1089,
      "Ġchar": 1090,
      "Ġknow": 1091,
      "ĠNone": 1092,
      "DO": 1093,
      "Ġoff": 1094,
      "ven": 1095,
      "Ġform": 1096,
      "ĠUse": 1097,
      "form": 1098,
      "ype": 1099,
      "Ġdown": 1100,
      "ages": 1101,
      "com": 1102,
      "rem": 1103,
      "core": 1104,
      "Ġstu": 1105,
      "order": 1106,
      "Ġplace": 1107,
      "Ġfilename": 1108,
      "per": 1109,
      "Ġ6": 1110,
      "Ġlast": 1111,
      "Ġdisplay": 1112,
      "Ġ!==": 1113,
      "Ġsm": 1114,
      "PE": 1115,
      "ough": 1116,
      "list": 1117,
      "ition": 1118,
      "Ġsame": 1119,
      "Ġpart": 1120,
      "Ġkeeps": 1121,
      "Ġchange": 1122,
      "Ġupdat": 1123,
      "Ġimp": 1124,
      "Ġdifferent": 1125,
      "num": 1126,
      "Ġinto": 1127,
      "aste": 1128,
      "Ġmax": 1129,
      "Ġ</": 1130,
      "Ġsort": 1131,
      "<!": 1132,
      "CT": 1133,
      "Ġac": 1134,
      "cre": 1135,
      "side": 1136,
      "Ġpython": 1137,
      "Ġheader": 1138,
      "reader": 1139,
      "Ġabout": 1140,
      "Ġ>=": 1141,
      "Ġdirect": 1142,
      "port": 1143,
      "les": 1144,
      "lex": 1145,
      "Ġinter": 1146,
      "Ġlen": 1147,
      "It": 1148,
      "ai": 1149,
      "Ġwhile": 1150,
      "ise": 1151,
      "Ġ'#": 1152,
      "Ġsup": 1153,
      "50": 1154,
      "ked": 1155,
      "fix": 1156,
      "oin": 1157,
      "my": 1158,
      "Ġborder": 1159,
      "ngth": 1160,
      "Ġfan": 1161,
      "ything": 1162,
      "The": 1163,
      "Ġmon": 1164,
      "Ġissue": 1165,
      "txt": 1166,
      "Ġman": 1167,
      "Ġstring": 1168,
      "Ġindex": 1169,
      "ptop": 1170,
      "Ġbody": 1171,
      "])": 1172,
      "times": 1173,
      "ĠgameOver": 1174,
      "YPE": 1175,
      "hes": 1176,
      "Ġro": 1177,
      "DOCT": 1178,
      "DOCTYPE": 1179,
      "oid": 1180,
      "Lo": 1181,
      "Ġrandom": 1182,
      "Ġmissing": 1183,
      "Ġlaptop": 1184,
      "ild": 1185,
      "Ġsa": 1186,
      "count": 1187,
      "Ġrename": 1188,
      "ird": 1189,
      "++": 1190,
      "Ġexact": 1191,
      "ich": 1192,
      "Ġ});": 1193,
      "Ġpos": 1194,
      "ell": 1195,
      "nc": 1196,
      "Ġsub": 1197,
      "rip": 1198,
      "000": 1199,
      "(\"": 1200,
      "log": 1201,
      "Ġtest": 1202,
      "Ġcall": 1203,
      "Ġexample": 1204,
      "Ġclear": 1205,
      "ug": 1206,
      "lic": 1207,
      "some": 1208,
      "Ġprocess": 1209,
      "Ġlog": 1210,
      "Ġpoint": 1211,
      "ning": 1212,
      "Ġshows": 1213,
      "Ġdirection": 1214,
      "co": 1215,
      "Ġthanks": 1216,
      "inal": 1217,
      "Ġwidth": 1218,
      "Ġbre": 1219,
      "url": 1220,
      "pace": 1221,
      "eld": 1222,
      "ĠâĢ": 1223,
      "food": 1224,
      "Ġrange": 1225,
      "Ġav": 1226,
      "vice": 1227,
      "`,": 1228,
      "Ġfew": 1229,
      "Ġgiv": 1230,
      "Ġreset": 1231,
      "snake": 1232,
      "ĠThen": 1233,
      "Time": 1234,
      "ea": 1235,
      "ready": 1236,
      "filename": 1237,
      "Ġquot": 1238,
      "est": 1239,
      "ms": 1240,
      "lete": 1241,
      "Ġlines": 1242,
      "Ġreplace": 1243,
      "Ġgr": 1244,
      "rue": 1245,
      "Ġrestart": 1246,
      "Ġsays": 1247,
      "Ġ\"$": 1248,
      "Ġwithout": 1249,
      "Ġsmall": 1250,
      "ta": 1251,
      "Ġwhich": 1252,
      "ĠâĢĵ": 1253,
      "Ġcor": 1254,
      "dd": 1255,
      "Ġkeys": 1256,
      "Ġalready": 1257,
      "Ġimport": 1258,
      "join": 1259,
      "PI": 1260,
      "cod": 1261,
      "Ġactually": 1262,
      "Ġsp": 1263,
      "Btn": 1264,
      "Score": 1265,
      "ual": 1266,
      "vel": 1267,
      "ĠCheck": 1268,
      "\"></": 1269,
      "'d": 1270,
      "ike": 1271,
      "we": 1272,
      "Ġserver": 1273,
      "Ġresult": 1274,
      "pre": 1275,
      "plit": 1276,
      "Ġnumbers": 1277,
      "rame": 1278,
      "Ġrequest": 1279,
      "Ġmess": 1280,
      "wr": 1281,
      "grade": 1282,
      "mit": 1283,
      "ĠAnd": 1284,
      "Ġbet": 1285,
      "ey": 1286,
      "Ġsite": 1287,
      "Ġfalse": 1288,
      "Ġeven": 1289,
      "ĠâĢĶ": 1290,
      "Ġred": 1291,
      "Ġwrong": 1292,
      "Ġfull": 1293,
      "'.": 1294,
      "fig": 1295,
      "Ġcontin": 1296,
      "move": 1297,
      "Ġtri": 1298,
      "===": 1299,
      "Ġinstead": 1300,
      "ĠWhat": 1301,
      "Ġsum": 1302,
      "Ġsometimes": 1303,
      "Ġbl": 1304,
      "ails": 1305,
      "indows": 1306,
      "Ġsol": 1307,
      "Ġeat": 1308,
      "new": 1309,
      "ide": 1310,
      "ift": 1311,
      "Ġdefault": 1312,
      "el": 1313,
      "app": 1314,
      "Ġwhere": 1315,
      "Ġcurrent": 1316,
      "ĠJS": 1317,
      "11": 1318,
      "adding": 1319,
      "ject": 1320,
      "Text": 1321,
      "Ġfree": 1322,
      "oup": 1323,
      "Ġunder": 1324,
      "Ġgot": 1325,
      "Ġflex": 1326,
      "Ġreturns": 1327,
      "://": 1328,
      "12": 1329,
      "Ġtrue": 1330,
      "Ġfind": 1331,
      "grid": 1332,
      "ily": 1333,
      "cur": 1334,
      "rc": 1335,
      "df": 1336,
      "Ġexist": 1337,
      "Ġinside": 1338,
      "Yes": 1339,
      "Ġthink": 1340,
      "Ġwrite": 1341,
      "Ġsecond": 1342,
      "ves": 1343,
      "coding": 1344,
      "reen": 1345,
      "Ġlikely": 1346,
      "content": 1347,
      "ĠCSV": 1348,
      "from": 1349,
      "Ġint": 1350,
      "Ġag": 1351,
      "Ġcase": 1352,
      "Ġbreak": 1353,
      "ph": 1354,
      "just": 1355,
      "Ġ%": 1356,
      "));": 1357,
      "lect": 1358,
      "Ġweird": 1359,
      "Ġvalue": 1360,
      "Ġproble": 1361,
      "attery": 1362,
      "par": 1363,
      "Ġcontinue": 1364,
      "Ġflo": 1365,
      "Ġnumber": 1366,
      "Ġgives": 1367,
      "Ġdid": 1368,
      "Ġhere": 1369,
      "Ġbas": 1370,
      "Ġpass": 1371,
      "Ġtop": 1372,
      "sole": 1373,
      "Ġtype": 1374,
      "Ġpadding": 1375,
      "'ve": 1376,
      "gest": 1377,
      "Ġlocal": 1378,
      "Ġblock": 1379,
      "Ġ50": 1380,
      "Ġclass": 1381,
      "Ġboth": 1382,
      "ale": 1383,
      "ute": 1384,
      "Ġhigh": 1385,
      "self": 1386,
      "unk": 1387,
      "mail": 1388,
      "ware": 1389,
      "Ġ12": 1390,
      "Th": 1391,
      "Ġchain": 1392,
      "Ġproblem": 1393,
      "16": 1394,
      "imer": 1395,
      ")`": 1396,
      "Ġdat": 1397,
      "ott": 1398,
      "Ġauto": 1399,
      "Ġavoid": 1400,
      "atus": 1401,
      "wh": 1402,
      "Ġplay": 1403,
      "cript": 1404,
      "alls": 1405,
      "ĠplaceFood": 1406,
      "wn": 1407,
      "Ġbig": 1408,
      "Ġob": 1409,
      "atic": 1410,
      "ĠIn": 1411,
      "eah": 1412,
      "},": 1413,
      "Ġother": 1414,
      "Use": 1415,
      "Ġra": 1416,
      "Ġtwo": 1417,
      "22": 1418,
      "bab": 1419,
      "meta": 1420,
      "utf": 1421,
      "Ġexcept": 1422,
      "imal": 1423,
      "lat": 1424,
      "lter": 1425,
      "Ġhard": 1426,
      "append": 1427,
      "Ġcould": 1428,
      "Ġthan": 1429,
      "min": 1430,
      "tps": 1431,
      "Ġhappen": 1432,
      "ingle": 1433,
      "Ġ30": 1434,
      "++;": 1435,
      "rect": 1436,
      "ec": 1437,
      "ĠV": 1438,
      "arget": 1439,
      "ance": 1440,
      "len": 1441,
      "Ġalign": 1442,
      "Ġseconds": 1443,
      "Ġweb": 1444,
      "Ġupdated": 1445,
      "Ġsingle": 1446,
      "lli": 1447,
      "mb": 1448,
      "pos": 1449,
      "Ġmult": 1450,
      "Ġfaster": 1451,
      "Ġcopy": 1452,
      "Ġmeans": 1453,
      "Up": 1454,
      "Ġche": 1455,
      "});": 1456,
      "ear": 1457,
      "ĠTh": 1458,
      "Ġsolid": 1459,
      "ie": 1460,
      "Ġ15": 1461,
      "Ġquotes": 1462,
      "ix": 1463,
      "arg": 1464,
      "bably": 1465,
      "sy": 1466,
      "Ġitems": 1467,
      "```<|": 1468,
      "ific": 1469,
      "Ġvar": 1470,
      "--": 1471,
      "max": 1472,
      "ten": 1473,
      "Ġpower": 1474,
      "Ġtake": 1475,
      "res": 1476,
      "str": 1477,
      "Ġsave": 1478,
      "orage": 1479,
      "span": 1480,
      "Ġfloat": 1481,
      "attern": 1482,
      "reat": 1483,
      "Ġitem": 1484,
      "Ġfield": 1485,
      "stem": 1486,
      "etch": 1487,
      "Ġbattery": 1488,
      "item": 1489,
      "bash": 1490,
      "utes": 1491,
      "orm": 1492,
      "ĠJust": 1493,
      "Ġextra": 1494,
      "],": 1495,
      "length": 1496,
      "}\")": 1497,
      "ark": 1498,
      "Ġstep": 1499,
      "Ġusually": 1500,
      "Ġagain": 1501,
      "Ġwait": 1502,
      "()*": 1503,
      "Ġspec": 1504,
      "Ġuses": 1505,
      "box": 1506,
      "ĠsetInterval": 1507,
      "Ġturn": 1508,
      "work": 1509,
      "ule": 1510,
      "Ġpaste": 1511,
      "Ġchang": 1512,
      "Ġimages": 1513,
      "Ġinstall": 1514,
      "Ġphone": 1515,
      "Ġbox": 1516,
      "lain": 1517,
      "ump": 1518,
      "ary": 1519,
      "Ġsw": 1520,
      "...": 1521,
      "Ġdict": 1522,
      "Ġthose": 1523,
      "Ġstop": 1524,
      "Ġuser": 1525,
      "Ġap": 1526,
      "Ġend": 1527,
      "ner": 1528,
      "ud": 1529,
      "().": 1530,
      "andas": 1531,
      "Ġleft": 1532,
      "top": 1533,
      "Ġbit": 1534,
      "fe": 1535,
      "amily": 1536,
      "ĠEx": 1537,
      "Ġwater": 1538,
      "Ġconsole": 1539,
      "ĠK": 1540,
      "ĠNo": 1541,
      "strip": 1542,
      "ĠĠĠĠĠĠĠĠĠĠĠĠĠĠĠĠĠĠĠ": 1543,
      "Ġelement": 1544,
      "Ġprints": 1545,
      "Ġspace": 1546,
      "Ġencoding": 1547,
      "202": 1548,
      "py": 1549,
      "Ġcorrect": 1550,
      "Ġreg": 1551,
      "Ġstuff": 1552,
      "cle": 1553,
      "isplay": 1554,
      "Ġ[{": 1555,
      "idd": 1556,
      "input": 1557,
      "Ġdy": 1558,
      "irection": 1559,
      "Ġcrash": 1560,
      "family": 1561,
      "ption": 1562,
      "Ġinit": 1563,
      "img": 1564,
      "Ġspawn": 1565,
      "iny": 1566,
      "Each": 1567,
      "value": 1568,
      "Right": 1569,
      "ospace": 1570,
      "etime": 1571,
      "30": 1572,
      "PU": 1573,
      "json": 1574,
      "Ġhit": 1575,
      "ĠWindows": 1576,
      "ĠLike": 1577,
      "ĠOr": 1578,
      "Ġprefix": 1579,
      "Ġtab": 1580,
      "ert": 1581,
      "inter": 1582,
      "Game": 1583,
      "Ġjs": 1584,
      "Ġfixed": 1585,
      "ER": 1586,
      "Qu": 1587,
      "sor": 1588,
      "adi": 1589,
      "Ġtrans": 1590,
      "fin": 1591,
      "Ġtell": 1592,
      "ches": 1593,
      "less": 1594,
      "Ġfails": 1595,
      "Ġjustify": 1596,
      "Ġtemp": 1597,
      "Ġcomplete": 1598,
      "iz": 1599,
      "document": 1600,
      "Ġdrops": 1601,
      "Ġmatch": 1602,
      "tings": 1603,
      "ush": 1604,
      "otal": 1605,
      "Le": 1606,
      "ray": 1607,
      "Ġput": 1608,
      "Ġlight": 1609,
      "AM": 1610,
      "Ġlevel": 1611,
      "area": 1612,
      "net": 1613,
      "Ġtile": 1614,
      "your": 1615,
      "stamp": 1616,
      "ĠTry": 1617,
      "Ġmonospace": 1618,
      "Ġ9": 1619,
      "Ġfe": 1620,
      "></": 1621,
      "Ġz": 1622,
      "Ġmode": 1623,
      "()`": 1624,
      "YY": 1625,
      "resh": 1626,
      "ator": 1627,
      "Ġvi": 1628,
      "Ġminutes": 1629,
      "lay": 1630,
      "iter": 1631,
      "gameOver": 1632,
      "Count": 1633,
      "Ġwhole": 1634,
      "Ġmost": 1635,
      "Ġbuild": 1636,
      "Ġresp": 1637,
      "mory": 1638,
      "ottom": 1639,
      "rename": 1640,
      "Ġanything": 1641,
      "red": 1642,
      "Ġinput": 1643,
      "Ġhour": 1644,
      "pect": 1645,
      "gn": 1646,
      "main": 1647,
      "uct": 1648,
      "Ġhandles": 1649,
      "Ġtiny": 1650,
      "peed": 1651,
      "Ġquote": 1652,
      "forEach": 1653,
      "Ġcell": 1654,
      "Ġmultip": 1655,
      "No": 1656,
      "ON": 1657,
      "vh": 1658,
      "Ġwas": 1659,
      "Context": 1660,
      "oto": 1661,
      "Ġupgrade": 1662,
      "15": 1663,
      "Ġ[]": 1664,
      "llision": 1665,
      "Ġerrors": 1666,
      "Ġincre": 1667,
      "Loop": 1668,
      "Size": 1669,
      "nect": 1670,
      "El": 1671,
      "ctually": 1672,
      "Ġseg": 1673,
      ":-": 1674,
      "hing": 1675,
      "Ġwon": 1676,
      "Ġmemory": 1677,
      "board": 1678,
      "vi": 1679,
      "Ġminimal": 1680,
      "Ġbuy": 1681,
      "ical": 1682,
      "Ġsys": 1683,
      "Ġpandas": 1684,
      "Ġnet": 1685,
      "${": 1686,
      "Ġdes": 1687,
      "Ġpoints": 1688,
      "vert": 1689,
      "Click": 1690,
      "Ġide": 1691,
      "ence": 1692,
      "ĠCSS": 1693,
      "Ġparse": 1694,
      "io": 1695,
      "onse": 1696,
      "led": 1697,
      "Ġpr": 1698,
      "ices": 1699,
      "day": 1700,
      "Ġ200": 1701,
      "keydown": 1702,
      "Ġ7": 1703,
      "Ġaw": 1704,
      "Ġoutput": 1705,
      "Ġreal": 1706,
      "55": 1707,
      "zy": 1708,
      "Ġimage": 1709,
      "But": 1710,
      "Ġwould": 1711,
      "Ġrequests": 1712,
      "33": 1713,
      "shift": 1714,
      "Ġworking": 1715,
      "quire": 1716,
      "âĢĻ": 1717,
      "ci": 1718,
      "ob": 1719,
      "pop": 1720,
      "Ġcontent": 1721,
      "RL": 1722,
      "font": 1723,
      "}];": 1724,
      "rows": 1725,
      "getContext": 1726,
      "thanks": 1727,
      "Ġisn": 1728,
      "():": 1729,
      "Ġ--": 1730,
      "fillText": 1731,
      "OR": 1732,
      "TF": 1733,
      "Storage": 1734,
      "Ġexactly": 1735,
      "Ġsen": 1736,
      "aking": 1737,
      "ving": 1738,
      "ĠSt": 1739,
      "Ġremove": 1740,
      "Ġaround": 1741,
      "Ġposition": 1742,
      "Ġgood": 1743,
      "like": 1744,
      "Ġexp": 1745,
      "Ġstuck": 1746,
      "80": 1747,
      "fo": 1748,
      "Ġbetter": 1749,
      "Ġnon": 1750,
      "lob": 1751,
      "Ġdrive": 1752,
      "Ġneeded": 1753,
      "60": 1754,
      "ler": 1755,
      "hed": 1756,
      "total": 1757,
      "Ġfetch": 1758,
      "Left": 1759,
      "Read": 1760,
      "ger": 1761,
      "Ġbase": 1762,
      "Ġ->": 1763,
      "Ġwall": 1764,
      "https": 1765,
      "((": 1766,
      "Ġdatetime": 1767,
      "erm": 1768,
      "Ġpattern": 1769,
      "alue": 1770,
      "Ġadjust": 1771,
      "Ġwrap": 1772,
      "Ġvalues": 1773,
      "Ġactual": 1774,
      "=>": 1775,
      "Down": 1776,
      "sort": 1777,
      "yp": 1778,
      "irst": 1779,
      "word": 1780,
      "><": 1781,
      "ins": 1782,
      "ĠRe": 1783,
      "Ġself": 1784,
      "Ġspaces": 1785,
      "tr": 1786,
      "Ġcal": 1787,
      "OS": 1788,
      "ero": 1789,
      "Ġtool": 1790,
      "write": 1791,
      "adius": 1792,
      "ates": 1793,
      "\":": 1794,
      "Ġed": 1795,
      "ĠActually": 1796,
      "ĠCPU": 1797,
      "ension": 1798,
      "Ġtarget": 1799,
      "Ġbasic": 1800,
      "unshift": 1801,
      "quote": 1802,
      "Ġcollision": 1803,
      "Ġpd": 1804,
      "Ġwhy": 1805,
      "nums": 1806,
      "Ġorig": 1807,
      "ĠCh": 1808,
      "ĠDo": 1809,
      "Ġdirectory": 1810,
      "code": 1811,
      "Ġbad": 1812,
      "Ġthr": 1813,
      "Ġcharset": 1814,
      "ouble": 1815,
      "ases": 1816,
      "Ġemail": 1817,
      "Ġhappens": 1818,
      "alueError": 1819,
      "nel": 1820,
      "split": 1821,
      "Ġ()": 1822,
      "={": 1823,
      "Ġrunning": 1824,
      "Ġfail": 1825,
      "Yeah": 1826,
      "Ġwifi": 1827,
      "Good": 1828,
      "su": 1829,
      "cho": 1830,
      "Reader": 1831,
      "ways": 1832,
      "ous": 1833,
      "ĠclearInterval": 1834,
      "Ġsn": 1835,
      "pend": 1836,
      "('.": 1837,
      "seg": 1838,
      "replace": 1839,
      "Ġrequire": 1840,
      "Ġ(!": 1841,
      "Ġformat": 1842,
      "pro": 1843,
      "ĠAdd": 1844,
      "This": 1845,
      "ank": 1846,
      "ĠgridSize": 1847,
      "ictReader": 1848,
      "Ġdriver": 1849,
      "ormal": 1850,
      "ery": 1851,
      "100": 1852,
      "ongest": 1853,
      "ince": 1854,
      "Ġbtn": 1855,
      "update": 1856,
      "Ġnothing": 1857,
      "ating": 1858,
      "Ġmessage": 1859,
      "oh": 1860,
      "sive": 1861,
      "'])": 1862,
      "Ġsrc": 1863,
      "kay": 1864,
      "tp": 1865,
      "inner": 1866,
      "ĠURL": 1867,
      "Ġruns": 1868,
      "Ġpri": 1869,
      "Ġmain": 1870,
      "Ġport": 1871,
      "ask": 1872,
      "Ġgetting": 1873,
      "ArrowUp": 1874,
      "Ġlong": 1875,
      "ĠSh": 1876,
      "eric": 1877,
      "Ġfilter": 1878,
      "Ġcommon": 1879,
      "Ġjson": 1880,
      "sible": 1881,
      "Ġstr": 1882,
      "lip": 1883,
      "pping": 1884,
      "Ġidea": 1885,
      "Ch": 1886,
      "','": 1887,
      "ArrowRight": 1888,
      "map": 1889,
      "no": 1890,
      "rew": 1891,
      "([": 1892,
      "pri": 1893,
      "Ġorder": 1894,
      "ArrowLeft": 1895,
      "Ġarrow": 1896,
      "align": 1897,
      "Ġimg": 1898,
      "Ġframe": 1899,
      "ĠHow": 1900,
      "Ġaccess": 1901,
      "ative": 1902,
      "otos": 1903,
      "Ġproper": 1904,
      "De": 1905,
      "Ġoften": 1906,
      "nal": 1907,
      "example": 1908,
      "ĠSave": 1909,
      "Ġalways": 1910,
      "ful": 1911,
      "ArrowDown": 1912,
      "Ġcause": 1913,
      "Ġonce": 1914,
      "irect": 1915,
      "part": 1916,
      "sub": 1917,
      "Ġeverything": 1918,
      "Ġspecific": 1919,
      "tri": 1920,
      "Ġinitial": 1921,
      "ĠRun": 1922,
      "ID": 1923,
      "vices": 1924,
      "Ġpick": 1925,
      "ket": 1926,
      "TP": 1927,
      "pr": 1928,
      "tle": 1929,
      "Ġcatch": 1930,
      "Ġ1000": 1931,
      "br": 1932,
      "ook": 1933,
      "sum": 1934,
      "med": 1935,
      "Ġeas": 1936,
      "ated": 1937,
      "Ġplain": 1938,
      "email": 1939,
      "Ġplayer": 1940,
      "Ġcounter": 1941,
      "Ġscreen": 1942,
      "Ġcook": 1943,
      "Ġcolumns": 1944,
      "cy": 1945,
      "rol": 1946,
      "ync": 1947,
      "Ġoriginal": 1948,
      "ling": 1949,
      "etc": 1950,
      "Ġprobably": 1951,
      "Ġthrough": 1952,
      "Ġwalls": 1953,
      "Ġconfig": 1954,
      "Ġarray": 1955,
      "left": 1956,
      "Ġbeen": 1957,
      "Ġcols": 1958,
      "IM": 1959,
      "oud": 1960,
      "ites": 1961,
      "})": 1962,
      "its": 1963,
      "ĠAPI": 1964,
      "GB": 1965,
      "bile": 1966,
      "over": 1967,
      "oks": 1968,
      "Ġhot": 1969,
      "ĠTrue": 1970,
      "argv": 1971,
      "ber": 1972,
      "ĠOn": 1973,
      "|>```": 1974,
      "'))": 1975,
      "aut": 1976,
      "avas": 1977,
      "index": 1978,
      "idden": 1979,
      "avascript": 1980,
      "ken": 1981,
      "og": 1982,
      "imation": 1983,
      "Ġmobile": 1984,
      "radius": 1985,
      "Ġday": 1986,
      "Ġsystem": 1987,
      "ĠValueError": 1988,
      "DictReader": 1989,
      "fresh": 1990,
      "Ġsafe": 1991,
      "fff": 1992,
      "Then": 1993,
      "Ġvari": 1994,
      "'`": 1995,
      "Ġsplit": 1996,
      "OM": 1997,
      "light": 1998,
      "Ġnewline": 1999,
      "Ġgets": 2000,
      "lower": 2001,
      "Ġcounts": 2002,
      "Ġenough": 2003,
      "Ġnormal": 2004,
      "files": 2005,
      "Ġcommand": 2006,
      "status": 2007,
      "Ġmany": 2008,
      "Ġexists": 2009,
      "Ġnetwork": 2010,
      ".\",": 2011,
      "01": 2012,
      "Ġfo": 2013,
      "Ġfact": 2014,
      "Ġconvert": 2015,
      "Ġfall": 2016,
      "ntil": 2017,
      "Ġstate": 2018,
      "Ġchecks": 2019,
      "Ġdrop": 2020,
      "ude": 2021,
      "ĠčĊ": 2022,
      "Ġfa": 2023,
      "Ġyear": 2024,
      "ĠOpen": 2025,
      "ĠJSON": 2026,
      "cked": 2027,
      "aper": 2028,
      "Ġcontain": 2029,
      "eyError": 2030,
      "Ġlength": 2031,
      "Ġextension": 2032,
      "listdir": 2033,
      "uc": 2034,
      "Ġtick": 2035,
      "that": 2036,
      "Ġpress": 2037,
      "Ġchanges": 2038,
      "Ġreads": 2039,
      "itch": 2040,
      "pear": 2041,
      "Ġchunk": 2042,
      "Ġtimestamp": 2043,
      "Ġdirectly": 2044,
      "Ġsuper": 2045,
      "Ġroot": 2046,
      "posed": 2047,
      "Ġapple": 2048,
      "Ġdiv": 2049,
      "Ġlot": 2050,
      "rome": 2051,
      "ager": 2052,
      "Al": 2053,
      "Snake": 2054,
      "reate": 2055,
      "ouch": 2056,
      "Ġbackup": 2057,
      "Ġfields": 2058,
      "btn": 2059,
      "To": 2060,
      "uch": 2061,
      "Ġtimer": 2062,
      "inks": 2063,
      "GH": 2064,
      "annel": 2065,
      "ĠFalse": 2066,
      "serif": 2067,
      "temp": 2068,
      "Ġsupposed": 2069,
      "Pro": 2070,
      "site": 2071,
      "Ġlater": 2072,
      "Ġign": 2073,
      "Ġsend": 2074,
      "mes": 2075,
      "loop": 2076,
      "Ġstrings": 2077,
      "Ġcrashing": 2078,
      "In": 2079,
      "the": 2080,
      "sider": 2081,
      "Ġdoing": 2082,
      "'):": 2083,
      "Sh": 2084,
      "}\"": 2085,
      "Ġones": 2086,
      "Ġautom": 2087,
      "Ġ${": 2088,
      "mis": 2089,
      "Ġvalid": 2090,
      "`.<|": 2091,
      "src": 2092,
      "Ġsav": 2093,
      "clud": 2094,
      "%;": 2095,
      "copy": 2096,
      "sol": 2097,
      "Ġtyp": 2098,
      "Ġ},": 2099,
      "Ġnums": 2100,
      "grades": 2101,
      "Ġvariable": 2102,
      "44": 2103,
      "alk": 2104,
      "Ġoption": 2105,
      "Ġsettings": 2106,
      "Ġuntil": 2107,
      "Ġcost": 2108,
      "*.": 2109,
      "Cost": 2110,
      "Ġsans": 2111,
      "Ġwindow": 2112,
      "Ġnull": 2113,
      "Ġ80": 2114,
      "ĠlocalStorage": 2115,
      "Ġregex": 2116,
      "Ġstore": 2117,
      "Ġ40": 2118,
      "Fi": 2119,
      "da": 2120,
      "Ġitself": 2121,
      "Ġconsider": 2122,
      "config": 2123,
      "ounds": 2124,
      "ĠMan": 2125,
      "(()": 2126,
      "Ġlongest": 2127,
      "nection": 2128,
      "column": 2129,
      "Ġinterval": 2130,
      "mm": 2131,
      "Ġreading": 2132,
      "fined": 2133,
      "Ġdouble": 2134,
      "raw": 2135,
      "String": 2136,
      "ĠnextDirection": 2137,
      "Quote": 2138,
      "ping": 2139,
      "Ġsay": 2140,
      "Ġsepar": 2141,
      "atches": 2142,
      "Ġfl": 2143,
      "Ġent": 2144,
      "Ġstre": 2145,
      "Ġ<=": 2146,
      "Ġtra": 2147,
      "Ġhours": 2148,
      "solute": 2149,
      "Item": 2150,
      "Default": 2151,
      "bin": 2152,
      "Ġ?": 2153,
      "Ġits": 2154,
      "Ġ{'": 2155,
      "Ġmodem": 2156,
      "Ġraise": 2157,
      "An": 2158,
      "javascript": 2159,
      "ĠAn": 2160,
      "Ġalert": 2161,
      "Index": 2162,
      "oint": 2163,
      "ĠDate": 2164,
      "display": 2165,
      "pet": 2166,
      "ename": 2167,
      "ĠWi": 2168,
      "ventDefault": 2169,
      "full": 2170,
      "Ġbr": 2171,
      "For": 2172,
      "Hey": 2173,
      "())": 2174,
      "apter": 2175,
      "Ġwhite": 2176,
      "Ġmoves": 2177,
      "Ġgoes": 2178,
      "Ġsorted": 2179,
      "}:": 2180,
      "Ġsign": 2181,
      "Ġhost": 2182,
      "Ġchannel": 2183,
      "oke": 2184,
      "Ġmuch": 2185,
      "Ġ60": 2186,
      "111": 2187,
      "Ġignore": 2188,
      "Dir": 2189,
      "Ġlit": 2190,
      "Ġgener": 2191,
      "Ġ'.": 2192,
      "preventDefault": 2193,
      "Ġbro": 2194,
      "Ġupdates": 2195,
      "Ġbottom": 2196,
      "oduct": 2197,
      "eplace": 2198,
      "find": 2199,
      "Ġage": 2200,
      "stac": 2201,
      "Ġfound": 2202,
      "Ġworked": 2203,
      "lines": 2204,
      "uge": 2205,
      "Ġ150": 2206,
      "unch": 2207,
      "ĠExample": 2208,
      "Ġanother": 2209,
      "Ġloading": 2210,
      "LE": 2211,
      "Ġown": 2212,
      "Ġthrow": 2213,
      "Ġcommas": 2214,
      "40": 2215,
      "Ġdf": 2216,
      "ĠWhen": 2217,
      "Ġsnip": 2218,
      "page": 2219,
      "Ġiter": 2220,
      "last": 2221,
      "45": 2222,
      "True": 2223,
      "dict": 2224,
      "Ġ:": 2225,
      "mess": 2226,
      "verage": 2227,
      "Ġdup": 2228,
      "ĠCopy": 2229,
      "Ġparts": 2230,
      "used": 2231,
      "Ġgold": 2232,
      "Ġtimes": 2233,
      "Ġlists": 2234,
      "type": 2235,
      "Ġgoing": 2236,
      "Se": 2237,
      "fect": 2238,
      "labe": 2239,
      "Ġthings": 2240,
      "Ġlittle": 2241,
      "Ġsnippet": 2242,
      "Frame": 2243,
      "cent": 2244,
      "so": 2245,
      "lif": 2246,
      "Ġword": 2247,
      "sys": 2248,
      "ba": 2249,
      "Ġstick": 2250,
      "(\\": 2251,
      "png": 2252,
      "inst": 2253,
      "Ġrep": 2254,
      "Ġstyle": 2255,
      "group": 2256,
      "Ġmultiple": 2257,
      "\"{": 2258,
      "uck": 2259,
      "Ġmonth": 2260,
      "Ġappear": 2261,
      "label": 2262,
      "Ġair": 2263,
      "Ġnone": 2264,
      "adow": 2265,
      "Ġ`<": 2266,
      "Ġstatus": 2267,
      "Ġconnect": 2268,
      "Ġwords": 2269,
      "works": 2270,
      "Ġresponse": 2271,
      "Ġautomatic": 2272,
      "Ġsli": 2273,
      "Ġcable": 2274,
      "ceback": 2275,
      "omm": 2276,
      "prefix": 2277,
      "Ġcheap": 2278,
      "HTML": 2279,
      "}-": 2280,
      "ĠĠĠĠĠĠĠĠ": 2281,
      "Ġdone": 2282,
      "Ġ19": 2283,
      "ately": 2284,
      "Ġlooks": 2285,
      "setInterval": 2286,
      "Ġabsolute": 2287,
      "lient": 2288,
      "Ġtag": 2289,
      "except": 2290,
      "Ġwee": 2291,
      "mission": 2292,
      "AT": 2293,
      "Ġdx": 2294,
      "Ġ`.": 2295,
      "open": 2296,
      "Ġcompress": 2297,
      "]`": 2298,
      "ward": 2299,
      "oss": 2300,
      "Ġ};": 2301,
      "Ġused": 2302,
      "Ġadapter": 2303,
      "Ġmakes": 2304,
      "view": 2305,
      "message": 2306,
      "UTF": 2307,
      "Ġcare": 2308,
      "ĠFirst": 2309,
      "Timeout": 2310,
      "Ġreally": 2311,
      "arch": 2312,
      "Ġfallback": 2313,
      "by": 2314,
      "gameLoop": 2315,
      "ween": 2316,
      "-%": 2317,
      "check": 2318,
      "css": 2319,
      "ĠSS": 2320,
      "Ġtimeout": 2321,
      "Ġnever": 2322,
      "ĠSet": 2323,
      "Ġobject": 2324,
      "OST": 2325,
      "Ġscrew": 2326,
      "Ġcool": 2327,
      "match": 2328,
      "Ġhidden": 2329,
      "ggle": 2330,
      "Ġtried": 2331,
      "where": 2332,
      "Ġmodel": 2333,
      "Ġtouch": 2334,
      "Ġdust": 2335,
      "Ġbug": 2336,
      ")};": 2337,
      "Ġwire": 2338,
      "ather": 2339,
      "starts": 2340,
      "eep": 2341,
      "uce": 2342,
      "ess": 2343,
      "thod": 2344,
      "Ġstatic": 2345,
      "textarea": 2346,
      "Ġswitch": 2347,
      "itor": 2348,
      "ĠWe": 2349,
      "Ġmodule": 2350,
      "comp": 2351,
      "222": 2352,
      "Ġvia": 2353,
      "Re": 2354,
      "Run": 2355,
      "Ġplug": 2356,
      "ending": 2357,
      "Ġsubfolder": 2358,
      "Ġskips": 2359,
      "err": 2360,
      "llow": 2361,
      "plug": 2362,
      "Your": 2363,
      "Ġcharact": 2364,
      "Ġsaid": 2365,
      "Name": 2366,
      "not": 2367,
      "assi": 2368,
      "Ġglob": 2369,
      "local": 2370,
      "names": 2371,
      "ract": 2372,
      "Ġless": 2373,
      "Ġcontrol": 2374,
      "ĠspawnFood": 2375,
      "TTP": 2376,
      "center": 2377,
      "leep": 2378,
      "Ġconnection": 2379,
      "Ġdisable": 2380,
      "Ġnames": 2381,
      "ROR": 2382,
      "Ġlang": 2383,
      "backup": 2384,
      "==='": 2385,
      "Ex": 2386,
      "Ġside": 2387,
      "ĠPro": 2388,
      "Ġprog": 2389,
      "Ġissues": 2390,
      "Ġbetween": 2391,
      "Ġfla": 2392,
      "Ġservice": 2393,
      "Ġdet": 2394,
      "Ġpause": 2395,
      "Ġmaking": 2396,
      "ĠOver": 2397,
      "Ġ!=": 2398,
      "Ġpointer": 2399,
      "Ġawait": 2400,
      "stacles": 2401,
      "cale": 2402,
      "}_": 2403,
      "ature": 2404,
      "arge": 2405,
      "Ġbest": 2406,
      "Ġdevices": 2407,
      "Ġappro": 2408,
      "result": 2409,
      "ĠManager": 2410,
      "Animation": 2411,
      "**": 2412,
      "Got": 2413,
      "resp": 2414,
      "ments": 2415,
      "ource": 2416,
      "lipboard": 2417,
      "AnimationFrame": 2418,
      ".,": 2419,
      "Ġpull": 2420,
      "nde": 2421,
      "Ġblank": 2422,
      "clock": 2423,
      "hell": 2424,
      "Ġrecur": 2425,
      "ĠRAM": 2426,
      "Ġrob": 2427,
      "ee": 2428,
      "ĠĠĠĠĠĠĠĠĠ": 2429,
      "use": 2430,
      "Ġrefresh": 2431,
      "ĠDon": 2432,
      "medi": 2433,
      "Ġ__": 2434,
      "Ġms": 2435,
      "ternal": 2436,
      "ustom": 2437,
      "Ġ['": 2438,
      "Ġclose": 2439,
      "Ġmanually": 2440,
      "hor": 2441,
      "ved": 2442,
      "Ġetc": 2443,
      "Ġdark": 2444,
      "++)": 2445,
      "Div": 2446,
      "bu": 2447,
      "ux": 2448,
      "lice": 2449,
      "MM": 2450,
      "Ġcap": 2451,
      "lib": 2452,
      "class": 2453,
      "ats": 2454,
      "Ġ16": 2455,
      "Ġneg": 2456,
      "iled": 2457,
      "({": 2458,
      "Ġtheir": 2459,
      "Ġhone": 2460,
      "Ġmoving": 2461,
      "Ġphotos": 2462,
      "Ġri": 2463,
      "Ġhuge": 2464,
      "Ġshop": 2465,
      "valid": 2466,
      "Ġdidn": 2467,
      "ape": 2468,
      "Ġstrip": 2469,
      "ĠTo": 2470,
      "ache": 2471,
      "Display": 2472,
      "Okay": 2473,
      "Ġrever": 2474,
      "Ġadded": 2475,
      "clude": 2476,
      "Ġrobust": 2477,
      "ends": 2478,
      "Ġworn": 2479,
      "cols": 2480,
      "Ġwar": 2481,
      "Ġdays": 2482,
      "Ġlow": 2483,
      "Ġrender": 2484,
      "Ġecho": 2485,
      "Ġ...": 2486,
      "Ġdrain": 2487,
      "ĠKeyError": 2488,
      "IMG": 2489,
      "Ġbroken": 2490,
      "Ġautomatically": 2491,
      "IN": 2492,
      "cation": 2493,
      "cket": 2494,
      "ove": 2495,
      "ots": 2496,
      "ctions": 2497,
      "ĠGood": 2498,
      "99": 2499,
      "cc": 2500,
      "ĠThey": 2501,
      "header": 2502,
      "quare": 2503,
      "ĠNet": 2504,
      "ĠDe": 2505,
      "numeric": 2506,
      "Ġtraceback": 2507,
      "24": 2508,
      "Ġcreate": 2509,
      "lamb": 2510,
      "Ġdropping": 2511,
      "php": 2512,
      "Ġapproach": 2513,
      "lambda": 2514,
      "speed": 2515,
      "Ġmethod": 2516,
      "Ġshort": 2517,
      "Ġtrick": 2518,
      "assic": 2519,
      ".\"": 2520,
      "AS": 2521,
      "server": 2522,
      "loads": 2523,
      "ashes": 2524,
      "Ġmean": 2525,
      "ĠScore": 2526,
      "Ġdef": 2527,
      "etter": 2528,
      "Ġstand": 2529,
      "roll": 2530,
      "amount": 2531,
      "ĠYour": 2532,
      "Ġacc": 2533,
      "PIO": 2534,
      ">`": 2535,
      "Random": 2536,
      "block": 2537,
      "dition": 2538,
      "root": 2539,
      "ilt": 2540,
      "Ġlower": 2541,
      "Ġevent": 2542,
      "Ġlibr": 2543,
      "bove": 2544,
      "lector": 2545,
      "ĠtileCount": 2546,
      "base": 2547,
      "Ġabove": 2548,
      "stly": 2549,
      "ĠIS": 2550,
      "ither": 2551,
      "Ġnote": 2552,
      "Ġask": 2553,
      "scale": 2554,
      "ĠUS": 2555,
      "point": 2556,
      "Ġcustom": 2557,
      "ade": 2558,
      "Ġear": 2559,
      "Ġheaders": 2560,
      "Ġtextarea": 2561,
      "ĠKeep": 2562,
      "Ġyears": 2563,
      ":<|": 2564,
      "host": 2565,
      "sed": 2566,
      "request": 2567,
      "Ġexternal": 2568,
      "gging": 2569,
      "Ġweek": 2570,
      "Add": 2571,
      "ied": 2572,
      "Ġcut": 2573,
      "ĠMaybe": 2574,
      "way": 2575,
      "Ġluck": 2576,
      "ĠIs": 2577,
      "ents": 2578,
      "ĠGo": 2579,
      "ndefined": 2580,
      "Not": 2581,
      "ier": 2582,
      "inux": 2583,
      "ĠSome": 2584,
      "Ġadmin": 2585,
      "'].": 2586,
      "Ġhome": 2587,
      "Ġlimit": 2588,
      "ĠClick": 2589,
      "ĠFix": 2590,
      "Ġcursor": 2591,
      "Ġblue": 2592,
      "||": 2593,
      "Ġpad": 2594,
      "Ġheav": 2595,
      "gged": 2596,
      "Ġhardware": 2597,
      "ish": 2598,
      "lier": 2599,
      "Ġleast": 2600,
      "Ġlogic": 2601,
      "GHz": 2602,
      "DD": 2603,
      "ced": 2604,
      "mod": 2605,
      "Ġdry": 2606,
      "ĠIP": 2607,
      "Ġnear": 2608,
      "ĠUn": 2609,
      "Ġhelps": 2610,
      "got": 2611,
      "gba": 2612,
      "Ġrepe": 2613,
      "Ġrelat": 2614,
      "output": 2615,
      "ĠOne": 2616,
      "sync": 2617,
      "ever": 2618,
      "ses": 2619,
      "Ġbunch": 2620,
      "lack": 2621,
      "Ġarg": 2622,
      "Ġ'+": 2623,
      "ridge": 2624,
      "Ġeating": 2625,
      "Ġwebsite": 2626,
      "Ġfailing": 2627,
      "Copy": 2628,
      "next": 2629,
      "wise": 2630,
      "Ġdig": 2631,
      "Ġmatches": 2632,
      "Ġthree": 2633,
      "cell": 2634,
      "fir": 2635,
      "Ġexpect": 2636,
      "Ġstarts": 2637,
      "Ġbecome": 2638,
      "AME": 2639,
      "dis": 2640,
      "ĠFile": 2641,
      "scores": 2642,
      "ĠThanks": 2643,
      "direction": 2644,
      "nown": 2645,
      "ren": 2646,
      "Ġfr": 2647,
      "ord": 2648,
      "Ġhad": 2649,
      "window": 2650,
      "Ġgreen": 2651,
      "Ġfirm": 2652,
      "Ġbuilt": 2653,
      "Ġpaths": 2654,
      "innerHTML": 2655,
      "Also": 2656,
      "Date": 2657,
      "Ġcondition": 2658,
      "Ġ-=": 2659,
      "ĠgameLoop": 2660,
      "ffect": 2661,
      "Ġclassic": 2662,
      "ference": 2663,
      "Ġduplic": 2664,
      "25": 2665,
      "direct": 2666,
      "ipe": 2667,
      "Ġind": 2668,
      "limit": 2669,
      "ĠReplace": 2670,
      "Ġdesk": 2671,
      "SS": 2672,
      "cing": 2673,
      "Ġam": 2674,
      "Ġcard": 2675,
      "string": 2676,
      "orial": 2677,
      "Ġhal": 2678,
      "Ġasync": 2679,
      "Head": 2680,
      "_'": 2681,
      "ped": 2682,
      "ster": 2683,
      "Ġonclick": 2684,
      "ĠCould": 2685,
      "device": 2686,
      "Ġplu": 2687,
      "spree": 2688,
      "Ġfancy": 2689,
      "parse": 2690,
      "endswith": 2691,
      "ĠUSB": 2692,
      "=[": 2693,
      "Ġsupport": 2694,
      "na": 2695,
      "Ġtup": 2696,
      "itive": 2697,
      "ĠBetter": 2698,
      "Ġclos": 2699,
      "color": 2700,
      "Ġcookies": 2701,
      "Ġok": 2702,
      "Ġcover": 2703,
      "aming": 2704,
      "Ġcomput": 2705,
      "Ġclicks": 2706,
      "clear": 2707,
      "Ġzero": 2708,
      "None": 2709,
      "off": 2710,
      "try": 2711,
      "Ġshe": 2712,
      "Ġpaus": 2713,
      "Ġremo": 2714,
      "Ġstays": 2715,
      "query": 2716,
      "ĠUp": 2717,
      "formance": 2718,
      "lst": 2719,
      "Ġlst": 2720,
      "Ġtoday": 2721,
      "Ġhold": 2722,
      "UP": 2723,
      "Ġpaper": 2724,
      "rop": 2725,
      "Ġupgrades": 2726,
      "Ġjump": 2727,
      "ĠPaste": 2728,
      "ĠsetTimeout": 2729,
      "shadow": 2730,
      "acation": 2731,
      "Ġlazy": 2732,
      "Ġsensor": 2733,
      "erminal": 2734,
      "($": 2735,
      "bottom": 2736,
      "sers": 2737,
      "aring": 2738,
      "photo": 2739,
      "Child": 2740,
      "ĠISP": 2741,
      "els": 2742,
      "tes": 2743,
      "ref": 2744,
      "Ġbelow": 2745,
      "Ġdevice": 2746,
      "contain": 2747,
      ")):": 2748,
      "air": 2749,
      "sure": 2750,
      "ww": 2751,
      "123": 2752,
      "ĠThis": 2753,
      "response": 2754,
      "Ġrest": 2755,
      "Ġ{}": 2756,
      "ĠscoreEl": 2757,
      "Ġallow": 2758,
      "ava": 2759,
      "Ġmodify": 2760,
      "create": 2761,
      "Ġinternet": 2762,
      "Ġrenames": 2763,
      "Ġextract": 2764,
      "iddle": 2765,
      "Probably": 2766,
      "Ġhalf": 2767,
      "you": 2768,
      "Ġurl": 2769,
      "Ġtreat": 2770,
      "memb": 2771,
      "Ġdi": 2772,
      "cker": 2773,
      "Ġgre": 2774,
      "Ġunless": 2775,
      "Ġsquare": 2776,
      "alth": 2777,
      "Ġinte": 2778,
      "Ġstri": 2779,
      "connect": 2780,
      "='#": 2781,
      "Ġraw": 2782,
      "Ġtakes": 2783,
      "Ġrequired": 2784,
      "ĠAny": 2785,
      "200": 2786,
      "ther": 2787,
      "Ġtabs": 2788,
      "viewport": 2789,
      "08": 2790,
      "RE": 2791,
      "Ġpop": 2792,
      "Ġ11": 2793,
      "Ġconf": 2794,
      "api": 2795,
      "Ġalt": 2796,
      "sudo": 2797,
      "]))": 2798,
      "Â°": 2799,
      "Ġes": 2800,
      "erate": 2801,
      "remove": 2802,
      "ĠAfter": 2803,
      "sorted": 2804,
      "Ġcalc": 2805,
      "process": 2806,
      "Col": 2807,
      "Path": 2808,
      "aw": 2809,
      "done": 2810,
      "late": 2811,
      "var": 2812,
      "ĠTest": 2813,
      "ared": 2814,
      "ams": 2815,
      "Ġgolden": 2816,
      "Ġrepla": 2817,
      "Ġsubfolders": 2818,
      "Ġheavy": 2819,
      "Ġtail": 2820,
      "Ġmer": 2821,
      "Alright": 2822,
      "Ġrelative": 2823,
      "18": 2824,
      ">=": 2825,
      "ched": 2826,
      "mon": 2827,
      "ors": 2828,
      "Ġmust": 2829,
      "Ġlarge": 2830,
      "Ġsimplest": 2831,
      "Ġ400": 2832,
      "Ġphoto": 2833,
      "Locale": 2834,
      "ĠInst": 2835,
      "Ġflag": 2836,
      "1000": 2837,
      "Check": 2838,
      "Could": 2839,
      "File": 2840,
      "IR": 2841,
      "push": 2842,
      "Ġpare": 2843,
      "Ġyourself": 2844,
      "ĠPath": 2845,
      "Ġkill": 2846,
      "Ġbased": 2847,
      "Ġobstacles": 2848,
      "Ġcontainer": 2849,
      "Ġcareful": 2850,
      "member": 2851,
      "Script": 2852,
      "Ġur": 2853,
      "Ġfinal": 2854,
      "Ġeither": 2855,
      "toLocale": 2856,
      "ĠChrome": 2857,
      "lify": 2858,
      "POST": 2859,
      "Ġlink": 2860,
      "Ġresults": 2861,
      "white": 2862,
      "Ġseparate": 2863,
      "ommand": 2864,
      "}-\\": 2865,
      "Ġparent": 2866,
      "My": 2867,
      "Rename": 2868,
      "holder": 2869,
      "}.": 2870,
      "Ġaverage": 2871,
      "Ġpin": 2872,
      "aph": 2873,
      "Ġseen": 2874,
      "Quick": 2875,
      "Ġfirmware": 2876,
      "Ġflat": 2877,
      "Ġrot": 2878,
      "Ġusage": 2879,
      "ĠSince": 2880,
      "ĠPut": 2881,
      "Start": 2882,
      "avig": 2883,
      "ified": 2884,
      "Ġstops": 2885,
      "Ġdying": 2886,
      "Ġnegative": 2887,
      "card": 2888,
      "mer": 2889,
      "ories": 2890,
      "Ġpe": 2891,
      "iting": 2892,
      "')`": 2893,
      "words": 2894,
      "current": 2895,
      "Speed": 2896,
      "cat": 2897,
      "Ġâ": 2898,
      "eth": 2899,
      "Ġ18": 2900,
      "Ġhttps": 2901,
      "Ġfreez": 2902,
      "Ġsteps": 2903,
      "Ġtransform": 2904,
      "Clock": 2905,
      "ube": 2906,
      "Ġ];": 2907,
      "raight": 2908,
      "Ġimmedi": 2909,
      "trl": 2910,
      "Ġcomputer": 2911,
      "city": 2912,
      "cending": 2913,
      "Ġcop": 2914,
      "umerate": 2915,
      "Ġchecking": 2916,
      "Ġadds": 2917,
      "Ġincrease": 2918,
      "Renamed": 2919,
      "){": 2920,
      "VER": 2921,
      "[:": 2922,
      "mage": 2923,
      "true": 2924,
      "Ġcaus": 2925,
      "step": 2926,
      "upgrade": 2927,
      "ĠMake": 2928,
      "Ġunplug": 2929,
      "startswith": 2930,
      "Ġterminal": 2931,
      "Ġsince": 2932,
      "mpt": 2933,
      "ĠTask": 2934,
      "ically": 2935,
      "ginx": 2936,
      "Ġnoise": 2937,
      "Ġ90": 2938,
      "!==": 2939,
      "First": 2940,
      "RID": 2941,
      "aks": 2942,
      "run": 2943,
      "target": 2944,
      "reset": 2945,
      "ading": 2946,
      "lime": 2947,
      "Ġdelete": 2948,
      "images": 2949,
      "Ġsync": 2950,
      "ĠrequestAnimationFrame": 2951,
      "yo": 2952,
      "Ġcases": 2953,
      "Ġshut": 2954,
      "ĠHTTP": 2955,
      "Ġnamed": 2956,
      "Ġelements": 2957,
      "2023": 2958,
      "YYYY": 2959,
      "Ġslight": 2960,
      "Ġbul": 2961,
      "exist": 2962,
      "Ġolder": 2963,
      "cool": 2964,
      "Ġmiddle": 2965,
      "Ġrele": 2966,
      "Ġsoft": 2967,
      "Ġdead": 2968,
      "ĠMy": 2969,
      "Ġpossible": 2970,
      "Ġpaused": 2971,
      "ED": 2972,
      "HP": 2973,
      "Now": 2974,
      "Ġbar": 2975,
      "Ġfig": 2976,
      "Ġ25": 2977,
      "timestamp": 2978,
      "Ġpermission": 2979,
      "Ġdesktop": 2980,
      "\";": 2981,
      ":#": 2982,
      "Oh": 2983,
      "Ġcir": 2984,
      "Ġpush": 2985,
      "Ġinclud": 2986,
      "exit": 2987,
      "Ġenumerate": 2988,
      "Ġcrashes": 2989,
      "apping": 2990,
      "Ġhonestly": 2991,
      "Ġfigure": 2992,
      "23": 2993,
      "ST": 2994,
      "ffi": 2995,
      "most": 2996,
      "Ġbash": 2997,
      "ĠUTF": 2998,
      "='')": 2999,
      "Ġtiles": 3000,
      "price": 3001,
      "ogle": 3002,
      "avaScript": 3003,
      "yeah": 3004,
      "Ġ\\": 3005,
      "Ġmix": 3006,
      "Ġreload": 3007,
      "ession": 3008,
      "Ġexit": 3009,
      "ĠSnake": 3010,
      "ĠWait": 3011,
      "Ġdisk": 3012,
      "Ġoverhe": 3013,
      "168": 3014,
      "ĠStart": 3015,
      "Ġfollow": 3016,
      "]+": 3017,
      "then": 3018,
      "Ġtight": 3019,
      "field": 3020,
      "ility": 3021,
      "abled": 3022,
      "Ġdicts": 3023,
      "Ġcompressed": 3024,
      "ĠSSD": 3025,
      "lin": 3026,
      "arrow": 3027,
      "Ġgrow": 3028,
      "ople": 3029,
      "iff": 3030,
      "Ġcontact": 3031,
      "Ġspot": 3032,
      "Ġpassword": 3033,
      "Ġswap": 3034,
      "Ġincreases": 3035,
      "Ġcalled": 3036,
      "Ġprice": 3037,
      "clearRect": 3038,
      "come": 3039,
      "cost": 3040,
      "Ġcalls": 3041,
      "ĠLook": 3042,
      "timeout": 3043,
      "Ġcolors": 3044,
      "ideo": 3045,
      "333": 3046,
      "$(": 3047,
      "Save": 3048,
      "][": 3049,
      "none": 3050,
      "Ġsmo": 3051,
      "Ġnut": 3052,
      "alright": 3053,
      "exec": 3054,
      "(){": 3055,
      "ics": 3056,
      "Ġopening": 3057,
      "Ġprevent": 3058,
      "web": 3059,
      "Ġeasy": 3060,
      "Ġpost": 3061,
      "Ġrgba": 3062,
      "(',": 3063,
      "Ġbeing": 3064,
      "Ġwriter": 3065,
      "float": 3066,
      "Ġtwice": 3067,
      "Ġroll": 3068,
      "Ġappears": 3069,
      "'?": 3070,
      "DIR": 3071,
      "Timer": 3072,
      "xy": 3073,
      "zip": 3074,
      "Ġcra": 3075,
      "Ġpract": 3076,
      "Ġmatter": 3077,
      "Ġtherm": 3078,
      "ips": 3079,
      "Ġ500": 3080,
      "active": 3081,
      "ĠForm": 3082,
      "False": 3083,
      "glob": 3084,
      "timer": 3085,
      "ystem": 3086,
      "Ġdist": 3087,
      "filter": 3088,
      "ĠMac": 3089,
      "Ġwebpage": 3090,
      "ERROR": 3091,
      "Ġlibrary": 3092,
      "pass": 3093,
      "Ġundefined": 3094,
      "Ġcron": 3095,
      "Ġslower": 3096,
      "ĠChange": 3097,
      "Ġ192": 3098,
      "ique": 3099,
      "Ġcas": 3100,
      "Ġdur": 3101,
      "Ġokay": 3102,
      "Ġtrack": 3103,
      "Ġapps": 3104,
      "ĠGet": 3105,
      "Ġclicker": 3106,
      "Ġlogs": 3107,
      "Ġeats": 3108,
      "Ġbuilding": 3109,
      "=>{": 3110,
      "Ġfailed": 3111,
      "Ġthrowing": 3112,
      "}`": 3113,
      "Ġyes": 3114,
      "Ġstraight": 3115,
      "chunk": 3116,
      "ĠPower": 3117,
      "ĠJavaScript": 3118,
      "submit": 3119,
      "Ġcharacters": 3120,
      "Ġreverse": 3121,
      "of": 3122,
      "Ġwhe": 3123,
      "Ġdog": 3124,
      "ĠCount": 3125,
      "Ġbeh": 3126,
      "ĠBOM": 3127,
      "Ġdeb": 3128,
      "Ġdeep": 3129,
      "auto": 3130,
      "Ġfront": 3131,
      "skip": 3132,
      "tod": 3133,
      "vy": 3134,
      "info": 3135,
      "ought": 3136,
      "ens": 3137,
      "Ġnice": 3138,
      "http": 3139,
      "olt": 3140,
      "ular": 3141,
      "Ġneeds": 3142,
      "Ġdec": 3143,
      "Ġadding": 3144,
      "Ġspeeds": 3145,
      "Ġsimpler": 3146,
      "Ġmodified": 3147,
      "Ġquoted": 3148,
      "Ġsaved": 3149,
      "Ġprogra": 3150,
      "\"`": 3151,
      "]:": 3152,
      "flow": 3153,
      "ges": 3154,
      "sage": 3155,
      "tick": 3156,
      "}')": 3157,
      "Ġsu": 3158,
      "level": 3159,
      "Ġpan": 3160,
      "Ġassu": 3161,
      "Ġ**": 3162,
      "Ġvents": 3163,
      "Ġbytes": 3164,
      "Ġfeel": 3165,
      "Ġedge": 3166,
      "ĠShow": 3167,
      "dark": 3168,
      "Ġcar": 3169,
      "sted": 3170,
      "ouse": 3171,
      "imple": 3172,
      "Ġfixes": 3173,
      "Ġhandling": 3174,
      "Ġsmaller": 3175,
      "ized": 3176,
      "Ġaway": 3177,
      "Ġsignal": 3178,
      "fact": 3179,
      "Ġquest": 3180,
      "ones": 3181,
      "Ġ24": 3182,
      "ĠGPIO": 3183,
      "Ġpersist": 3184,
      "Ġplaceholder": 3185,
      "Ġspin": 3186,
      "Ġprinter": 3187,
      "tribut": 3188,
      "Color": 3189,
      "!/": 3190,
      "Type": 3191,
      "case": 3192,
      "vacation": 3193,
      "Ġaction": 3194,
      "Ġsink": 3195,
      "onent": 3196,
      "Ġdownload": 3197,
      "Ġproperly": 3198,
      "Ġbecomes": 3199,
      "Ġcalcul": 3200,
      "ĠQuick": 3201,
      "Ġcert": 3202,
      "Ġmv": 3203,
      "Ġthread": 3204,
      "Ġgues": 3205,
      "001": 3206,
      "Ġ[];": 3207,
      "Ġarea": 3208,
      "Ġplan": 3209,
      "Ġbrowsers": 3210,
      "Ġslightly": 3211,
      "#!/": 3212,
      "press": 3213,
      "Ġsounds": 3214,
      "Ġwalk": 3215,
      "Ġgu": 3216,
      "ols": 3217,
      "Ġ120": 3218,
      "Ġsetup": 3219,
      "Ġsetting": 3220,
      "Selector": 3221,
      "Ġimmediately": 3222,
      "%,": 3223,
      ")`.": 3224,
      "orks": 3225,
      "Ġhang": 3226,
      "ions": 3227,
      "Ġarr": 3228,
      "Ġboot": 3229,
      "Ġcells": 3230,
      "Shift": 3231,
      "ĨĴ": 3232,
      "siz": 3233,
      "Ġgreat": 3234,
      "Ġscr": 3235,
      "ĠCl": 3236,
      "Ġbackend": 3237,
      "filepath": 3238,
      "Ġrandomly": 3239,
      "TimeString": 3240,
      "Ġgroup": 3241,
      "vious": 3242,
      "directory": 3243,
      "ET": 3244,
      "OU": 3245,
      "Ob": 3246,
      "home": 3247,
      "Ġthese": 3248,
      "Ġbus": 3249,
      "Ġmid": 3250,
      "ptim": 3251,
      "Ġchanged": 3252,
      "Ġproduct": 3253,
      "ĠWeb": 3254,
      "Ġstandard": 3255,
      "05": 3256,
      "bas": 3257,
      "bar": 3258,
      "cus": 3259,
      "pdf": 3260,
      "Ġsl": 3261,
      "Ġwatch": 3262,
      "rial": 3263,
      "Ġrule": 3264,
      "Ġproject": 3265,
      "Ġvideo": 3266,
      "Ġclicking": 3267,
      "Ġtwe": 3268,
      "exists": 3269,
      ":%": 3270,
      "[-": 3271,
      "\\.": 3272,
      "Ġcart": 3273,
      "Ġtoggle": 3274,
      "Ġins": 3275,
      "Ġ14": 3276,
      "Ġ`-": 3277,
      "ĠWant": 3278,
      "paused": 3279,
      "Ġapples": 3280,
      "ification": 3281,
      "Let": 3282,
      "MB": 3283,
      "New": 3284,
      "fort": 3285,
      "pm": 3286,
      "ĠĠĠĠčĊ": 3287,
      "ĠArial": 3288,
      "Ġworth": 3289,
      "writer": 3290,
      "Ġsense": 3291,
      "}_{": 3292,
      "ĠâĨĴ": 3293,
      "AR": 3294,
      "pattern": 3295,
      "Ġinclude": 3296,
      "ateg": 3297,
      "Ġjob": 3298,
      "ĠNow": 3299,
      "ĠLinux": 3300,
      "Ġexplain": 3301,
      "Ġrecursive": 3302,
      "avigator": 3303,
      "today": 3304,
      "Note": 3305,
      "hour": 3306,
      "lean": 3307,
      "Ġfar": 3308,
      "Ġmail": 3309,
      "Ġrem": 3310,
      "ries": 3311,
      "Ġdoor": 3312,
      "Ġdeal": 3313,
      "pple": 3314,
      "Ġbigger": 3315,
      "ucture": 3316,
      "toLocaleTimeString": 3317,
      "Skip": 3318,
      "echo": 3319,
      "sleep": 3320,
      "return": 3321,
      "Ġcul": 3322,
      "Ġ`/": 3323,
      "Ġcome": 3324,
      "ĠPi": 3325,
      "Ġcomfort": 3326,
      "Ġcalling": 3327,
      "Ġcorrectly": 3328,
      "clean": 3329,
      "Ġrespon": 3330,
      "product": 3331,
      "Ġtuple": 3332,
      "Ġculpr": 3333,
      "!<|": 3334,
      "JS": 3335,
      "Sp": 3336,
      "US": 3337,
      "post": 3338,
      "ĠQuote": 3339,
      "Ġcache": 3340,
      "Ġfri": 3341,
      "Ġder": 3342,
      "Ġdie": 3343,
      "uture": 3344,
      "Ġremember": 3345,
      "Ġfill": 3346,
      "Ġnested": 3347,
      "keys": 3348,
      "Ġthermal": 3349,
      "af": 3350,
      "here": 3351,
      "ia": 3352,
      "Ġtable": 3353,
      "ency": 3354,
      "ently": 3355,
      "Ġtrail": 3356,
      "Ġensure": 3357,
      "Ġoutside": 3358,
      "show": 3359,
      "boot": 3360,
      "izes": 3361,
      "Ġtitle": 3362,
      "Ġcreat": 3363,
      "Ġblow": 3364,
      "Ġmach": 3365,
      "Ġloud": 3366,
      "aries": 3367,
      "ĠImage": 3368,
      "Ġhref": 3369,
      "ĠArrow": 3370,
      "Ġscroll": 3371,
      "umb": 3372,
      "pair": 3373,
      "ĠOVER": 3374,
      "Ġtech": 3375,
      "Ġhttp": 3376,
      "parts": 3377,
      "querySelector": 3378,
      "ĠCounter": 3379,
      "GAME": 3380,
      "So": 3381,
      "else": 3382,
      "Ġwindows": 3383,
      "Ġthough": 3384,
      "Ġeffect": 3385,
      "river": 3386,
      "ĠAd": 3387,
      "cond": 3388,
      "values": 3389,
      "Ġprinting": 3390,
      "ĠrandomFood": 3391,
      "counts": 3392,
      "Ġchecked": 3393,
      "AC": 3394,
      "Or": 3395,
      "dx": 3396,
      "md": 3397,
      "report": 3398,
      "oring": 3399,
      "Ġthird": 3400,
      "Ġstack": 3401,
      "Ġsec": 3402,
      "Ġauthor": 3403,
      "Ġhits": 3404,
      "classList": 3405,
      "Get": 3406,
      "LL": 3407,
      "dig": 3408,
      "Ġ~": 3409,
      "req": 3410,
      "Ġball": 3411,
      "Ġmap": 3412,
      "ĠIndex": 3413,
      "Ġdomain": 3414,
      "omb": 3415,
      "Thanks": 3416,
      "itespace": 3417,
      "Ġcomfortable": 3418,
      "=$(": 3419,
      "vant": 3420,
      "Ġsim": 3421,
      "Ġdam": 3422,
      "Ġping": 3423,
      "ality": 3424,
      "oney": 3425,
      "Ġhealth": 3426,
      "Ġstructure": 3427,
      "Ġframeworks": 3428,
      "Ġplugin": 3429,
      "Ġoverheating": 3430,
      "liner": 3431,
      "Make": 3432,
      "NS": 3433,
      "apt": 3434,
      "sk": 3435,
      "leur": 3436,
      "Ġlab": 3437,
      "Ġselect": 3438,
      "ailleur": 3439,
      "ĠShould": 3440,
      "Ġcookie": 3441,
      "instance": 3442,
      "limiter": 3443,
      "ĠUpdate": 3444,
      "Ġderailleur": 3445,
      "19": 3446,
      "ness": 3447,
      "Ġcy": 3448,
      "Ġnode": 3449,
      "alled": 3450,
      "char": 3451,
      "abs": 3452,
      "sette": 3453,
      "Ġfactorial": 3454,
      "14": 3455,
      "52": 3456,
      "Ph": 3457,
      "Press": 3458,
      "RI": 3459,
      "clipboard": 3460,
      "vx": 3461,
      "wright": 3462,
      "Ġfore": 3463,
      "oudf": 3464,
      "Ġ')": 3465,
      "idx": 3466,
      "Ġloads": 3467,
      "while": 3468,
      "oudfla": 3469,
      "Esc": 3470,
      "FI": 3471,
      "mtime": 3472,
      "pad": 3473,
      "ume": 3474,
      "Ġclock": 3475,
      "Ġpast": 3476,
      "Ġmill": 3477,
      "Ġ'__": 3478,
      "headers": 3479,
      "Ġseems": 3480,
      "Ġwhitespace": 3481,
      "Ġreduce": 3482,
      "Ġappend": 3483,
      "Ġtransition": 3484,
      "Ġsoftware": 3485,
      "Found": 3486,
      "MG": 3487,
      "Usage": 3488,
      "ah": 3489,
      "Ġ&": 3490,
      "Ġclient": 3491,
      "Ġreport": 3492,
      "ĠIMG": 3493,
      "umber": 3494,
      "Ġdelay": 3495,
      "ĠGRID": 3496,
      "Ġexisting": 3497,
      "2026": 3498,
      "Ġtemps": 3499,
      "prime": 3500,
      "Ġduplicates": 3501,
      "createElement": 3502,
      "ĠIndexError": 3503,
      "Ġ_": 3504,
      "Ġfuture": 3505,
      "Ġmount": 3506,
      "Ġlay": 3507,
      "Ġ''": 3508,
      "()\">": 3509,
      "Ġjoke": 3510,
      "illa": 3511,
      "ĠscoreDiv": 3512,
      "Ġvs": 3513,
      "Ġwrote": 3514,
      "ublic": 3515,
      "Ġminute": 3516,
      "test": 3517,
      "Ġ600": 3518,
      "Ġresets": 3519,
      "Ġreplacement": 3520,
      "udio": 3521,
      "first": 3522,
      "Ġcassette": 3523,
      ")}": 3524,
      "+)": 3525,
      "dy": 3526,
      "ded": 3527,
      "ĠĠčĊ": 3528,
      "Ġsession": 3529,
      "Ġbike": 3530,
      "Ġlocation": 3531,
      "Ġdev": 3532,
      "ĠMost": 3533,
      "Ġidle": 3534,
      "begin": 3535,
      "'],": 3536,
      "ception": 3537,
      "Ġboard": 3538,
      "__':": 3539,
      "Ġbreaks": 3540,
      "2024": 3541,
      "Ġquestion": 3542,
      "'>": 3543,
      "Ah": 3544,
      "iest": 3545,
      "null": 3546,
      "Ġsource": 3547,
      "Ġrate": 3548,
      "Ġrout": 3549,
      "Ġstable": 3550,
      "Ġconver": 3551,
      "ĠCon": 3552,
      "Ġcomes": 3553,
      "Ġenable": 3554,
      "Ġhash": 3555,
      "perfect": 3556,
      "msg": 3557,
      "apple": 3558,
      "appendChild": 3559,
      "Ġview": 3560,
      "555": 3561,
      "localStorage": 3562,
      ".</": 3563,
      "Ġsur": 3564,
      "Ġlinks": 3565,
      "Ġscan": 3566,
      "ĠPHP": 3567,
      "aves": 3568,
      "Ġcleaner": 3569,
      "Ġcleaned": 3570,
      "counter": 3571,
      "Ġremote": 3572,
      "Ġmachine": 3573,
      "'\\": 3574,
      ")]": 3575,
      "ium": 3576,
      "sw": 3577,
      "ern": 3578,
      "Ġfin": 3579,
      "Ġmay": 3580,
      "Ġstar": 3581,
      "isfile": 3582,
      "select": 3583,
      "Ġvis": 3584,
      "Ġcomma": 3585,
      "licit": 3586,
      "Ġduring": 3587,
      "Ġcartridge": 3588,
      "Ġblo": 3589,
      "alle": 3590,
      "section": 3591,
      "search": 3592,
      "Ġattribut": 3593,
      "Ġkind": 3594,
      "Ġcountdown": 3595,
      "Ġfilenames": 3596,
      "Ġprocesses": 3597,
      "Ġtempor": 3598,
      "ĠSettings": 3599,
      "Ġrelevant": 3600,
      "Ġnuts": 3601,
      "(-": 3602,
      ".\")": 3603,
      ":\\": 3604,
      "High": 3605,
      "WN": 3606,
      "db": 3607,
      "ts": 3608,
      "Ġsound": 3609,
      "includ": 3610,
      "Ġpay": 3611,
      "Ġpip": 3612,
      "Ġnginx": 3613,
      "usually": 3614,
      "Ġinvalid": 3615,
      "Ġforce": 3616,
      "Ġstay": 3617,
      "'),": 3618,
      "Ġheat": 3619,
      "close": 3620,
      "weight": 3621,
      "llib": 3622,
      "install": 3623,
      "disabled": 3624,
      "steroid": 3625,
      "Ġsmooth": 3626,
      "beginPath": 3627,
      "Con": 3628,
      "Ġsizes": 3629,
      "Ġyet": 3630,
      "uto": 3631,
      "sig": 3632,
      "Ġel": 3633,
      "Ġgap": 3634,
      "acity": 3635,
      "Ġparser": 3636,
      "444": 3637,
      "Span": 3638,
      "26": 3639,
      "pip": 3640,
      "rup": 3641,
      "als": 3642,
      "Ġrepair": 3643,
      "sib": 3644,
      "unks": 3645,
      "Ġloose": 3646,
      "lazy": 3647,
      "Ġproxy": 3648,
      "Ġcompare": 3649,
      "Ġinstalled": 3650,
      "Ġredirect": 3651,
      "cially": 3652,
      "Ġexplicit": 3653,
      "Ġentire": 3654,
      "ĠNetlify": 3655,
      "Int": 3656,
      "With": 3657,
      "ron": 3658,
      "Ġisinstance": 3659,
      "Ġrub": 3660,
      "('/": 3661,
      "pecially": 3662,
      "Ġexec": 3663,
      "Ġseeing": 3664,
      "Ġplus": 3665,
      "trans": 3666,
      "Ġtools": 3667,
      "Ġstret": 3668,
      "Ġbrake": 3669,
      "Ġcopies": 3670,
      "%.": 3671,
      "600": 3672,
      "And": 3673,
      "Data": 3674,
      "ault": 3675,
      "init": 3676,
      "Ġband": 3677,
      "encoding": 3678,
      "Ġmot": 3679,
      "arr": 3680,
      "Ġ'%": 3681,
      "Ġsearch": 3682,
      "Ġcho": 3683,
      "Ġcleaning": 3684,
      "Ġblocks": 3685,
      "ĠupgradeCost": 3686,
      "container": 3687,
      "ffici": 3688,
      "client": 3689,
      "Ġdies": 3690,
      "ution": 3691,
      "ĠID": 3692,
      "Ġstorage": 3693,
      "ups": 3694,
      "dev": 3695,
      "ĠnewHead": 3696,
      "erson": 3697,
      "']`": 3698,
      "Ġdefaultdict": 3699,
      "fieldnames": 3700,
      "Ġguess": 3701,
      "Ġculprit": 3702,
      "Bu": 3703,
      "IL": 3704,
      "Just": 3705,
      "Per": 3706,
      "ĠYYYY": 3707,
      "lections": 3708,
      "oups": 3709,
      "Ġmath": 3710,
      "getItem": 3711,
      "Ġnumeric": 3712,
      "Ġinterference": 3713,
      "umpy": 3714,
      "Ġreplacing": 3715,
      "ĠInstall": 3716,
      "ĠFormspree": 3717,
      "Ġtweak": 3718,
      "13": 3719,
      "Case": 3720,
      "Form": 3721,
      "PS": 3722,
      "go": 3723,
      "link": 3724,
      "ma": 3725,
      "Ġmed": 3726,
      "Ġdecent": 3727,
      "Ġleading": 3728,
      "State": 3729,
      "Ġaddress": 3730,
      "ĠupdateDisplay": 3731,
      "avg": 3732,
      "Ġdates": 3733,
      "Ġfeels": 3734,
      "Ġcrazy": 3735,
      "(?": 3736,
      "500": 3737,
      "ons": 3738,
      "Ġpipe": 3739,
      "ĠType": 3740,
      "ĠPress": 3741,
      "Ġdepend": 3742,
      "Ġbyte": 3743,
      "Ġknown": 3744,
      "Ġanyway": 3745,
      "Ġstarting": 3746,
      "licked": 3747,
      "finite": 3748,
      "Ġtrailing": 3749,
      ").<|": 3750,
      "Apple": 3751,
      "Command": 3752,
      "Send": 3753,
      "`?": 3754,
      "drop": 3755,
      "rite": 3756,
      "Ġcat": 3757,
      "anced": 3758,
      "Ġpur": 3759,
      "Ġlose": 3760,
      "Ġinline": 3761,
      "Ġequ": 3762,
      "ĠSe": 3763,
      "conds": 3764,
      "player": 3765,
      "Ġperformance": 3766,
      "Ġsegment": 3767,
      "Ġcosts": 3768,
      "Ġdigits": 3769,
      "Ġpeople": 3770,
      "Ġbullet": 3771,
      "Ġbusy": 3772,
      "(/": 3773,
      "Ctrl": 3774,
      "fetch": 3775,
      "zz": 3776,
      "Ġasteroid": 3777,
      "Ġsample": 3778,
      "Ġresize": 3779,
      "Ġ`'": 3780,
      "opied": 3781,
      "Ġlock": 3782,
      "lable": 3783,
      "Ġcoins": 3784,
      "graph": 3785,
      "Ġenem": 3786,
      "Ġoverlay": 3787,
      "Ġunique": 3788,
      "ĠThere": 3789,
      "Ġlonger": 3790,
      "Ġcircle": 3791,
      "rupt": 3792,
      "Dec": 3793,
      "UI": 3794,
      "nu": 3795,
      "sq": 3796,
      "rehen": 3797,
      "Ġdot": 3798,
      "Ġgear": 3799,
      "dest": 3800,
      "iling": 3801,
      "Ġwhatever": 3802,
      "Ġcomprehen": 3803,
      "Ġ$_": 3804,
      "Ġsubmit": 3805,
      "ĠhighScore": 3806,
      "Ġmerge": 3807,
      "Ġdebug": 3808,
      "ensitive": 3809,
      "KeyError": 3810,
      "draw": 3811,
      "ross": 3812,
      "ident": 3813,
      "iron": 3814,
      "Ġatt": 3815,
      "Ġwell": 3816,
      "ffer": 3817,
      "Ġapply": 3818,
      "face": 3819,
      "cook": 3820,
      "ĠendGame": 3821,
      "fully": 3822,
      "Ġdetect": 3823,
      "Ġcomprehension": 3824,
      "cial": 3825,
      "diff": 3826,
      "ged": 3827,
      "long": 3828,
      "man": 3829,
      "save": 3830,
      "async": 3831,
      "utable": 3832,
      "Ġrear": 3833,
      "image": 3834,
      "ations": 3835,
      "Ġhandy": 3836,
      "background": 3837,
      "Ġmanual": 3838,
      "Ġoptions": 3839,
      "Ġgenerator": 3840,
      "Ġargument": 3841,
      "Ġespecially": 3842,
      ":.": 3843,
      ":',": 3844,
      "Sounds": 3845,
      "git": 3846,
      "hmm": 3847,
      "Ġve": 3848,
      "Ġhav": 3849,
      "Ġround": 3850,
      "Ġ`--": 3851,
      "ĠClean": 3852,
      "pends": 3853,
      "Ġchunks": 3854,
      "Ġ\"/": 3855,
      "setItem": 3856,
      "ĠDOM": 3857,
      "default": 3858,
      "Ġmark": 3859,
      "author": 3860,
      "ĠGoogle": 3861,
      "NotFound": 3862,
      "webp": 3863,
      "includes": 3864,
      "34": 3865,
      "Do": 3866,
      "hover": 3867,
      "Ġrect": 3868,
      "arn": 3869,
      "ises": 3870,
      "Ġshift": 3871,
      "ĠPh": 3872,
      "Ġ300": 3873,
      "Ġidx": 3874,
      "dog": 3875,
      "ailable": 3876,
      "Ġtrigg": 3877,
      "1252": 3878,
      "Ġcharacter": 3879,
      "Ġforever": 3880,
      "NotFoundError": 3881,
      "Key": 3882,
      "cp": 3883,
      "che": 3884,
      "driver": 3885,
      "mar": 3886,
      "Ġsleep": 3887,
      "oun": 3888,
      "Ġblack": 3889,
      "Ġmoney": 3890,
      "owers": 3891,
      "Ġreboot": 3892,
      "Ġoper": 3893,
      "Ġforward": 3894,
      "sec": 3895,
      "Ġship": 3896,
      "Ġcomponent": 3897,
      "ĠER": 3898,
      "clickBtn": 3899,
      "Ġ800": 3900,
      "ottle": 3901,
      "Ġavoids": 3902,
      "args": 3903,
      "Ġextensions": 3904,
      "Ġpractical": 3905,
      "FILE": 3906,
      "_\"": 3907,
      "how": 3908,
      "walk": 3909,
      "Ġdep": 3910,
      "Ġthought": 3911,
      "Ġrsync": 3912,
      "ters": 3913,
      "andler": 3914,
      "Ġsomewhere": 3915,
      "='',": 3916,
      "Ġcharge": 3917,
      "Ġfeature": 3918,
      "Ġmultiplier": 3919,
      "Ġdescending": 3920,
      "Ġedit": 3921,
      "Ġmsg": 3922,
      "Ġaccident": 3923,
      "Ġpanel": 3924,
      "300": 3925,
      "bre": 3926,
      "omp": 3927,
      "ules": 3928,
      "erature": 3929,
      "Ġsuc": 3930,
      "Ġcss": 3931,
      "state": 3932,
      "Ġtheme": 3933,
      "Ġpair": 3934,
      "ings": 3935,
      "ĠTurn": 3936,
      "Ġupload": 3937,
      "abc": 3938,
      "icode": 3939,
      "ĠOS": 3940,
      "Ġoverl": 3941,
      "Ġpathlib": 3942,
      "Ġregular": 3943,
      "tries": 3944,
      "}:\\": 3945,
      "Ġfreezes": 3946,
      "Ġfriend": 3947,
      "'.<|": 3948,
      ")<|": 3949,
      "hero": 3950,
      "range": 3951,
      "Ġod": 3952,
      "Ġsug": 3953,
      "Ġthrows": 3954,
      "Ġreas": 3955,
      "Ġansw": 3956,
      "Ġcollections": 3957,
      "Ġ*.": 3958,
      "Ġ*/": 3959,
      "errors": 3960,
      "Ġacross": 3961,
      "Ġmessing": 3962,
      "\".": 3963,
      "'}": 3964,
      "flex": 3965,
      "make": 3966,
      "sm": 3967,
      "sent": 3968,
      "Ġton": 3969,
      "Ġcp": 3970,
      "Ġbomb": 3971,
      "sistent": 3972,
      "Ġscale": 3973,
      "ĠLo": 3974,
      "position": 3975,
      "ĠReact": 3976,
      "Ġurllib": 3977,
      "Ġflatten": 3978,
      "255": 3979,
      "Done": 3980,
      "OT": 3981,
      "What": 3982,
      "bg": 3983,
      "ool": 3984,
      "rap": 3985,
      "ties": 3986,
      "ying": 3987,
      "Ġsq": 3988,
      "Ġmal": 3989,
      "ried": 3990,
      "Ġ'';": 3991,
      "ĠPC": 3992,
      "Ġdelimiter": 3993,
      "Ġleave": 3994,
      "ĠDNS": 3995,
      "Ġenv": 3996,
      "Ġavg": 3997,
      "Ġedges": 3998,
      "compile": 3999,
      "ĠERROR": 4000,
      "66": 4001,
      ";`": 4002,
      "FO": 4003,
      "Lower": 4004,
      "free": 4005,
      "they": 4006,
      "Ġicon": 4007,
      "ination": 4008,
      "Ġ'/": 4009,
      "Ġ`[": 4010,
      "ides": 4011,
      "Ġbearing": 4012,
      "ĠSer": 4013,
      "emove": 4014,
      "odeError": 4015,
      "ĠWorks": 4016,
      "ĠLED": 4017,
      "Ġoverflow": 4018,
      "Ġsorts": 4019,
      "Ġgiving": 4020,
      "ouple": 4021,
      "Ġearly": 4022,
      "ACK": 4023,
      "digit": 4024,
      "Ġblocked": 4025,
      "Soup": 4026,
      "Un": 4027,
      "User": 4028,
      "]*": 4029,
      "des": 4030,
      "gre": 4031,
      "sa": 4032,
      "tok": 4033,
      "Ġ]": 4034,
      "Ġsus": 4035,
      "Ġcod": 4036,
      "utif": 4037,
      "Ġgl": 4038,
      "this": 4039,
      "Ġran": 4040,
      "ĠSpeed": 4041,
      "ulSoup": 4042,
      "Ġquality": 4043,
      "textAl": 4044,
      "toLower": 4045,
      "Ġmodern": 4046,
      "eautif": 4047,
      "('.'):": 4048,
      "Ġcauses": 4049,
      "Ġwheel": 4050,
      "Ġcertain": 4051,
      "DecodeError": 4052,
      "textAlign": 4053,
      "toLowerCase": 4054,
      "eautifulSoup": 4055,
      "Open": 4056,
      "`:": 4057,
      "sually": 4058,
      "}</": 4059,
      "Ġcv": 4060,
      "sign": 4061,
      "Ġ',": 4062,
      "Ġtrap": 4063,
      "race": 4064,
      "Ġsomeone": 4065,
      "Ġdefined": 4066,
      "Ġloops": 4067,
      "Ġquickly": 4068,
      "Ġaccept": 4069,
      "ellow": 4070,
      "Ġsubmission": 4071,
      "Ġgrab": 4072,
      "latin": 4073,
      "--;": 4074,
      "Ġagainst": 4075,
      "Ġusers": 4076,
      "GHT": 4077,
      "copyBtn": 4078,
      "Ġoptional": 4079,
      "Ġrepeat": 4080,
      "Ġinteger": 4081,
      "Ġdeeper": 4082,
      "ĠWebP": 4083,
      "Ġdamage": 4084,
      "source": 4085,
      "ĠX": 4086,
      "Ġtoken": 4087,
      "Ġste": 4088,
      "ĠSimple": 4089,
      "Ġconstant": 4090,
      "ĠNext": 4091,
      "DOWN": 4092,
      "wrap": 4093,
      "Ġchanging": 4094,
      "Ġentry": 4095,
      "lastic": 4096,
      "Ġscrews": 4097,
      "Ġprogress": 4098,
      "Ġrisk": 4099,
      "PN": 4100,
      "curl": 4101,
      "even": 4102,
      "gold": 4103,
      "hy": 4104,
      "ield": 4105,
      "ji": 4106,
      "restart": 4107,
      "Ġfname": 4108,
      "Ġtogg": 4109,
      "arily": 4110,
      "Ġher": 4111,
      "Ġforget": 4112,
      "peg": 4113,
      "Ġshare": 4114,
      "Ġ[[": 4115,
      "toggle": 4116,
      "cloud": 4117,
      "contact": 4118,
      "Ġfewer": 4119,
      "Ġunderscore": 4120,
      "Ġspecial": 4121,
      "theme": 4122,
      "Ġ404": 4123,
      "32": 4124,
      "Replace": 4125,
      "false": 4126,
      "paste": 4127,
      "send": 4128,
      "Ġsent": 4129,
      "Ġbri": 4130,
      "Ġperson": 4131,
      "Ġmac": 4132,
      "Ġlarg": 4133,
      "Ġren": 4134,
      "Ġreli": 4135,
      "Ġelif": 4136,
      "Ġgar": 4137,
      "Ġopp": 4138,
      "Ġonline": 4139,
      "very": 4140,
      "Ġ})": 4141,
      "Ġcontext": 4142,
      "ures": 4143,
      "Ġprov": 4144,
      "forward": 4145,
      "ĠNode": 4146,
      "Ġwear": 4147,
      "Ġvan": 4148,
      "Ġwriting": 4149,
      "Ġhandler": 4150,
      "weather": 4151,
      "photos": 4152,
      "Ġturns": 4153,
      "Ġprod": 4154,
      "Ġfauc": 4155,
      "Ġtypes": 4156,
      "IndexError": 4157,
      "ĠWiFi": 4158,
      "ommon": 4159,
      "Request": 4160,
      "rench": 4161,
      "Ġamount": 4162,
      "Ġaccidentally": 4163,
      "Ġlarger": 4164,
      "Ġfaucet": 4165,
      "AN": 4166,
      "Can": 4167,
      "Copied": 4168,
      "DE": 4169,
      "OK": 4170,
      "ftime": 4171,
      "wo": 4172,
      "Ġerr": 4173,
      "Ġnumpy": 4174,
      "usr": 4175,
      "Ġrewrite": 4176,
      "arp": 4177,
      "Ġhum": 4178,
      "users": 4179,
      "ĠTime": 4180,
      "Ġanimation": 4181,
      "console": 4182,
      "Ġreturning": 4183,
      "ackup": 4184,
      "Ġverify": 4185,
      "Ġcurl": 4186,
      "Ġmovement": 4187,
      "Ġfully": 4188,
      "Ġtypo": 4189,
      "columns": 4190,
      "Ġhosting": 4191,
      "456": 4192,
      "Ġrecursion": 4193,
      "www": 4194,
      "Ġmixed": 4195,
      "All": 4196,
      "CSS": 4197,
      "TC": 4198,
      "joke": 4199,
      "Ġtips": 4200,
      "ork": 4201,
      "mend": 4202,
      "Ġwrench": 4203,
      "Ġplastic": 4204,
      "Ġ{\"": 4205,
      "Ġ'_": 4206,
      "Ġscores": 4207,
      "Ġpret": 4208,
      "aily": 4209,
      "Ġdrivers": 4210,
      "RIGHT": 4211,
      "Ġrenaming": 4212,
      "->": 4213,
      "03": 4214,
      "AL": 4215,
      "IF": 4216,
      "OW": 4217,
      "dra": 4218,
      "uh": 4219,
      "wait": 4220,
      "}'": 4221,
      "Ġsme": 4222,
      "Ġwin": 4223,
      "Ġwash": 4224,
      "Ġdt": 4225,
      "Ġnavigator": 4226,
      "lie": 4227,
      "(),": 4228,
      "=\"/": 4229,
      "ĠBeautifulSoup": 4230,
      "ĠRemove": 4231,
      "Ġprefer": 4232,
      "Ġprevious": 4233,
      "Ġcloud": 4234,
      "Ġdirectories": 4235,
      "Ġroom": 4236,
      "Ġground": 4237,
      "strftime": 4238,
      "Ġincrement": 4239,
      "writeText": 4240,
      "Ġaccessing": 4241,
      "Skipping": 4242,
      "ĠAdjust": 4243,
      "ACKUP": 4244,
      "(`": 4245,
      "(...": 4246,
      "Power": 4247,
      "dom": 4248,
      "ðŁ": 4249,
      "Ġdue": 4250,
      "Ġpa": 4251,
      "Ġpublic": 4252,
      "env": 4253,
      "Ġlat": 4254,
      "Ġdest": 4255,
      "Ġweak": 4256,
      "Ġskipping": 4257,
      "Ġtries": 4258,
      "cription": 4259,
      "ecause": 4260,
      "Ġfeed": 4261,
      "(',')": 4262,
      "Ġanswer": 4263,
      "\"]": 4264,
      ")</": 4265,
      "75": 4266,
      "800": 4267,
      ":'": 4268,
      "BACKUP": 4269,
      "high": 4270,
      "inary": 4271,
      "anan": 4272,
      "Ġfib": 4273,
      "Ġworried": 4274,
      "abase": 4275,
      "aching": 4276,
      "ĠOther": 4277,
      "angle": 4278,
      "Ġsyml": 4279,
      "datetime": 4280,
      "Ġparsing": 4281,
      "format": 4282,
      "Ġclears": 4283,
      "ression": 4284,
      "Ġbasics": 4285,
      "Ġpersists": 4286,
      "HTTP": 4287,
      "MTP": 4288,
      "]]": 4289,
      "catch": 4290,
      "fs": 4291,
      "lcome": 4292,
      "nam": 4293,
      "ru": 4294,
      "Ġclicked": 4295,
      "roke": 4296,
      "=\"${": 4297,
      "Ġshared": 4298,
      "pped": 4299,
      "ĠupdateUI": 4300,
      "avi": 4301,
      "Ġdriving": 4302,
      "commend": 4303,
      "Ġzip": 4304,
      "Clicker": 4305,
      "ĠSometimes": 4306,
      "Ġpads": 4307,
      "Ġdiction": 4308,
      "Ġlayout": 4309,
      "Ġsuccess": 4310,
      "Shell": 4311,
      "did": 4312,
      "empty": 4313,
      "gent": 4314,
      "longest": 4315,
      "Ġcouple": 4316,
      "oriz": 4317,
      "Ġpot": 4318,
      "ender": 4319,
      "Ġtom": 4320,
      "ari": 4321,
      "Ġoptim": 4322,
      "quot": 4323,
      "ivity": 4324,
      "ilar": 4325,
      "Ġwelcome": 4326,
      "Ġends": 4327,
      "Ġteeth": 4328,
      "Ġcompute": 4329,
      "Ġcombo": 4330,
      "Ġvert": 4331,
      "numb": 4332,
      "Ġsafer": 4333,
      "licity": 4334,
      "Ġavailable": 4335,
      "Ġmessy": 4336,
      "Ġcorrected": 4337,
      "Ġflash": 4338,
      "Ġwarning": 4339,
      "Ġodd": 4340,
      "Ġsuggest": 4341,
      "cor": 4342,
      "det": 4343,
      "slice": 4344,
      "Ġtask": 4345,
      "Ġsites": 4346,
      "ond": 4347,
      "lease": 4348,
      "Ġnight": 4349,
      "Ġlos": 4350,
      "ades": 4351,
      "Ġresist": 4352,
      "Ġemo": 4353,
      "Ġrat": 4354,
      "ĠTell": 4355,
      "Ġsched": 4356,
      "second": 4357,
      "ĠSpace": 4358,
      "Ġ\"__": 4359,
      "ĠNot": 4360,
      "Ġaren": 4361,
      "Ġkit": 4362,
      "Ġactive": 4363,
      "__\":": 4364,
      "ixel": 4365,
      "Ġendpoint": 4366,
      "ĠException": 4367,
      "Ġtranslate": 4368,
      "innerText": 4369,
      "Ġbackups": 4370,
      "startsWith": 4371,
      "ĠPowerShell": 4372,
      "writerow": 4373,
      "ategory": 4374,
      "fficient": 4375,
      "ĠTypeError": 4376,
      "numbers": 4377,
      "'&&": 4378,
      "(['": 4379,
      "88": 4380,
      "Res": 4381,
      "Try": 4382,
      "ply": 4383,
      "spe": 4384,
      "uff": 4385,
      "Ġoth": 4386,
      "Ġbold": 4387,
      "enc": 4388,
      "asure": 4389,
      "Ġrecent": 4390,
      "Ġrecommend": 4391,
      "roid": 4392,
      "Ġwithin": 4393,
      "umul": 4394,
      "Ġlogging": 4395,
      "Ġsequ": 4396,
      "ĠPer": 4397,
      "ĠDis": 4398,
      "ags": 4399,
      "Ġplans": 4400,
      "Ġperfect": 4401,
      "Ġskipped": 4402,
      "Ġpara": 4403,
      "Ġchainring": 4404,
      "ĠRefresh": 4405,
      "Ġprime": 4406,
      "Ġeasier": 4407,
      "Ġtags": 4408,
      "Ġindices": 4409,
      "Ġbehind": 4410,
      "Ġentirely": 4411,
      "Ġothers": 4412,
      "bl": 4413,
      "hidden": 4414,
      "jpeg": 4415,
      "power": 4416,
      "void": 4417,
      "}{": 4418,
      "Ġsque": 4419,
      "ream": 4420,
      "stat": 4421,
      "stand": 4422,
      "Ġfresh": 4423,
      "asks": 4424,
      "ctx": 4425,
      "oter": 4426,
      "Ġ'{": 4427,
      "ife": 4428,
      "delete": 4429,
      "Ġchrome": 4430,
      "pawn": 4431,
      "ĠnewFood": 4432,
      "ilent": 4433,
      "Ġcomplex": 4434,
      "Ġfolders": 4435,
      "Ġhelpful": 4436,
      "curity": 4437,
      "Ġiterate": 4438,
      "ĠDevice": 4439,
      "Ġincluding": 4440,
      "oudflare": 4441,
      "Ġvanilla": 4442,
      "dst": 4443,
      "green": 4444,
      "node": 4445,
      "pi": 4446,
      "Ġtap": 4447,
      "Ġmade": 4448,
      "Ġremain": 4449,
      "Ġinvent": 4450,
      "Ġforgot": 4451,
      "cel": 4452,
      "Ġmetal": 4453,
      "Ġ/*": 4454,
      "ĠgameInterval": 4455,
      "ĠnewDir": 4456,
      "Ġpreser": 4457,
      "Ġplun": 4458,
      "Ġresol": 4459,
      "ĠupdateClock": 4460,
      "ighb": 4461,
      "Ġimpro": 4462,
      "Ġinternal": 4463,
      "Ġspecify": 4464,
      "Ġhitting": 4465,
      "ypot": 4466,
      "Ġentries": 4467,
      "Ġconnected": 4468,
      "Ġcontrols": 4469,
      "ĠNetwork": 4470,
      "ether": 4471,
      "!==-": 4472,
      "ĠHTTPS": 4473,
      "Ġpermissions": 4474,
      "password": 4475,
      "ĠOtherwise": 4476,
      "'},": 4477,
      "._": 4478,
      "90": 4479,
      ":]": 4480,
      "><|": 4481,
      "average": 4482,
      "big": 4483,
      "kill": 4484,
      "nable": 4485,
      "option": 4486,
      "vanced": 4487,
      "Ġbaking": 4488,
      "Ġpages": 4489,
      "Ġpie": 4490,
      "Ġmag": 4491,
      "ameter": 4492,
      "Ġoil": 4493,
      "Ġopa": 4494,
      "Ġneighb": 4495,
      "ĠEach": 4496,
      "Ġlights": 4497,
      "Show": 4498,
      "Ġexpected": 4499,
      "Ġrotate": 4500,
      "Ġstraightforward": 4501,
      "Ġsimilar": 4502,
      "orizont": 4503,
      "\"\"": 4504,
      ")*": 4505,
      "+'": 4506,
      "Alice": 4507,
      "GPIO": 4508,
      "SE": 4509,
      "Tick": 4510,
      "Test": 4511,
      "cally": 4512,
      "sl": 4513,
      "Ġq": 4514,
      "Ġapt": 4515,
      "Ġcity": 4516,
      "Ġbright": 4517,
      "Ġdaily": 4518,
      "arc": 4519,
      "Ġhero": 4520,
      "Ġhorizont": 4521,
      "Ġ((": 4522,
      "ĠApp": 4523,
      "Ġshadow": 4524,
      "Ġupdating": 4525,
      "lication": 4526,
      "apped": 4527,
      "Ġpicks": 4528,
      "Ġglobal": 4529,
      "Ġduplicate": 4530,
      "execCommand": 4531,
      "Ġassume": 4532,
      "Ġresponsive": 4533,
      "Ġroute": 4534,
      "Ġasteroids": 4535,
      "Ġenviron": 4536,
      "Ġtoggles": 4537,
      "Ġopacity": 4538,
      "!');": 4539,
      "Fix": 4540,
      "Mod": 4541,
      "Yep": 4542,
      "native": 4543,
      "tmp": 4544,
      "orrow": 4545,
      "Ġped": 4546,
      "aser": 4547,
      "ntu": 4548,
      "Ġ13": 4549,
      "Ġmenu": 4550,
      "Ġsell": 4551,
      "Ġanno": 4552,
      "emo": 4553,
      "Ġkeyboard": 4554,
      "gameInterval": 4555,
      "placeFood": 4556,
      "Ġindexing": 4557,
      "countdown": 4558,
      "Ġblocking": 4559,
      "Ġraises": 4560,
      "insensitive": 4561,
      "Ġgenerate": 4562,
      "02": 4563,
      "At": 4564,
      "Auto": 4565,
      "Windows": 4566,
      "action": 4567,
      "Ġbottle": 4568,
      "Ġpi": 4569,
      "Ġpure": 4570,
      "argest": 4571,
      "Ġhar": 4572,
      "Ġ'*.": 4573,
      "Ġrough": 4574,
      "cha": 4575,
      "andma": 4576,
      "imum": 4577,
      "Ġ*=": 4578,
      "Ġwrites": 4579,
      "Ġ2026": 4580,
      "Ġplant": 4581,
      "Ġoverwrite": 4582,
      "loading": 4583,
      "Ġcorrupt": 4584,
      "Ġdatabase": 4585,
      "interval": 4586,
      "Ġvisible": 4587,
      "ATE": 4588,
      "requestAnimationFrame": 4589,
      "Ġtechn": 4590,
      "Ġpretty": 4591,
      "Ok": 4592,
      "]{": 4593,
      "aa": 4594,
      "non": 4595,
      "Ġspend": 4596,
      "ĠĠĠĠĠĠĠĠĠĠĠĠĠĠĠĠĠĠĠĠĠĠĠ": 4597,
      "any": 4598,
      "Ġpump": 4599,
      "Ġliter": 4600,
      "Ġhim": 4601,
      "Ġmeant": 4602,
      "Ġlogin": 4603,
      "Ġdelet": 4604,
      "ĠUsually": 4605,
      "Ġvol": 4606,
      "Ġplumber": 4607,
      "Ġcrit": 4608,
      "Ġchars": 4609,
      "Ġblink": 4610,
      "Ġports": 4611,
      "socket": 4612,
      "Ġinspect": 4613,
      "Ġbrick": 4614,
      "Life": 4615,
      "On": 4616,
      "cr": 4617,
      "days": 4618,
      "eed": 4619,
      "gly": 4620,
      "maybe": 4621,
      "Ġfun": 4622,
      "Ġlag": 4623,
      "Ġ($": 4624,
      "Ġdoc": 4625,
      "lict": 4626,
      "Ġsection": 4627,
      "ĠSystem": 4628,
      "inding": 4629,
      "istic": 4630,
      "Ġquery": 4631,
      "ĠNote": 4632,
      "Ġalone": 4633,
      "Ġdirs": 4634,
      "Ġspam": 4635,
      "Ġcentered": 4636,
      "Ġsums": 4637,
      "Ġhappening": 4638,
      "Upgrade": 4639,
      "Ġmatching": 4640,
      "Ġvariables": 4641,
      "ASD": 4642,
      "Ġearlier": 4643,
      "Ġsquares": 4644,
      "Ġmotor": 4645,
      "Ġhaven": 4646,
      "domain": 4647,
      "FF": 4648,
      "NAME": 4649,
      "OL": 4650,
      "ccur": 4651,
      "gy": 4652,
      "rb": 4653,
      "what": 4654,
      "Ġ@": 4655,
      "Ġtree": 4656,
      "Ġtension": 4657,
      "Ġclipboard": 4658,
      "stroke": 4659,
      "Ġwere": 4660,
      "Ġgrace": 4661,
      "Ġ`\"": 4662,
      "Ġlive": 4663,
      "ptime": 4664,
      "Ġconfir": 4665,
      "ĠCommand": 4666,
      "ives": 4667,
      "Ġbuttons": 4668,
      "Ġdiff": 4669,
      "Ġsaf": 4670,
      "eaks": 4671,
      "weet": 4672,
      "parser": 4673,
      "ieve": 4674,
      "trim": 4675,
      "Ġtimestamps": 4676,
      "Ġignores": 4677,
      "Ġassumes": 4678,
      "ethernet": 4679,
      "Ġenvironment": 4680,
      "Ġgracefully": 4681,
      "\");": 4682,
      "'></": 4683,
      "Cl": 4684,
      "We": 4685,
      "gle": 4686,
      "ging": 4687,
      "round": 4688,
      "ysi": 4689,
      "Ġment": 4690,
      "Ġtim": 4691,
      "Ġsit": 4692,
      "Ġclo": 4693,
      "Ġcapt": 4694,
      "Ġcaching": 4695,
      "Ġmtime": 4696,
      "live": 4697,
      "ĠCommon": 4698,
      "Ġvolt": 4699,
      "Ġmins": 4700,
      "ĠupdateScore": 4701,
      "Ġdrains": 4702,
      "ĠGame": 4703,
      "Ġstartup": 4704,
      "Ġpartic": 4705,
      "Ġunderscores": 4706,
      "Ġdynam": 4707,
      "ĠLikely": 4708,
      "Ġeasiest": 4709,
      "Ġsaves": 4710,
      "Ġsudo": 4711,
      "Object": 4712,
      "Ġstarter": 4713,
      "Ġreliable": 4714,
      ")[": 4715,
      ".*": 4716,
      ";\">": 4717,
      "Bo": 4718,
      "Cur": 4719,
      "PG": 4720,
      "ValueError": 4721,
      "her": 4722,
      "lta": 4723,
      "mt": 4724,
      "rate": 4725,
      "rink": 4726,
      "}]": 4727,
      "ĠError": 4728,
      "only": 4729,
      "onclick": 4730,
      "stop": 4731,
      "Ġpla": 4732,
      "Ġ'-": 4733,
      "username": 4734,
      "=='": 4735,
      "'));": 4736,
      "Ġchild": 4737,
      "Ġwho": 4738,
      "Ġdecode": 4739,
      "Ġ32": 4740,
      "Ġweather": 4741,
      "ĠGive": 4742,
      "clicker": 4743,
      "PIN": 4744,
      "Ġpassing": 4745,
      "Ġsends": 4746,
      "Ġesc": 4747,
      "Ġcausing": 4748,
      "Ġdecimal": 4749,
      "Ġparagraph": 4750,
      "QL": 4751,
      "System": 4752,
      "Width": 4753,
      "[^": 4754,
      "event": 4755,
      "Ġethernet": 4756,
      "inf": 4757,
      "Ġbatch": 4758,
      "assive": 4759,
      "Ġreco": 4760,
      "ĠIN": 4761,
      "Ġinner": 4762,
      "Ġelect": 4763,
      "Ġgas": 4764,
      "Ġradius": 4765,
      "ĠTake": 4766,
      "());": 4767,
      "ential": 4768,
      "Ġworse": 4769,
      "romise": 4770,
      "Ġopener": 4771,
      "Ġattemp": 4772,
      "ĠOption": 4773,
      "Ġshowing": 4774,
      "'];": 4775,
      "access": 4776,
      "Ġ42": 4777,
      "Ġtweaks": 4778,
      "Ġlooking": 4779,
      "Ġparameter": 4780,
      "coded": 4781,
      "Ġdefaults": 4782,
      "reshold": 4783,
      "Ġrequires": 4784,
      "await": 4785,
      "Ġfreezing": 4786,
      "ounce": 4787,
      "icodeDecodeError": 4788,
      "Ġoverlap": 4789,
      "Ġsmell": 4790,
      "Ġemoji": 4791,
      "Backup": 4792,
      "ailed": 4793,
      "ffix": 4794,
      "und": 4795,
      "Ġsilent": 4796,
      "Ġclog": 4797,
      "Ġflick": 4798,
      "Ġyellow": 4799,
      "ities": 4800,
      "Ġlate": 4801,
      "Ġ'').": 4802,
      "Ġbegin": 4803,
      "Ġmeasure": 4804,
      "Ġexif": 4805,
      "screw": 4806,
      "iced": 4807,
      "settings": 4808,
      "Ġalmost": 4809,
      "Ġvalve": 4810,
      "Ġvery": 4811,
      "anged": 4812,
      "appy": 4813,
      "Ġunderstand": 4814,
      "Ġcompletely": 4815,
      "Ġsaving": 4816,
      "Ġslipping": 4817,
      "essage": 4818,
      "ĠPrompt": 4819,
      "points": 4820,
      "requests": 4821,
      "Ġargs": 4822,
      "Ġconflict": 4823,
      "Ġlabel": 4824,
      "sql": 4825,
      "Ġwasher": 4826,
      "150": 4827,
      "AD": 4828,
      "He": 4829,
      "Hmm": 4830,
      "Mail": 4831,
      "Ser": 4832,
      "URL": 4833,
      "pd": 4834,
      "zone": 4835,
      "Ġsoup": 4836,
      "Ġcup": 4837,
      "itude": 4838,
      "asp": 4839,
      "Ġho": 4840,
      "Ġdoable": 4841,
      "Ġdocker": 4842,
      "Ġconsistent": 4843,
      "0000": 4844,
      "ĠCreate": 4845,
      "ĠPOST": 4846,
      "Ġlever": 4847,
      "Ġprompt": 4848,
      "Ġugly": 4849,
      "Ġmodification": 4850,
      "Ġunit": 4851,
      "jsx": 4852,
      "Ġbook": 4853,
      "Ġdifference": 4854,
      "Ġdifferently": 4855,
      "Ġquoting": 4856,
      ")`;": 4857,
      "ization": 4858,
      "Ġideas": 4859,
      "Ġobjects": 4860,
      "ccc": 4861,
      "Ġlowercase": 4862,
      "Ġlibraries": 4863,
      "Ġindent": 4864,
      "Ġprogram": 4865,
      "Ġspinning": 4866,
      "Ġcreates": 4867,
      "padStart": 4868,
      "Buy": 4869,
      "Ġannoying": 4870,
      "Ad": 4871,
      "ES": 4872,
      "Eat": 4873,
      "bs": 4874,
      "gb": 4875,
      "gar": 4876,
      "ky": 4877,
      "nav": 4878,
      "atur": 4879,
      "atform": 4880,
      "orter": 4881,
      "Ġdots": 4882,
      "Ġpack": 4883,
      "Ġref": 4884,
      "around": 4885,
      "Ġem": 4886,
      "Ġgrows": 4887,
      "Ġfire": 4888,
      "Ġ17": 4889,
      "ands": 4890,
      "ĠWith": 4891,
      "Ġoverhead": 4892,
      "Ġtotals": 4893,
      "Ġboost": 4894,
      "ello": 4895,
      "logo": 4896,
      "Ġhigher": 4897,
      "Ġexception": 4898,
      "strptime": 4899,
      "Ġ70": 4900,
      "splitext": 4901,
      "ohn": 4902,
      "Ġstream": 4903,
      "Ġmonths": 4904,
      "Ġwarm": 4905,
      "allest": 4906,
      "sibility": 4907,
      "Perfect": 4908,
      "anana": 4909,
      "avior": 4910,
      "Ġschedule": 4911,
      "'`.": 4912,
      "Min": 4913,
      "iet": 4914,
      "ision": 4915,
      "pandas": 4916,
      "rt": 4917,
      "uation": 4918,
      "vo": 4919,
      "year": 4920,
      "erday": 4921,
      "onitor": 4922,
      "Ġcore": 4923,
      "Ġbound": 4924,
      "Ġyest": 4925,
      "Ġinfo": 4926,
      "chan": 4927,
      "ĠCtrl": 4928,
      "Ġmemo": 4929,
      "ĠHigh": 4930,
      "Ġleaves": 4931,
      "ĠWASD": 4932,
      "sert": 4933,
      "Ġoverwr": 4934,
      "Ġacting": 4935,
      "Ġserve": 4936,
      "Ġsupply": 4937,
      "Ġtesting": 4938,
      "Ġgiven": 4939,
      "Ġfreeze": 4940,
      "Ġ[{'": 4941,
      "Ġtemperature": 4942,
      "ĠupgradeBtn": 4943,
      "ĠDoes": 4944,
      "Ġfocus": 4945,
      "Ġtypical": 4946,
      "buy": 4947,
      "Ġremoves": 4948,
      "month": 4949,
      "afari": 4950,
      "Ġtemporarily": 4951,
      "Ġexecutable": 4952,
      "Ġpurp": 4953,
      "draft": 4954,
      "Ġvoltage": 4955,
      "Ġyesterday": 4956,
      ")';": 4957,
      ":/": 4958,
      "=['": 4959,
      "FT": 4960,
      "LO": 4961,
      "ian": 4962,
      "requ": 4963,
      "Ġbinary": 4964,
      "osite": 4965,
      "Ġmic": 4966,
      "Ġsharp": 4967,
      "ulty": 4968,
      ")))": 4969,
      "ached": 4970,
      "Ġbrowsing": 4971,
      "Ġtwist": 4972,
      "Ġsmart": 4973,
      "Ġgraph": 4974,
      "Ġ\"${": 4975,
      "Ġsolution": 4976,
      "Ġfinds": 4977,
      "Input": 4978,
      "Ġwireless": 4979,
      "Ġstrict": 4980,
      "token": 4981,
      "Ġtechnical": 4982,
      "!=": 4983,
      ")-": 4984,
      "36": 4985,
      "945": 4986,
      "Im": 4987,
      "Like": 4988,
      "Most": 4989,
      "ZE": 4990,
      "]?": 4991,
      "aN": 4992,
      "dump": 4993,
      "kdir": 4994,
      "mic": 4995,
      "oot": 4996,
      "Ġtip": 4997,
      "Ġaudio": 4998,
      "atched": 4999,
      "Ġfet": 5000,
      "Ġbare": 5001,
      "vels": 5002,
      "Ġlocally": 5003,
      "Ġshown": 5004,
      "Ġascending": 5005,
      "Ġworry": 5006,
      "rag": 5007,
      "Ġhex": 5008,
      "parent": 5009,
      "Ġ5000": 5010,
      "amb": 5011,
      "Ġcompression": 5012,
      "dirname": 5013,
      "docker": 5014,
      "Ġblur": 5015,
      "lternative": 5016,
      "system": 5017,
      "ĠparseInt": 5018,
      "ciate": 5019,
      "ĠURLs": 5020,
      "Ġarrows": 5021,
      "party": 5022,
      "hello": 5023,
      "Ġurls": 5024,
      "Ġsurface": 5025,
      "Ġrubber": 5026,
      "Ġtrigger": 5027,
      "94560": 5028,
      "Ġfetches": 5029,
      "'^": 5030,
      "17": 5031,
      "360": 5032,
      "AX": 5033,
      "DB": 5034,
      "Hello": 5035,
      "Set": 5036,
      "[\"": 5037,
      "known": 5038,
      "lad": 5039,
      "rsync": 5040,
      "ĠY": 5041,
      "eries": 5042,
      "Ġbed": 5043,
      "Ġbolt": 5044,
      "Ġemb": 5045,
      "Ġoccur": 5046,
      "ĠCD": 5047,
      "Ġassign": 5048,
      "agement": 5049,
      "Ġ+%": 5050,
      "ĠPlay": 5051,
      "ĠMove": 5052,
      "imate": 5053,
      "plot": 5054,
      "ĠList": 5055,
      "ĠLog": 5056,
      "ĠUI": 5057,
      "actly": 5058,
      "ffee": 5059,
      "Ġbuffer": 5060,
      "dated": 5061,
      "Ġaccount": 5062,
      "Ġgrad": 5063,
      "Ġfloor": 5064,
      "Ġbuying": 5065,
      "Clickers": 5066,
      "Ġcommands": 5067,
      "Ġ'./": 5068,
      "Ġscrewdriver": 5069,
      "buntu": 5070,
      "ĠUnplug": 5071,
      "Ġtuples": 5072,
      "Ġclosing": 5073,
      "Ġstrips": 5074,
      "Ġdistance": 5075,
      "Ġcalculate": 5076,
      "Ġguard": 5077,
      "basename": 5078,
      "Phone": 5079,
      "Ġclogged": 5080,
      "/.": 5081,
      "CH": 5082,
      "Message": 5083,
      "bb": 5084,
      "border": 5085,
      "cise": 5086,
      "gers": 5087,
      "ious": 5088,
      "pic": 5089,
      "padding": 5090,
      "tra": 5091,
      "uard": 5092,
      "undefined": 5093,
      "vis": 5094,
      "Ġutf": 5095,
      "Ġant": 5096,
      "Ġsod": 5097,
      "Ġcps": 5098,
      "Ġthreshold": 5099,
      "Ġrec": 5100,
      "Ġinches": 5101,
      "unnel": 5102,
      "ĠAr": 5103,
      "Ġbeep": 5104,
      "Ġnoticed": 5105,
      "=\"#": 5106,
      "Ġsecurity": 5107,
      "Ġsets": 5108,
      "best": 5109,
      "))`": 5110,
      "Ġstarted": 5111,
      "ĠEX": 5112,
      "Ġservices": 5113,
      "neck": 5114,
      "snakeHigh": 5115,
      "Ġobserver": 5116,
      "ĠVPN": 5117,
      "Change": 5118,
      "berry": 5119,
      "Ġcontains": 5120,
      "Ġwired": 5121,
      "Exactly": 5122,
      "MMDD": 5123,
      "Ġsupports": 5124,
      "ĠInstead": 5125,
      "Ġbehavior": 5126,
      "based": 5127,
      "querySelectorAll": 5128,
      "Ġconversion": 5129,
      "Ġkinda": 5130,
      "Ġreason": 5131,
      "Ġprodu": 5132,
      "Ġpedal": 5133,
      "Ġbottleneck": 5134,
      "ĠCDN": 5135,
      "Ġsoda": 5136,
      ".'": 5137,
      "56": 5138,
      "64": 5139,
      "70": 5140,
      "Cook": 5141,
      "Move": 5142,
      "ND": 5143,
      "]['": 5144,
      "ball": 5145,
      "gine": 5146,
      "ming": 5147,
      "water": 5148,
      "}\\": 5149,
      "Ġtow": 5150,
      "Ġax": 5151,
      "stream": 5152,
      "Ġyeah": 5153,
      "vest": 5154,
      "entry": 5155,
      "ope": 5156,
      "inegar": 5157,
      "Ġjpg": 5158,
      "Ġjoin": 5159,
      "Ġjams": 5160,
      "')`.": 5161,
      "about": 5162,
      "ĠPIL": 5163,
      "Ġdecre": 5164,
      "Ġleak": 5165,
      "ĠWrap": 5166,
      "Ġopens": 5167,
      "ĠDH": 5168,
      "Ġprev": 5169,
      "rypt": 5170,
      "Ġsmallest": 5171,
      "Ġmonitor": 5172,
      "Load": 5173,
      "Ġeaten": 5174,
      "Ġsrcset": 5175,
      "Ġstored": 5176,
      "Ġstreaming": 5177,
      "Ġdisabled": 5178,
      "ĠSomething": 5179,
      "Ġconfused": 5180,
      "}`;": 5181,
      "Ġopposite": 5182,
      "Ġtomorrow": 5183,
      "Ġresistor": 5184,
      "Current": 5185,
      ")%": 5186,
      "/$": 5187,
      "Actually": 5188,
      "IZE": 5189,
      "Mo": 5190,
      "`;": 5191,
      "ca": 5192,
      "dist": 5193,
      "hole": 5194,
      "links": 5195,
      "mode": 5196,
      "mary": 5197,
      "space": 5198,
      "tile": 5199,
      "uit": 5200,
      "era": 5201,
      "reciate": 5202,
      "Ġcrow": 5203,
      "Ġden": 5204,
      "Ġnp": 5205,
      "Ġreconnect": 5206,
      "arning": 5207,
      "cher": 5208,
      "iring": 5209,
      "irth": 5210,
      "loc": 5211,
      "location": 5212,
      "Ġmechan": 5213,
      "gether": 5214,
      "Ġcoll": 5215,
      "ĠPl": 5216,
      "aster": 5217,
      "Ġcollect": 5218,
      "formed": 5219,
      "':'": 5220,
      "Ġmanager": 5221,
      "Ġcallback": 5222,
      "sometimes": 5223,
      "Ġplaying": 5224,
      "Ġspawns": 5225,
      "Ġdesign": 5226,
      "Ġbasically": 5227,
      "Ġseparately": 5228,
      "ĠAnother": 5229,
      "directories": 5230,
      "Ġplugged": 5231,
      "Ġcirc": 5232,
      "Ġposts": 5233,
      "Ġroller": 5234,
      "Ġprograms": 5235,
      "Ġcycle": 5236,
      "Ġattribute": 5237,
      "Ġequal": 5238,
      "Ġsuspect": 5239,
      "Ġtiming": 5240,
      "Ġembed": 5241,
      "'{": 5242,
      "Ar": 5243,
      "Dis": 5244,
      "PA": 5245,
      "Par": 5246,
      "]==": 5247,
      "dt": 5248,
      "frame": 5249,
      "pack": 5250,
      "she": 5251,
      "vate": 5252,
      "Ġtape": 5253,
      "Ġsal": 5254,
      "Ġwins": 5255,
      "Ġdst": 5256,
      "Ġdump": 5257,
      "Ġdumb": 5258,
      "Ġpain": 5259,
      "Ġlargest": 5260,
      "Ġtogether": 5261,
      "Ġreach": 5262,
      "Ġrelay": 5263,
      "allback": 5264,
      "Ġheats": 5265,
      "Ġfoods": 5266,
      "ardless": 5267,
      "Ġpredict": 5268,
      "Ġpresent": 5269,
      "Ġinstant": 5270,
      "ĠclickBtn": 5271,
      "Ġmiss": 5272,
      "Ġoffline": 5273,
      "PEG": 5274,
      "Ġprocessing": 5275,
      "Ġreduc": 5276,
      "Ġregardless": 5277,
      "Ġtells": 5278,
      "ORS": 5279,
      "Ġformats": 5280,
      "LEFT": 5281,
      "Ġrepeated": 5282,
      "contained": 5283,
      "Ġintegers": 5284,
      "OUR": 5285,
      "Ġviewport": 5286,
      "Ġexplicitly": 5287,
      "cookie": 5288,
      "Likely": 5289,
      "Email": 5290,
      "Failed": 5291,
      "Simple": 5292,
      "dup": 5293,
      "gress": 5294,
      "ient": 5295,
      "night": 5296,
      "Ġcla": 5297,
      "stig": 5298,
      "anch": 5299,
      "Ġwal": 5300,
      "Ġdr": 5301,
      "Ġmist": 5302,
      "Ġthick": 5303,
      "Ġretry": 5304,
      "Ġgave": 5305,
      "Ġgunk": 5306,
      "Ġ'<": 5307,
      "gear": 5308,
      "liers": 5309,
      "chmod": 5310,
      "ĠCont": 5311,
      "Ġ22": 5312,
      "ĠSafari": 5313,
      "onestly": 5314,
      "Ġlearn": 5315,
      "ĠWire": 5316,
      "Ġprinted": 5317,
      "Ġlisten": 5318,
      "ardet": 5319,
      "Ġelsewhere": 5320,
      ")),": 5321,
      "ĠEas": 5322,
      "icture": 5323,
      "Ġsynt": 5324,
      "Ġphones": 5325,
      "Ġsorting": 5326,
      "oins": 5327,
      "Ġsubdirectories": 5328,
      "Ġspike": 5329,
      "Ġlocalhost": 5330,
      "Ġturning": 5331,
      "subject": 5332,
      "Ġsticky": 5333,
      "Ġaccumul": 5334,
      "ĠFileNotFoundError": 5335,
      "1234": 5336,
      "Ġgrep": 5337,
      "Ġtighten": 5338,
      "ARN": 5339,
      "finitely": 5340,
      "Ġbullets": 5341,
      "Ġenemy": 5342,
      "Ġsequence": 5343,
      "Ġlatest": 5344,
      "(!": 5345,
      "(--": 5346,
      ",'": 5347,
      "/`": 5348,
      "95": 5349,
      "Ac": 5350,
      "Allow": 5351,
      "Bob": 5352,
      "CE": 5353,
      "IOS": 5354,
      "ible": 5355,
      "ock": 5356,
      "ui": 5357,
      "Ġip": 5358,
      "resize": 5359,
      "ato": 5360,
      "ital": 5361,
      "Ġmouse": 5362,
      "Ġey": 5363,
      "change": 5364,
      "login": 5365,
      "Ġjam": 5366,
      "Ġseed": 5367,
      "ĠSMTP": 5368,
      "Ġshape": 5369,
      "Ġchip": 5370,
      "\"><": 5371,
      "Ġheard": 5372,
      "groups": 5373,
      "ĠWh": 5374,
      "sions": 5375,
      "ĠUbuntu": 5376,
      "book": 5377,
      "Ġcomb": 5378,
      "Ġpool": 5379,
      "Ġcorner": 5380,
      "ĠAndroid": 5381,
      "Ġlightbox": 5382,
      "foo": 5383,
      "Ġeditor": 5384,
      "Ġproperty": 5385,
      "Ġeasily": 5386,
      "Ġsending": 5387,
      "Ġflush": 5388,
      "Ġcapac": 5389,
      "blockquote": 5390,
      "ĠClicker": 5391,
      "Ġpractice": 5392,
      "sizing": 5393,
      "Ġattributes": 5394,
      "Ġstretched": 5395,
      "Ġchoose": 5396,
      "golden": 5397,
      "ĠPerformance": 5398,
      "Ġplunger": 5399,
      "Ġconfirm": 5400,
      "Ġcrowded": 5401,
      "stige": 5402,
      "!</": 5403,
      "\"):": 5404,
      "3000": 5405,
      "IP": 5406,
      "LA": 5407,
      "Link": 5408,
      "Pos": 5409,
      "Sync": 5410,
      "black": 5411,
      "pol": 5412,
      "xx": 5413,
      "Ġagg": 5414,
      "reg": 5415,
      "Ġble": 5416,
      "Ġpending": 5417,
      "Ġyield": 5418,
      "utput": 5419,
      "ctl": 5420,
      "ctype": 5421,
      "Ġefficient": 5422,
      "Ġfish": 5423,
      "()`.": 5424,
      "loy": 5425,
      "ĠComp": 5426,
      "Ġmeta": 5427,
      "=\"$": 5428,
      "Ġexpen": 5429,
      "ĠSy": 5430,
      "ĠBe": 5431,
      "ĠBIOS": 5432,
      "allow": 5433,
      "Ġ\"%": 5434,
      "Ġ\"*.": 5435,
      "ultip": 5436,
      "Ġquiet": 5437,
      "ĠNew": 5438,
      "']:": 5439,
      "Ġcompar": 5440,
      "ften": 5441,
      "ours": 5442,
      "ĠEven": 5443,
      "lineTo": 5444,
      "Ġgroups": 5445,
      "Ġbreaking": 5446,
      "Button": 5447,
      "oints": 5448,
      "sales": 5449,
      "Ġsilently": 5450,
      "Ġgraphics": 5451,
      "%);": 5452,
      "Enter": 5453,
      "Handler": 5454,
      "Ms": 5455,
      "One": 5456,
      "Sec": 5457,
      "chen": 5458,
      "fg": 5459,
      "final": 5460,
      "ns": 5461,
      "td": 5462,
      "umes": 5463,
      "Ġouter": 5464,
      "Ġts": 5465,
      "Ġwiring": 5466,
      "osen": 5467,
      "alice": 5468,
      "Ġlately": 5469,
      "Ġrece": 5470,
      "Ġreinstall": 5471,
      "Ġincome": 5472,
      "Ġgain": 5473,
      "Ġ'')": 5474,
      "olds": 5475,
      "ceed": 5476,
      "ison": 5477,
      "ĠCORS": 5478,
      "andle": 5479,
      "appear": 5480,
      "emory": 5481,
      "Ġscripts": 5482,
      "istory": 5483,
      "Ġvinegar": 5484,
      "Ġ>>": 5485,
      "Ġperman": 5486,
      "Ġcleanup": 5487,
      "Ġcharger": 5488,
      "ĠlastTime": 5489,
      "])`": 5490,
      "newHead": 5491,
      "apply": 5492,
      "Ġfeet": 5493,
      "Ġfailure": 5494,
      "Ġiterating": 5495,
      "Ġdetails": 5496,
      "Ġcapacity": 5497,
      "Ġdefine": 5498,
      "Ġincludes": 5499,
      "Ġmatters": 5500,
      "\\.\\": 5501,
      "Ġtemporary": 5502,
      "Ġstretch": 5503,
      "Ġlosing": 5504,
      "lternatively": 5505,
      ":\",": 5506,
      "Agent": 5507,
      "dry": 5508,
      "lan": 5509,
      "rgba": 5510,
      "uri": 5511,
      "Ġtower": 5512,
      "rel": 5513,
      "Ġcred": 5514,
      "Ġbal": 5515,
      "Ġmut": 5516,
      "Ġlinux": 5517,
      "Ġreact": 5518,
      "ety": 5519,
      "anty": 5520,
      "rigin": 5521,
      "Ġoh": 5522,
      "Ġrather": 5523,
      "lies": 5524,
      "Ġcongest": 5525,
      "idity": 5526,
      "002": 5527,
      "extra": 5528,
      "ĠAre": 5529,
      "ĠSend": 5530,
      "Ġ\".": 5531,
      "Ġdefinitely": 5532,
      "Ġhell": 5533,
      "ĠWord": 5534,
      "Ġgames": 5535,
      "cuments": 5536,
      "Ġcold": 5537,
      "Ġnewlines": 5538,
      "ĠDictReader": 5539,
      "Ġosc": 5540,
      "amba": 5541,
      "ĠRes": 5542,
      "Ġanywhere": 5543,
      "Ġbud": 5544,
      "Ġminimum": 5545,
      "Ġmodal": 5546,
      "Ġdrives": 5547,
      "formspree": 5548,
      "fixed": 5549,
      "Ġgrinding": 5550,
      "adient": 5551,
      "Level": 5552,
      "ĠString": 5553,
      "ĠRestart": 5554,
      "Ġframework": 5555,
      "Ġ'.'": 5556,
      "ĠĠĠĠĠĠĠĠčĊ": 5557,
      "localhost": 5558,
      "Ġexpects": 5559,
      "ording": 5560,
      "Ġcovers": 5561,
      "123456": 5562,
      "Ġproducts": 5563,
      "encies": 5564,
      "aspberry": 5565,
      "Ġmistake": 5566,
      "Tube": 5567,
      "XX": 5568,
      "emp": 5569,
      "navigator": 5570,
      "ranty": 5571,
      "Ġtaking": 5572,
      "Ġfade": 5573,
      "Ġdash": 5574,
      "itten": 5575,
      "Ġhack": 5576,
      "('\\": 5577,
      "ĠAM": 5578,
      "ĠAvoid": 5579,
      "Ġsocket": 5580,
      "ighten": 5581,
      "Ġlove": 5582,
      "Ġlevels": 5583,
      "ĠFire": 5584,
      "Ġvy": 5585,
      "ĠDell": 5586,
      "amera": 5587,
      "']['": 5588,
      "ignore": 5589,
      "Ġshouldn": 5590,
      "dirs": 5591,
      "ĠEnter": 5592,
      "perties": 5593,
      "number": 5594,
      "Loading": 5595,
      "Ġflexbox": 5596,
      "Ġ1200": 5597,
      "ormally": 5598,
      "Ġwaits": 5599,
      "yourfile": 5600,
      "Ġzone": 5601,
      "Ġfilters": 5602,
      "ĠOnce": 5603,
      "Ġsplitting": 5604,
      "Ġbranch": 5605,
      "Ġiteration": 5606,
      "Example": 5607,
      "Ġwarranty": 5608,
      "Ġrollers": 5609,
      "products": 5610,
      "Ġvect": 5611,
      "margin": 5612,
      "break": 5613,
      "Ġmalformed": 5614,
      "Ġdestination": 5615,
      "Ġsymlink": 5616,
      "Ġproduction": 5617,
      "Ġcapacitor": 5618,
      "(__": 5619,
      "78": 5620,
      ">/": 5621,
      "AF": 5622,
      "Don": 5623,
      "mid": 5624,
      "ted": 5625,
      "ufact": 5626,
      "Ġalive": 5627,
      "inue": 5628,
      "orig": 5629,
      "ouches": 5630,
      "Ġnarrow": 5631,
      "Ġret": 5632,
      "Ġinch": 5633,
      "Ġinfinite": 5634,
      "Ġgall": 5635,
      "Ġ180": 5636,
      "unct": 5637,
      "urls": 5638,
      "Ġjunk": 5639,
      "Ġshorter": 5640,
      "ilter": 5641,
      "ĠFl": 5642,
      "ĠNaN": 5643,
      "ĠDraw": 5644,
      "Ġplatform": 5645,
      "ĠupdateTime": 5646,
      "ĠYouTube": 5647,
      "Ġcomments": 5648,
      "ĠGit": 5649,
      "Ġversions": 5650,
      "Ġphysi": 5651,
      "Ġcleanest": 5652,
      "crete": 5653,
      "(\".": 5654,
      "Ġrestarts": 5655,
      "Ġimportant": 5656,
      "Ġbiggest": 5657,
      "Ġobvious": 5658,
      "minute": 5659,
      "Ġapi": 5660,
      "Ġspecifically": 5661,
      "overlay": 5662,
      "srcset": 5663,
      "Ġrim": 5664,
      "ĠDef": 5665,
      "Ġevents": 5666,
      "Ġtreats": 5667,
      "Ġdiag": 5668,
      "Ġarrays": 5669,
      "ĠCloudflare": 5670,
      "Ġmillion": 5671,
      "Ġvisual": 5672,
      "Ġmedia": 5673,
      "Ġenemies": 5674,
      "Ġsubmissions": 5675,
      "Ġlatin": 5676,
      "Ġvertical": 5677,
      "Ġkitchen": 5678,
      "Ġdynamic": 5679,
      "ufactur": 5680,
      ")/": 5681,
      ".';": 5682,
      "04": 5683,
      "GET": 5684,
      "Hub": 5685,
      "RO": 5686,
      "Works": 5687,
      "ection": 5688,
      "flat": 5689,
      "hash": 5690,
      "nct": 5691,
      "spawn": 5692,
      "uly": 5693,
      "ugh": 5694,
      "uous": 5695,
      "Ġque": 5696,
      "render": 5697,
      "ority": 5698,
      "Ġbra": 5699,
      "Ġboss": 5700,
      "Ġma": 5701,
      "Ġrare": 5702,
      "('%": 5703,
      "conf": 5704,
      "ĠBattery": 5705,
      "âĢĿ": 5706,
      "plays": 5707,
      "ĠName": 5708,
      "Ġalph": 5709,
      "Ġvx": 5710,
      "toString": 5711,
      "tools": 5712,
      "Ġfunctions": 5713,
      "Contact": 5714,
      "Ġdisappear": 5715,
      "Ġcomment": 5716,
      "Ġcloth": 5717,
      "randomIndex": 5718,
      "Ġhelped": 5719,
      "Ġauth": 5720,
      "Ġmanufactur": 5721,
      "Ġotherwise": 5722,
      "earch": 5723,
      "Ġtransfer": 5724,
      "ĠquoteEl": 5725,
      "obs": 5726,
      "ĠStill": 5727,
      "ĠDocker": 5728,
      "segment": 5729,
      "project": 5730,
      "Ġseparator": 5731,
      "Ġbrand": 5732,
      "ATA": 5733,
      "Ġconnections": 5734,
      "INFO": 5735,
      "TypeError": 5736,
      "Ġthreads": 5737,
      "JSON": 5738,
      "Ġredirects": 5739,
      "Ġratio": 5740,
      "Ġbrightness": 5741,
      "Mailer": 5742,
      "Ġoccurren": 5743,
      "ĠEXIF": 5744,
      "ncthing": 5745,
      "Ġmanufacturer": 5746,
      "+=": 5747,
      "<?": 5748,
      ">\")": 5749,
      "CP": 5750,
      "Ctx": 5751,
      "_$": 5752,
      "aver": 5753,
      "cd": 5754,
      "cache": 5755,
      "href": 5756,
      "mount": 5757,
      "mkdir": 5758,
      "nice": 5759,
      "rans": 5760,
      "Ġta": 5761,
      "onus": 5762,
      "orer": 5763,
      "Ġwide": 5764,
      "Ġpu": 5765,
      "ars": 5766,
      "Ġhp": 5767,
      "Ġhide": 5768,
      "Ġholds": 5769,
      "rive": 5770,
      "Ġgone": 5771,
      "Ġring": 5772,
      "Ġstup": 5773,
      "verse": 5774,
      "upper": 5775,
      "fic": 5776,
      "ĠTwo": 5777,
      "ider": 5778,
      "()}": 5779,
      "opacity": 5780,
      "Ġjavascript": 5781,
      "Ġseat": 5782,
      "Ġexpl": 5783,
      "ĠWatch": 5784,
      "Ġmyself": 5785,
      "Ġ[\"": 5786,
      "readlines": 5787,
      "ĠDouble": 5788,
      "bob": 5789,
      "bocopy": 5790,
      "aches": 5791,
      "ĠGPU": 5792,
      "Ġboiling": 5793,
      "1024": 5794,
      "Ġslowly": 5795,
      "Ġoffset": 5796,
      "Ġdownloads": 5797,
      "Ġmonster": 5798,
      "ĠrandomIndex": 5799,
      ")`.<|": 5800,
      "Ġfieldnames": 5801,
      "updateClock": 5802,
      "Ġstrong": 5803,
      "Ġslide": 5804,
      "ĠProperties": 5805,
      "nextDir": 5806,
      "stringify": 5807,
      "Ġjumps": 5808,
      "Ġmerged": 5809,
      "Ġeffects": 5810,
      "ĠConvert": 5811,
      "Ġdependencies": 5812,
      "owershell": 5813,
      "Ġcoding": 5814,
      "Ġemails": 5815,
      "Ġwalks": 5816,
      "Ġstupid": 5817,
      "(${": 5818,
      "(.*": 5819,
      ")\"": 5820,
      ":[": 5821,
      "BAS": 5822,
      "From": 5823,
      "Simp": 5824,
      "Tra": 5825,
      "Total": 5826,
      "Wait": 5827,
      "WARN": 5828,
      "_*.": 5829,
      "element": 5830,
      "gs": 5831,
      "jac": 5832,
      "npm": 5833,
      "sal": 5834,
      "Ġ^": 5835,
      "Ġtasks": 5836,
      "ina": 5837,
      "Ġwet": 5838,
      "Ġrel": 5839,
      "Ġretries": 5840,
      "Ġhis": 5841,
      "ride": 5842,
      "Ġgzip": 5843,
      "Ġ`{": 5844,
      "Ġstem": 5845,
      "extend": 5846,
      "Ġ2000": 5847,
      "Ġselector": 5848,
      "getsize": 5849,
      "ĠBecause": 5850,
      "Ġcoffee": 5851,
      "rape": 5852,
      "Ġmoved": 5853,
      "Ġvacation": 5854,
      "ĠDown": 5855,
      "Ġletter": 5856,
      "Ġoverkill": 5857,
      "Ġloaded": 5858,
      "Ġimplement": 5859,
      "iseconds": 5860,
      "Ġpositive": 5861,
      "Ġpasses": 5862,
      "which": 5863,
      "Ġcopying": 5864,
      "Ġfloats": 5865,
      "Ġmostly": 5866,
      "Ġawk": 5867,
      "Ġexpand": 5868,
      "ermis": 5869,
      "Ġsplits": 5870,
      "Ġfactory": 5871,
      "Ġpressing": 5872,
      "}-{": 5873,
      "Ġclosed": 5874,
      "Ġremoving": 5875,
      "Ġconverting": 5876,
      "Ġfinish": 5877,
      "sibly": 5878,
      "Ġtonight": 5879,
      "blue": 5880,
      "Ġremaining": 5881,
      "sheet": 5882,
      "Ġheatsink": 5883,
      "ĠGitHub": 5884,
      ")];": 5885,
      "53": 5886,
      "GRID": 5887,
      "ION": 5888,
      "JPG": 5889,
      "NT": 5890,
      "TH": 5891,
      "au": 5892,
      "coins": 5893,
      "mark": 5894,
      "touch": 5895,
      "Ġtie": 5896,
      "Ġflip": 5897,
      "Ġbent": 5898,
      "Ġpol": 5899,
      "Ġnav": 5900,
      "Ġnormally": 5901,
      "Ġrevis": 5902,
      "esome": 5903,
      "Ġgently": 5904,
      "Ġ'',": 5905,
      "Ġsty": 5906,
      "iso": 5907,
      "changed": 5908,
      "irt": 5909,
      "ĠAl": 5910,
      "Ġusual": 5911,
      "Ġnotification": 5912,
      "aped": 5913,
      "Ġangle": 5914,
      "ĠSame": 5915,
      "Ġshot": 5916,
      "dep": 5917,
      "Ġ/>": 5918,
      "ability": 5919,
      "Ġready": 5920,
      "Ġlistener": 5921,
      "Ġlets": 5922,
      "ĠRo": 5923,
      "ources": 5924,
      "Ġ45": 5925,
      "(\"%": 5926,
      "Ġgradient": 5927,
      "Ġ\"$(": 5928,
      "Ġspan": 5929,
      "lenium": 5930,
      "],[": 5931,
      "Ġwaiting": 5932,
      "Ġputs": 5933,
      "Counter": 5934,
      "fox": 5935,
      "Ġwraps": 5936,
      "})(\\": 5937,
      "Ġslips": 5938,
      "Ġweeks": 5939,
      "backups": 5940,
      "Ġcutoff": 5941,
      "awk": 5942,
      "upgradeBtn": 5943,
      "filtered": 5944,
      "sizes": 5945,
      "hours": 5946,
      "oudflared": 5947,
      "quotes": 5948,
      "Ġsafety": 5949,
      "ĠWordPress": 5950,
      "flatten": 5951,
      ".');": 5952,
      "480": 5953,
      "CIM": 5954,
      "EM": 5955,
      "Great": 5956,
      "How": 5957,
      "KB": 5958,
      "Points": 5959,
      "QU": 5960,
      "Que": 5961,
      "]\\": 5962,
      "ially": 5963,
      "mv": 5964,
      "sav": 5965,
      "tag": 5966,
      "vol": 5967,
      "Ġtor": 5968,
      "Ġties": 5969,
      "retries": 5970,
      "Ġbur": 5971,
      "util": 5972,
      "arm": 5973,
      "arter": 5974,
      "ets": 5975,
      "Ġhook": 5976,
      "Ġhover": 5977,
      "Ġ{...": 5978,
      "htaccess": 5979,
      "Ġ('": 5980,
      "Ġ`_": 5981,
      "ĠCode": 5982,
      "people": 5983,
      "Ġoffi": 5984,
      "apsed": 5985,
      "decode": 5986,
      "ĠBu": 5987,
      "ired": 5988,
      "Ġ[(": 5989,
      "Ġcodec": 5990,
      "Ġweight": 5991,
      "reading": 5992,
      "Ġrunnable": 5993,
      "Control": 5994,
      "Ġdisplays": 5995,
      "playwright": 5996,
      "Ġappreciate": 5997,
      "Ġcross": 5998,
      "cret": 5999,
      "Ġrenamed": 6000,
      "Ġspring": 6001,
      "Countdown": 6002,
      "pected": 6003,
      "Ġmultiply": 6004,
      "Ġsegments": 6005,
      "Ġdivision": 6006,
      "9999": 6007,
      "Ġhangs": 6008,
      "Ġhanger": 6009,
      "USER": 6010,
      "backgroundColor": 6011,
      "Ġsteer": 6012,
      "Ġpiece": 6013,
      "Ġattempt": 6014,
      "ĠPlaywright": 6015,
      "Loaded": 6016,
      "irthday": 6017,
      "Ġstyling": 6018,
      "'(\\": 6019,
      "Net": 6020,
      "PM": 6021,
      "Put": 6022,
      "eg": 6023,
      "powershell": 6024,
      "sen": 6025,
      "Ġtrip": 6026,
      "Ġaffect": 6027,
      "heap": 6028,
      "org": 6029,
      "Ġboring": 6030,
      "Ġmother": 6031,
      "kest": 6032,
      "Ġlaser": 6033,
      "Ġtoast": 6034,
      "Ġhouse": 6035,
      "Ġglow": 6036,
      "Ġrules": 6037,
      "room": 6038,
      "ored": 6039,
      "Ġconcrete": 6040,
      "ĠAt": 6041,
      "ĠClipboard": 6042,
      "Ġyours": 6043,
      "convert": 6044,
      "Ġshrink": 6045,
      "ĠHE": 6046,
      "ĠHonestly": 6047,
      "Ġworld": 6048,
      "ontab": 6049,
      "Ġadjac": 6050,
      "ĠPM": 6051,
      "plorer": 6052,
      "Ġ3000": 6053,
      "ĠJPEG": 6054,
      "ContentLoaded": 6055,
      "ggy": 6056,
      "Ġparsed": 6057,
      "Ġsaw": 6058,
      "ĠautoClickers": 6059,
      "Ġhardcoded": 6060,
      "Ġcheaper": 6061,
      "Ġapart": 6062,
      "Ġlighter": 6063,
      "reduce": 6064,
      "Ġdesc": 6065,
      "obj": 6066,
      "Ġproperties": 6067,
      "Ġpressure": 6068,
      "Ġstores": 6069,
      "bined": 6070,
      "Ġgeneric": 6071,
      "findall": 6072,
      "Ġtouching": 6073,
      "session": 6074,
      "Ġrecursively": 6075,
      "Ġbrakes": 6076,
      "ĠSimplest": 6077,
      "Ġprovide": 6078,
      "Ġdictionary": 6079,
      "details": 6080,
      "Ġflicker": 6081,
      "Ġcombine": 6082,
      "ficulty": 6083,
      "Ġmotherboard": 6084,
      ")\\": 6085,
      "42": 6086,
      "Comp": 6087,
      "ULL": 6088,
      "bing": 6089,
      "banana": 6090,
      "fit": 6091,
      "gain": 6092,
      "hol": 6093,
      "histic": 6094,
      "nginx": 6095,
      "oked": 6096,
      "uces": 6097,
      "wd": 6098,
      "wind": 6099,
      "ĠiPhone": 6100,
      "Ġsop": 6101,
      "Ġfit": 6102,
      "Ġfreq": 6103,
      "orning": 6104,
      "ane": 6105,
      "anna": 6106,
      "Ġwlan": 6107,
      "Ġdb": 6108,
      "Ġmind": 6109,
      "Ġmapping": 6110,
      "alind": 6111,
      "eting": 6112,
      "Ġhole": 6113,
      "Ġ':'": 6114,
      "Ġrain": 6115,
      "Ġ`${": 6116,
      "Ġnecess": 6117,
      "imen": 6118,
      "abling": 6119,
      "uler": 6120,
      "sets": 6121,
      "Ġlinear": 6122,
      "Ġ1024": 6123,
      "']))": 6124,
      "ubble": 6125,
      "Ġbucket": 6126,
      "Ġcenters": 6127,
      "Ġgoal": 6128,
      "Ġphp": 6129,
      "moveTo": 6130,
      "Ġblinks": 6131,
      "phone": 6132,
      "Ġ75": 6133,
      "Ġpositions": 6134,
      "IME": 6135,
      "Ġchunksize": 6136,
      "stacle": 6137,
      "LECT": 6138,
      "className": 6139,
      "Ġaccording": 6140,
      "Ġremoved": 6141,
      "Ġallows": 6142,
      "Ġcopied": 6143,
      "Ġdecide": 6144,
      "Ġcalculates": 6145,
      "Ġscrap": 6146,
      "cleaned": 6147,
      "Ġsecure": 6148,
      "allel": 6149,
      "cookies": 6150,
      "Ġpaint": 6151,
      "Ġcorrupted": 6152,
      "LOG": 6153,
      "Ġbudget": 6154,
      "isoformat": 6155,
      "Ġsophistic": 6156,
      "!';": 6157,
      "\"))": 6158,
      ")$": 6159,
      "59": 6160,
      ">&": 6161,
      "Ab": 6162,
      "Be": 6163,
      "Glad": 6164,
      "IC": 6165,
      "Origin": 6166,
      "]`.": 6167,
      "bad": 6168,
      "cific": 6169,
      "eger": 6170,
      "gz": 6171,
      "huge": 6172,
      "mble": 6173,
      "sup": 6174,
      "Ġult": 6175,
      "Ġtier": 6176,
      "Ġable": 6177,
      "reload": 6178,
      "att": 6179,
      "Ġfans": 6180,
      "Ġwanna": 6181,
      "Ġded": 6182,
      "aset": 6183,
      "Ġmd": 6184,
      "Ġlift": 6185,
      "Ġfilepath": 6186,
      "Ġnotice": 6187,
      "Ġsemic": 6188,
      "getmtime": 6189,
      "Ġchance": 6190,
      "ickest": 6191,
      "illow": 6192,
      "Ġopened": 6193,
      "Ġvent": 6194,
      "ĠDrop": 6195,
      "Ġenter": 6196,
      "aged": 6197,
      "Ġsimplicity": 6198,
      "Ġkid": 6199,
      "Ġdiscount": 6200,
      "Ġ$(": 6201,
      "Ġunscrew": 6202,
      "iness": 6203,
      "Ġdifficulty": 6204,
      "doctype": 6205,
      "ĠâĢľ": 6206,
      "Ġgrandma": 6207,
      "There": 6208,
      "Ġ-->": 6209,
      "ĠStep": 6210,
      "Restart": 6211,
      "media": 6212,
      "Ġconfus": 6213,
      "Ġscratch": 6214,
      "Ġslot": 6215,
      "Ġplugins": 6216,
      "ĠYYYYMMDD": 6217,
      "Ġneighbor": 6218,
      "Ġoverwriting": 6219,
      "Ġsyntax": 6220,
      "ĠSyncthing": 6221,
      "Ġrevised": 6222,
      "Ġsemicol": 6223,
      "87": 6224,
      "?'": 6225,
      "Hours": 6226,
      "IT": 6227,
      "Paste": 6228,
      "SC": 6229,
      "Sub": 6230,
      "_{": 6231,
      "bage": 6232,
      "category": 6233,
      "cfg": 6234,
      "yy": 6235,
      "zilla": 6236,
      "Ġter": 6237,
      "Ġshell": 6238,
      "Ġsieve": 6239,
      "Ġfs": 6240,
      "Ġfrequ": 6241,
      "orry": 6242,
      "Ġwipe": 6243,
      "Ġbs": 6244,
      "Ġbounce": 6245,
      "Ġnic": 6246,
      "Ġthous": 6247,
      "Ġocc": 6248,
      "uration": 6249,
      "Ġlife": 6250,
      "lips": 6251,
      "ĠAC": 6252,
      "ĠAuto": 6253,
      "ĠAlternatively": 6254,
      "ĠCall": 6255,
      "Ġsoon": 6256,
      "Ġexclude": 6257,
      "ĠHP": 6258,
      "ĠHe": 6259,
      "abet": 6260,
      "ĠBack": 6261,
      "Ġadvanced": 6262,
      "raise": 6263,
      "ĠFind": 6264,
      "ĠOb": 6265,
      "Ġletters": 6266,
      "Ġoverrid": 6267,
      "ĠclickPower": 6268,
      "Ġages": 6269,
      "strong": 6270,
      "visible": 6271,
      "Ġnetworks": 6272,
      "Ġexpress": 6273,
      "focus": 6274,
      "ĠHowever": 6275,
      "template": 6276,
      "Ġsaying": 6277,
      "ĠSSH": 6278,
      "ĠSSL": 6279,
      "compose": 6280,
      "ING": 6281,
      "Ġcloses": 6282,
      "upgradeCost": 6283,
      "sized": 6284,
      "Ġmilliseconds": 6285,
      "Ġpipes": 6286,
      "transform": 6287,
      "Ġhorizontally": 6288,
      "Ġparticles": 6289,
      "Height": 6290,
      "Ġmicrow": 6291,
      "Parser": 6292,
      "duplic": 6293,
      "ĠEasiest": 6294,
      "Ġvector": 6295,
      "unctuation": 6296,
      "ĠFlask": 6297,
      "ĠDefender": 6298,
      "aught": 6299,
      "alindrome": 6300,
      "'||": 6301,
      "/\"": 6302,
      "65": 6303,
      "AG": 6304,
      "BU": 6305,
      "DF": 6306,
      "Next": 6307,
      "]);": 6308,
      "cv": 6309,
      "cut": 6310,
      "fol": 6311,
      "ib": 6312,
      "mnt": 6313,
      "tract": 6314,
      "ĠZ": 6315,
      "Ġtunnel": 6316,
      "Ġice": 6317,
      "Ġaf": 6318,
      "Ġfake": 6319,
      "Ġwent": 6320,
      "Ġwind": 6321,
      "Ġpour": 6322,
      "Ġplease": 6323,
      "Ġpixel": 6324,
      "Ġmorning": 6325,
      "Ġradi": 6326,
      "Ġ(\\": 6327,
      "Ġlif": 6328,
      "Ġlives": 6329,
      "('*.": 6330,
      "child": 6331,
      "Ġconcat": 6332,
      "ĠTV": 6333,
      "()).": 6334,
      "Ġscrape": 6335,
      "ĠHmm": 6336,
      "derr": 6337,
      "Ġcog": 6338,
      "Ġadvice": 6339,
      "ĠMemory": 6340,
      "ĠWrite": 6341,
      "Str": 6342,
      "Ġdirty": 6343,
      "ĠRead": 6344,
      "Ġprestige": 6345,
      "Ġdisconnect": 6346,
      "Ġinstru": 6347,
      "Ġ85": 6348,
      "Ġextend": 6349,
      "Ġlaptops": 6350,
      "Ġspread": 6351,
      "prev": 6352,
      "ĠExplorer": 6353,
      "2025": 6354,
      "Ġdescription": 6355,
      "Ġwrapper": 6356,
      "Ġstatement": 6357,
      "Ġdoubles": 6358,
      "Ġflap": 6359,
      "Ġstyles": 6360,
      "DateString": 6361,
      "REM": 6362,
      "removeChild": 6363,
      "merged": 6364,
      "Ġ$_.": 6365,
      "Reset": 6366,
      "special": 6367,
      "Ġcritical": 6368,
      "Cookie": 6369,
      "Ġtoward": 6370,
      "Ġalphabet": 6371,
      "Ġoccurrence": 6372,
      "Simplicity": 6373,
      "Ġsophistication": 6374,
      "Ġultimate": 6375,
      "folio": 6376,
      ")+": 6377,
      ".')": 6378,
      "85": 6379,
      ":`": 6380,
      ":]:": 6381,
      "=()": 6382,
      "Bl": 6383,
      "Full": 6384,
      "Home": 6385,
      "Image": 6386,
      "_*": 6387,
      "_}\"": 6388,
      "actions": 6389,
      "hum": 6390,
      "ibr": 6391,
      "ned": 6392,
      "sites": 6393,
      "table": 6394,
      "wall": 6395,
      "Ġsand": 6396,
      "hex": 6397,
      "Ġft": 6398,
      "Ġfing": 6399,
      "Ġbridge": 6400,
      "Ġdimen": 6401,
      "Ġpassive": 6402,
      "asing": 6403,
      "ĠInt": 6404,
      "Ġgig": 6405,
      "Ġonto": 6406,
      "exif": 6407,
      "unique": 6408,
      "('-": 6409,
      "semble": 6410,
      "apse": 6411,
      "ĠSkip": 6412,
      "ĠSee": 6413,
      "ĠSQL": 6414,
      "conn": 6415,
      "delta": 6416,
      "screen": 6417,
      "Ġusecols": 6418,
      "ĠMonitor": 6419,
      "Ġalter": 6420,
      "Ġalco": 6421,
      "ĠOh": 6422,
      "Ġkeeping": 6423,
      "ewrite": 6424,
      "ĠshowRandom": 6425,
      "amina": 6426,
      "ĠRight": 6427,
      "ftp": 6428,
      "Ġ2015": 6429,
      "Ġ2024": 6430,
      "Ġ2023": 6431,
      "Ġbuggy": 6432,
      "Ġcoming": 6433,
      "akery": 6434,
      "dataset": 6435,
      "Ġdried": 6436,
      "Ġfastest": 6437,
      "Ġparallel": 6438,
      "Ġpartial": 6439,
      "crement": 6440,
      "Ġsauce": 6441,
      "Ġfloating": 6442,
      "yourForm": 6443,
      "lightbox": 6444,
      "Ġvalidate": 6445,
      "Ġvalidation": 6446,
      "Ġ8080": 6447,
      "Ġiterable": 6448,
      "ĠProcess": 6449,
      "eee": 6450,
      "Ġholding": 6451,
      "Ġgrease": 6452,
      "Ġkills": 6453,
      "Ġshutil": 6454,
      "Ġ\\;": 6455,
      "ĠClose": 6456,
      "Ġmounted": 6457,
      "Ġtriggers": 6458,
      "Ġbombs": 6459,
      "Ġdictionaries": 6460,
      "Ġmagnet": 6461,
      "Fixed": 6462,
      "Ġliteral": 6463,
      "Ġcapture": 6464,
      "ĠPlug": 6465,
      "Ġclamp": 6466,
      "ermission": 6467,
      "Ġaccordingly": 6468,
      "120": 6469,
      "180": 6470,
      "31": 6471,
      "35": 6472,
      ":{": 6473,
      "Age": 6474,
      "Because": 6475,
      "Dark": 6476,
      "EP": 6477,
      "Hz": 6478,
      "KE": 6479,
      "TER": 6480,
      "UTC": 6481,
      "_%": 6482,
      "_${": 6483,
      "aml": 6484,
      "ales": 6485,
      "fname": 6486,
      "ili": 6487,
      "ral": 6488,
      "vw": 6489,
      "yz": 6490,
      "yes": 6491,
      "Ġaver": 6492,
      "static": 6493,
      "ances": 6494,
      "Ġbonus": 6495,
      "Ġpliers": 6496,
      "array": 6497,
      "Ġhair": 6498,
      "Ġ'\\": 6499,
      "Ġoven": 6500,
      "('#": 6501,
      "Ġseal": 6502,
      "âĢĵ": 6503,
      "ĠPost": 6504,
      "Ġdeli": 6505,
      "Ġdepends": 6506,
      "plu": 6507,
      "Ġreadable": 6508,
      "Ġquickest": 6509,
      "Ġident": 6510,
      "Ġoverride": 6511,
      "feren": 6512,
      "Ġpercent": 6513,
      "Ġsymb": 6514,
      "splice": 6515,
      "Ġclearing": 6516,
      "...</": 6517,
      "yourdomain": 6518,
      "Invalid": 6519,
      "ĠProbably": 6520,
      "Ġdetection": 6521,
      "Ġhoneypot": 6522,
      "module": 6523,
      "ĠUnless": 6524,
      "($_": 6525,
      "Ġprevents": 6526,
      "(',',": 6527,
      "Ġscraper": 6528,
      "Ġpairs": 6529,
      "Ġcpu": 6530,
      "OTE": 6531,
      "ĠServer": 6532,
      "Ġpersonal": 6533,
      "Ġgarbage": 6534,
      "Ġelectri": 6535,
      "entials": 6536,
      "Ġpurple": 6537,
      "Ġeye": 6538,
      "Traceback": 6539,
      "sensor": 6540,
      "Ġadjacent": 6541,
      "Ġnicer": 6542,
      "Ġalcohol": 6543,
      ":--": 6544,
      "Dog": 6545,
      "ROM": 6546,
      "iver": 6547,
      "ience": 6548,
      "lt": 6549,
      "pick": 6550,
      "picture": 6551,
      "}>": 6552,
      "Ġour": 6553,
      "relat": 6554,
      "require": 6555,
      "Ġfold": 6556,
      "Ġbake": 6557,
      "Ġnatur": 6558,
      "Ġreject": 6559,
      "arlie": 6560,
      "Ġinsert": 6561,
      "Ġstd": 6562,
      "version": 6563,
      "term": 6564,
      "ished": 6565,
      "ĠAs": 6566,
      "ĠCol": 6567,
      "Ġbeaut": 6568,
      "integer": 6569,
      "Ġupgrad": 6570,
      "Ġupstream": 6571,
      "ĠSw": 6572,
      "ĠSamba": 6573,
      "Ġreturned": 6574,
      "ulate": 6575,
      "ĠuseState": 6576,
      "Ġdegre": 6577,
      "iper": 6578,
      "pause": 6579,
      "Ġqueries": 6580,
      "ĠLen": 6581,
      "ĠUTC": 6582,
      "serve": 6583,
      "Ġids": 6584,
      "Ġkeydown": 6585,
      "ĠRename": 6586,
      "acy": 6587,
      "aken": 6588,
      "ĠGET": 6589,
      "ĠEn": 6590,
      "Ġcrank": 6591,
      "Ġunknown": 6592,
      "calc": 6593,
      "common": 6594,
      "Ġinterest": 6595,
      "Ġsubprocess": 6596,
      "Ġprocessed": 6597,
      "Ġ123": 6598,
      "Ġinputs": 6599,
      "Ġfiltering": 6600,
      "Short": 6601,
      "Ġflour": 6602,
      "LED": 6603,
      "Ġconnector": 6604,
      "Exception": 6605,
      "Ġflaky": 6606,
      "Ġreplaces": 6607,
      "Ġrelease": 6608,
      "Ġfollows": 6609,
      "ĠNextcloud": 6610,
      "Ġinventory": 6611,
      "Ġmention": 6612,
      "Ġblurry": 6613,
      "LAY": 6614,
      "ultiplier": 6615,
      "irtual": 6616,
      "depth": 6617,
      "Ġinstructions": 6618,
      "''": 6619,
      "+\\": 6620,
      "28": 6621,
      "213": 6622,
      "AIL": 6623,
      "Fact": 6624,
      "Guard": 6625,
      "NG": 6626,
      "]&&": 6627,
      "cx": 6628,
      "ny": 6629,
      "qty": 6630,
      "uid": 6631,
      "ugg": 6632,
      "}/": 6633,
      "Ġtalk": 6634,
      "Ġtube": 6635,
      "heme": 6636,
      "Ġcatches": 6637,
      "Ġfur": 6638,
      "Ġflow": 6639,
      "Ġdemo": 6640,
      "Ġpunctuation": 6641,
      "utorial": 6642,
      "Ġhy": 6643,
      "Ġ(['": 6644,
      "express": 6645,
      "ĠTP": 6646,
      "ideos": 6647,
      "()]": 6648,
      "Ġ23": 6649,
      "Ġupper": 6650,
      "Ġhear": 6651,
      "isture": 6652,
      "Ġtimezone": 6653,
      "ford": 6654,
      "Ġvac": 6655,
      "Ġengine": 6656,
      "Ġbypass": 6657,
      "Ġ2019": 6658,
      "cessing": 6659,
      "Ġdrag": 6660,
      "clickers": 6661,
      "101": 6662,
      "collision": 6663,
      "Ġresetting": 6664,
      "ĠresetBtn": 6665,
      "Ġservers": 6666,
      "mitt": 6667,
      "Ġago": 6668,
      "16213": 6669,
      "ĠThink": 6670,
      "Ġbuildup": 6671,
      "Ġincrements": 6672,
      "likely": 6673,
      "suming": 6674,
      "Ġdropdown": 6675,
      "Ġduplex": 6676,
      "ATH": 6677,
      "Ġcooling": 6678,
      "Ġrendering": 6679,
      "ĠDev": 6680,
      "ĠIPs": 6681,
      "Ġcloser": 6682,
      "Ġgreater": 6683,
      "Ġreplaced": 6684,
      "FileNotFoundError": 6685,
      "ĠStartup": 6686,
      "Ġsmoother": 6687,
      "zzle": 6688,
      "UnicodeDecodeError": 6689,
      "Ġ'_')": 6690,
      "Ġvolume": 6691,
      "Ġblinking": 6692,
      "Ġlaggy": 6693,
      "Ġpackage": 6694,
      "ĠWithout": 6695,
      "!=-": 6696,
      "Disk": 6697,
      "Ġinstantly": 6698,
      "ĠWireGuard": 6699,
      "Ġspikes": 6700,
      "Ġburst": 6701,
      "yourFormID": 6702,
      "+\\.\\": 6703,
      "=${": 6704,
      "?\\": 6705,
      "Rewrite": 6706,
      "]`,": 6707,
      "_(\\": 6708,
      "`)": 6709,
      "`).": 6710,
      "cmd": 6711,
      "don": 6712,
      "eo": 6713,
      "eve": 6714,
      "fc": 6715,
      "fps": 6716,
      "great": 6717,
      "hud": 6718,
      "ula": 6719,
      "Ġ);": 6720,
      "eros": 6721,
      "Ġsun": 6722,
      "ini": 6723,
      "itize": 6724,
      "enable": 6725,
      "Ġmile": 6726,
      "Ġthin": 6727,
      "admin": 6728,
      "Ġreference": 6729,
      "esc": 6730,
      "Ġ`#": 6731,
      "Ġbelong": 6732,
      "uming": 6733,
      "Ġlost": 6734,
      "Ġsees": 6735,
      "Ġanal": 6736,
      "ĠSimp": 6737,
      "ĠHW": 6738,
      "Ġaspect": 6739,
      "acks": 6740,
      "Ġchardet": 6741,
      "ĠBest": 6742,
      "okyo": 6743,
      "Ġdeath": 6744,
      "Ġvet": 6745,
      "address": 6746,
      "'][": 6747,
      "Ġparses": 6748,
      "Ġparty": 6749,
      "Ġintermitt": 6750,
      "ĠresetGame": 6751,
      "Ġgray": 6752,
      "Ġmessages": 6753,
      "newname": 6754,
      "unknown": 6755,
      "Ġplaywright": 6756,
      "Ġcheat": 6757,
      "Ġbits": 6758,
      "totals": 6759,
      "Ġtargets": 6760,
      "suffix": 6761,
      "Tools": 6762,
      "Ġ403": 6763,
      "(()=>{": 6764,
      "ATCH": 6765,
      "Ġadapters": 6766,
      "bytes": 6767,
      "Ġweekend": 6768,
      "Ġthreading": 6769,
      "Photo": 6770,
      "Ġrubbing": 6771,
      "clientX": 6772,
      "Ġdepending": 6773,
      "Documents": 6774,
      "description": 6775,
      "Ġhorizontal": 6776,
      "Ġharder": 6777,
      "Ġboundary": 6778,
      "ambda": 6779,
      "Ġgradually": 6780,
      "support": 6781,
      "07": 6782,
      "68": 6783,
      ">\\": 6784,
      ">';": 6785,
      "Book": 6786,
      "EX": 6787,
      "FS": 6788,
      "John": 6789,
      "Why": 6790,
      "_`": 6791,
      "blog": 6792,
      "battery": 6793,
      "cs": 6794,
      "cles": 6795,
      "fr": 6796,
      "gen": 6797,
      "hsl": 6798,
      "ik": 6799,
      "lled": 6800,
      "square": 6801,
      "Ġ```": 6802,
      "Ġast": 6803,
      "reams": 6804,
      "reverse": 6805,
      "Ġcategory": 6806,
      "ano": 6807,
      "Ġwaste": 6808,
      "Ġbubble": 6809,
      "ason": 6810,
      "Ġny": 6811,
      "Ġloss": 6812,
      "eturn": 6813,
      "Ġhun": 6814,
      "()`,": 6815,
      "irus": 6816,
      "Ġbeat": 6817,
      "imeter": 6818,
      "Ġtruly": 6819,
      "')):": 6820,
      "ĠShe": 6821,
      "Ġshuff": 6822,
      "Ġasked": 6823,
      "Ġwanted": 6824,
      "Ġchick": 6825,
      "ĠPNG": 6826,
      "ires": 6827,
      "ĠMode": 6828,
      "ĠFo": 6829,
      "ĠWin": 6830,
      "Ġnewer": 6831,
      "Stop": 6832,
      "ĠscoreSpan": 6833,
      "Ġfixing": 6834,
      "Ġvideos": 6835,
      "Ġwrapping": 6836,
      "Ġenc": 6837,
      "typ": 6838,
      "Ġresume": 6839,
      "ĠcountEl": 6840,
      "Ġmines": 6841,
      "ĠJobs": 6842,
      "Ġ48": 6843,
      "ĠCannot": 6844,
      "Ġdrawing": 6845,
      "Ġarm": 6846,
      "venue": 6847,
      "comment": 6848,
      "elly": 6849,
      "Ġsubstring": 6850,
      "Ġcord": 6851,
      "Ġspins": 6852,
      "Ġcontinuous": 6853,
      "ailscale": 6854,
      "cursor": 6855,
      "Ġthinking": 6856,
      "ressive": 6857,
      "Ġusername": 6858,
      "Ġappends": 6859,
      "Ġsens": 6860,
      "footer": 6861,
      "Ġpatterns": 6862,
      "Ġscreens": 6863,
      "Info": 6864,
      "Ġtyping": 6865,
      "apest": 6866,
      "Ġmeaning": 6867,
      "modal": 6868,
      "=[{": 6869,
      "Ġsensors": 6870,
      "Ġstripping": 6871,
      "resetBtn": 6872,
      "Ġreloading": 6873,
      "Ġcreated": 6874,
      "umbn": 6875,
      "Ġgears": 6876,
      "ĠPhotos": 6877,
      "smtp": 6878,
      "ĠLoad": 6879,
      "Ġcertainly": 6880,
      "Ġconstantly": 6881,
      "Ġpreserve": 6882,
      "Ġimproved": 6883,
      "SELECT": 6884,
      "ĠDHT": 6885,
      "Ġembedded": 6886,
      "Ġrepeatedly": 6887,
      "Ġmaint": 6888,
      "ĠDevTools": 6889,
      "ĠSimpler": 6890,
      ",-": 6891,
      "67": 6892,
      "?>": 6893,
      "Base": 6894,
      "Client": 6895,
      "DATE": 6896,
      "Go": 6897,
      "IG": 6898,
      "IS": 6899,
      "Top": 6900,
      "VE": 6901,
      "Wh": 6902,
      "]}": 6903,
      "after": 6904,
      "afe": 6905,
      "ding": 6906,
      "ef": 6907,
      "ha": 6908,
      "public": 6909,
      "ros": 6910,
      "Ġtowers": 6911,
      "Ġtutorial": 6912,
      "erce": 6913,
      "Ġspl": 6914,
      "atives": 6915,
      "Ġfro": 6916,
      "Ġwave": 6917,
      "ossible": 6918,
      "itter": 6919,
      "Ġhint": 6920,
      "Ġiframe": 6921,
      "Ġ{};": 6922,
      "Ġ'\"": 6923,
      "Ġrust": 6924,
      "expected": 6925,
      "ionally": 6926,
      "une": 6927,
      "Ġ}`": 6928,
      "ĠAct": 6929,
      "Ġtray": 6930,
      "Ġtrain": 6931,
      "leted": 6932,
      "oute": 6933,
      "ĠHDD": 6934,
      "Ġassuming": 6935,
      "allery": 6936,
      "Ġ\"\"": 6937,
      "ĠPrint": 6938,
      "ivate": 6939,
      "ounding": 6940,
      "Ġalong": 6941,
      "ĠDone": 6942,
      ")){": 6943,
      "ĠRep": 6944,
      "Ġdisc": 6945,
      "ĠForms": 6946,
      "dirpath": 6947,
      "ĠEat": 6948,
      "Ġuncheck": 6949,
      "gger": 6950,
      "ĠlastTick": 6951,
      "Ġinterpol": 6952,
      "ddd": 6953,
      "Ġreduces": 6954,
      "Ġblades": 6955,
      "Ġproblems": 6956,
      "Ġpassed": 6957,
      "ĠVer": 6958,
      "Ġinstalling": 6959,
      "Ġregist": 6960,
      "Ġzeros": 6961,
      "ĠcellSize": 6962,
      "Ġsegfault": 6963,
      "proof": 6964,
      "ĠAdded": 6965,
      "updateTime": 6966,
      "ĠOnly": 6967,
      "Ġfooter": 6968,
      "Ġconverts": 6969,
      "Ġbroke": 6970,
      "Ġmonthly": 6971,
      "results": 6972,
      "({'": 6973,
      "Ġrice": 6974,
      "Ġlimits": 6975,
      "DateTime": 6976,
      "Ġallowed": 6977,
      "Ġintegr": 6978,
      "processed": 6979,
      "initial": 6980,
      "Ġdeploy": 6981,
      "Ġrisky": 6982,
      "OWS": 6983,
      "Ġsymlinks": 6984,
      "Ġsuggests": 6985,
      "Ġliterally": 6986,
      "OLS": 6987,
      "Ġdecimals": 6988,
      "Adjust": 6989,
      "Mozilla": 6990,
      "caption": 6991,
      "Array": 6992,
      "ĠControl": 6993,
      "ĠFirefox": 6994,
      "Ġqueue": 6995,
      "duplicates": 6996,
      "Ġlifes": 6997,
      "Ġbelongs": 6998,
      "\"`.": 6999,
      "##": 7000,
      "21": 7001,
      "43": 7002,
      "Aut": 7003,
      "Create": 7004,
      "Ht": 7005,
      "Red": 7006,
      "Zone": 7007,
      "bit": 7008,
      "cast": 7009,
      "ele": 7010,
      "fy": 7011,
      "fla": 7012,
      "hr": 7013,
      "has": 7014,
      "iew": 7015,
      "lite": 7016,
      "mmap": 7017,
      "normal": 7018,
      "opt": 7019,
      "task": 7020,
      "ued": 7021,
      "}],": 7022,
      "Ġari": 7023,
      "inc": 7024,
      "iname": 7025,
      "|><!": 7026,
      "Ġpy": 7027,
      "Ġpus": 7028,
      "Ġland": 7029,
      "ndle": 7030,
      "Ġincon": 7031,
      "Ġinvisible": 7032,
      "Ġfirew": 7033,
      "Ġruler": 7034,
      "Ġ`(": 7035,
      "Ġstress": 7036,
      "Ġstoring": 7037,
      "Ġorange": 7038,
      "Ġbelie": 7039,
      "ĠHH": 7040,
      "delay": 7041,
      "scr": 7042,
      "ĠMB": 7043,
      "ĠFood": 7044,
      "romium": 7045,
      "ĠWhy": 7046,
      "setup": 7047,
      "Ġdisabling": 7048,
      "Ġcounting": 7049,
      "Ġbrown": 7050,
      "ĠperClick": 7051,
      "ictures": 7052,
      "Ġcurve": 7053,
      "continue": 7054,
      "ĠlastIndex": 7055,
      "Ġsubtle": 7056,
      "Ġgrabs": 7057,
      "maxdepth": 7058,
      "netsh": 7059,
      "Ġ95": 7060,
      "Ġwouldn": 7061,
      "progress": 7062,
      "Ġfiltered": 7063,
      "Ġfacts": 7064,
      "missing": 7065,
      "ĠfallbackCopy": 7066,
      "Ġbugs": 7067,
      "Ġwires": 7068,
      "Ġ1600": 7069,
      "Ġweekly": 7070,
      "ĠUnicodeDecodeError": 7071,
      "256": 7072,
      "RELAY": 7073,
      "Ġincluded": 7074,
      "Ġcracked": 7075,
      "Ġsuffix": 7076,
      "[-_": 7077,
      "Skipped": 7078,
      "Ġsecs": 7079,
      "Ġ~/": 7080,
      "clientY": 7081,
      "(?:": 7082,
      "Ġforwarding": 7083,
      "Ġfeatures": 7084,
      "safe": 7085,
      "Ġsentence": 7086,
      "Ġgarage": 7087,
      "Ġvertically": 7088,
      "specific": 7089,
      "Ġimprove": 7090,
      "Ġneighbors": 7091,
      "Ġvolumes": 7092,
      "ĠOptions": 7093,
      "cherry": 7094,
      "Accept": 7095,
      "Ġcomparison": 7096,
      "original": 7097,
      "ĠDownload": 7098,
      "Queue": 7099,
      "saved": 7100,
      "Network": 7101,
      "Ġconfusing": 7102,
      "Ġoccas": 7103,
      "Ġdimensions": 7104,
      "Ġuppercase": 7105,
      "Ġchicken": 7106,
      "ellyfin": 7107,
      "Ġaria": 7108,
      ")?": 7109,
      "77": 7110,
      "=(": 7111,
      "=';": 7112,
      ">');": 7113,
      "EC": 7114,
      "Filter": 7115,
      "Output": 7116,
      "Page": 7117,
      "Same": 7118,
      "When": 7119,
      "bus": 7120,
      "cps": 7121,
      "dent": 7122,
      "hook": 7123,
      "ollision": 7124,
      "Ġtar": 7125,
      "Ġtouches": 7126,
      "ĠiOS": 7127,
      "ernel": 7128,
      "Ġsits": 7129,
      "onna": 7130,
      "Ġcups": 7131,
      "Ġfalls": 7132,
      "Ġfridge": 7133,
      "method": 7134,
      "Ġbill": 7135,
      "Ġbread": 7136,
      "Ġbring": 7137,
      "Ġbought": 7138,
      "Ġdreams": 7139,
      "Ġmir": 7140,
      "Ġner": 7141,
      "nders": 7142,
      "arant": 7143,
      "Ġhue": 7144,
      "Ġhistory": 7145,
      "Ġease": 7146,
      "Ġegg": 7147,
      "Ġgonna": 7148,
      "Ġ'_'": 7149,
      "Ġ(`": 7150,
      "Ġstats": 7151,
      "ithub": 7152,
      "unit": 7153,
      "upgrades": 7154,
      "ĠAnal": 7155,
      "Ġtrust": 7156,
      "Ġtrade": 7157,
      "ĠSIZE": 7158,
      "Ġshif": 7159,
      "scroll": 7160,
      "ĠBl": 7161,
      "ĠBoth": 7162,
      "Ġuseful": 7163,
      "Ġleaks": 7164,
      "Ġ350": 7165,
      "Ġtimedelta": 7166,
      "Ġvenv": 7167,
      "Ġvirtual": 7168,
      "aving": 7169,
      "ĠstartGame": 7170,
      "printf": 7171,
      "Ġunplu": 7172,
      "Ġdrips": 7173,
      "ighth": 7174,
      "Ġformula": 7175,
      "Ġmanagement": 7176,
      "Ġrestarting": 7177,
      "Ġspray": 7178,
      "Ġsummary": 7179,
      "Ġobstacle": 7180,
      "Ġmultimeter": 7181,
      "Ġstopped": 7182,
      "Ġspacebar": 7183,
      "Ġsafely": 7184,
      "ucket": 7185,
      "Ġslider": 7186,
      "exceptions": 7187,
      "toLocaleDateString": 7188,
      "Ġduration": 7189,
      "Ġwhether": 7190,
      "Ġprojects": 7191,
      "Ġselected": 7192,
      "Ġlayer": 7193,
      "Ġdevtools": 7194,
      "Ġvisit": 7195,
      "Ġsmoothly": 7196,
      "Ġmotion": 7197,
      "Ġpurch": 7198,
      "Ġdepth": 7199,
      "Ġsqrt": 7200,
      "ðŁį": 7201,
      "Ġpieces": 7202,
      "Module": 7203,
      "Ġsalt": 7204,
      "Ġbleed": 7205,
      "Ġpermanent": 7206,
      "Ġafford": 7207,
      "Ġradio": 7208,
      "Ġfinger": 7209,
      "ĠIntel": 7210,
      "Ġaverages": 7211,
      "Ġbeauty": 7212,
      "Ġlifesaver": 7213,
      "Ġbelieve": 7214,
      "scraper": 7215,
      "250": 7216,
      "98": 7217,
      "=$": 7218,
      ">${": 7219,
      "Act": 7220,
      "ELL": 7221,
      "Gr": 7222,
      "Mis": 7223,
      "Pin": 7224,
      "PHP": 7225,
      "Row": 7226,
      "SL": 7227,
      "SER": 7228,
      "]};": 7229,
      "bucket": 7230,
      "fers": 7231,
      "fru": 7232,
      "gan": 7233,
      "lves": 7234,
      "nost": 7235,
      "pay": 7236,
      "rl": 7237,
      "sample": 7238,
      "since": 7239,
      "sensitive": 7240,
      "tar": 7241,
      "xml": 7242,
      "hest": 7243,
      "renc": 7244,
      "Ġcre": 7245,
      "Ġcached": 7246,
      "std": 7247,
      "lection": 7248,
      "osh": 7249,
      "Ġpx": 7250,
      "Ġpng": 7251,
      "asy": 7252,
      "aling": 7253,
      "alive": 7254,
      "Ġlambda": 7255,
      "ĠInter": 7256,
      "edia": 7257,
      "Ġgems": 7258,
      "Ġisol": 7259,
      "mpeg": 7260,
      "Ġraspberry": 7261,
      "Ġ`\\": 7262,
      "isdir": 7263,
      "()))": 7264,
      "Ġscared": 7265,
      "separ": 7266,
      "Ġsoil": 7267,
      "Ġexceed": 7268,
      "ĠSearch": 7269,
      "Ġshield": 7270,
      "dead": 7271,
      "quo": 7272,
      "Ġadapt": 7273,
      "ĠPDF": 7274,
      "\">--": 7275,
      "Ġdegrad": 7276,
      "Ġdelta": 7277,
      "Ġquarter": 7278,
      "agick": 7279,
      "ĠshowQuote": 7280,
      "Ġcompact": 7281,
      "Ġapplication": 7282,
      "clicks": 7283,
      "nels": 7284,
      "neath": 7285,
      "Ġrouters": 7286,
      "dates": 7287,
      "Ġunlock": 7288,
      "Ġcommit": 7289,
      "Ġdropped": 7290,
      "Ġimpossible": 7291,
      "Ġinterface": 7292,
      "ncod": 7293,
      "something": 7294,
      "Ġrestarted": 7295,
      "dden": 7296,
      "application": 7297,
      "Ġ%{": 7298,
      "ĠKey": 7299,
      "izing": 7300,
      "AMP": 7301,
      "Ġprote": 7302,
      "Ġ78": 7303,
      "cipe": 7304,
      "8080": 7305,
      "Ġcaliper": 7306,
      "noise": 7307,
      "priority": 7308,
      "Ġcontainers": 7309,
      "Ġignored": 7310,
      "Ġrepo": 7311,
      "Ġ`./": 7312,
      "ASE": 7313,
      "disk": 7314,
      "Ġindic": 7315,
      "Ġasyncio": 7316,
      "Ġsupported": 7317,
      "Ġbarrel": 7318,
      "STAMP": 7319,
      "Ġsudden": 7320,
      "factorial": 7321,
      "tribute": 7322,
      "OUNT": 7323,
      "USED": 7324,
      "ĠAdvanced": 7325,
      "Ġmedian": 7326,
      "Ġattach": 7327,
      "Ġhaving": 7328,
      "FILENAME": 7329,
      "Ġoverlapping": 7330,
      "desc": 7331,
      "Box": 7332,
      "Ġescape": 7333,
      "Images": 7334,
      "ĠYork": 7335,
      "Ġexpensive": 7336,
      "ĠReset": 7337,
      "Ġphysical": 7338,
      "Original": 7339,
      "ermissionError": 7340,
      "Ġintermittent": 7341,
      "Ġinconsistent": 7342,
      ")`,": 7343,
      "=`": 7344,
      "=',": 7345,
      ">`.": 7346,
      "AB": 7347,
      "ALL": 7348,
      "Des": 7349,
      "EO": 7350,
      "HH": 7351,
      "II": 7352,
      "Pri": 7353,
      "Sw": 7354,
      "Trans": 7355,
      "]],": 7356,
      "fl": 7357,
      "good": 7358,
      "hypot": 7359,
      "handle": 7360,
      "optim": 7361,
      "rot": 7362,
      "uum": 7363,
      "uage": 7364,
      "zero": 7365,
      "ĠÃ": 7366,
      "Ġsuch": 7367,
      "onkeydown": 7368,
      "Ġcent": 7369,
      "aters": 7370,
      "Ġfurn": 7371,
      "menu": 7372,
      "Ġwood": 7373,
      "Ġbank": 7374,
      "Ġdamp": 7375,
      "Ġnx": 7376,
      "Ġnavig": 7377,
      "keep": 7378,
      "Ġreq": 7379,
      "Ġrent": 7380,
      "Ġreuse": 7381,
      "Ġreloads": 7382,
      "Ġrecipe": 7383,
      "Ġhog": 7384,
      "Ġhides": 7385,
      "odes": 7386,
      "olo": 7387,
      "Ġ`&": 7388,
      "ighest": 7389,
      "unity": 7390,
      "iding": 7391,
      "ĠApple": 7392,
      "quick": 7393,
      "icle": 7394,
      "âĢĳ": 7395,
      "ĠPre": 7396,
      "ĠPillow": 7397,
      "Ġdel": 7398,
      "Ġdebu": 7399,
      "ĠMod": 7400,
      "ĠMore": 7401,
      "Ġbackward": 7402,
      "ĠData": 7403,
      "Ġ./": 7404,
      "shot": 7405,
      "shop": 7406,
      "Ġcomparing": 7407,
      "Ġpreview": 7408,
      "Ġbump": 7409,
      "Ġresources": 7410,
      "acked": 7411,
      "Ġclone": 7412,
      "Ġacts": 7413,
      "download": 7414,
      "Ġformspree": 7415,
      "ĠclearTimeout": 7416,
      "coerce": 7417,
      "Ġspots": 7418,
      "Ġevens": 7419,
      "Ġints": 7420,
      "Ġplayable": 7421,
      "Ġexceptions": 7422,
      "Ġalignment": 7423,
      "Ġboxes": 7424,
      "Ġprot": 7425,
      "Ġrealized": 7426,
      "Ġexpose": 7427,
      "Ġadjuster": 7428,
      "('.')": 7429,
      "Ġprivate": 7430,
      "Charlie": 7431,
      "Ġfactor": 7432,
      "ToCopy": 7433,
      "Inst": 7434,
      "Seconds": 7435,
      "}_${": 7436,
      "Ġnegatives": 7437,
      "Ġdraining": 7438,
      "Ġeventually": 7439,
      "Ġcuts": 7440,
      "modules": 7441,
      "Column": 7442,
      "Ġflags": 7443,
      "Ġimmediate": 7444,
      "[::-": 7445,
      "Ġbulk": 7446,
      "Ġguarant": 7447,
      "Observer": 7448,
      "Ġcreating": 7449,
      "192": 7450,
      "Ġclockwise": 7451,
      "Connection": 7452,
      "Ġchoice": 7453,
      "Ġdetected": 7454,
      "Ġarguments": 7455,
      "3460": 7456,
      "ĠPhoto": 7457,
      "Ġ]];": 7458,
      "ĠmacOS": 7459,
      "Ġoptimized": 7460,
      "Ġbeginning": 7461,
      "Minutes": 7462,
      "ĠaudioCtx": 7463,
      "Ġcircuit": 7464,
      "frames": 7465,
      "Ġdrum": 7466,
      "ĠWhich": 7467,
      "Ġcongested": 7468,
      "BASH": 7469,
      "Ġthousands": 7470,
      "REMATCH": 7471,
      "=()=>{": 7472,
      "humidity": 7473,
      "yzer": 7474,
      "Ġfurther": 7475,
      "Ġfirewall": 7476,
      "rency": 7477,
      ")}\")": 7478,
      "/%": 7479,
      ":])": 7480,
      ";}": 7481,
      "After": 7482,
      "Code": 7483,
      "LI": 7484,
      "Len": 7485,
      "SQL": 7486,
      "Wor": 7487,
      "_.": 7488,
      "ace": 7489,
      "ek": 7490,
      "gency": 7491,
      "gallery": 7492,
      "large": 7493,
      "lish": 7494,
      "math": 7495,
      "matches": 7496,
      "plain": 7497,
      "uet": 7498,
      "wb": 7499,
      "wning": 7500,
      "})`;": 7501,
      "Ġslip": 7502,
      "react": 7503,
      "mean": 7504,
      "mete": 7505,
      "Ġbounds": 7506,
      "Ġpat": 7507,
      "ased": 7508,
      "Ġmat": 7509,
      "edge": 7510,
      "Ġrag": 7511,
      "Ġ(\"": 7512,
      "Ġ(-": 7513,
      "Ġ`['": 7514,
      "celer": 7515,
      "unc": 7516,
      "roc": 7517,
      "isdigit": 7518,
      "Ġcandid": 7519,
      "Ġconsist": 7520,
      "ĠTemp": 7521,
      "ĠTailscale": 7522,
      "ids": 7523,
      "ops": 7524,
      "look": 7525,
      "Ġusb": 7526,
      "ĠCost": 7527,
      "ĠCOLS": 7528,
      "ummy": 7529,
      "Ġ<!": 7530,
      "Ġexits": 7531,
      "ĠSD": 7532,
      "Ġsharing": 7533,
      "launch": 7534,
      "getB": 7535,
      "ĠPages": 7536,
      "ĠWor": 7537,
      "ĠWAN": 7538,
      "Ġprofile": 7539,
      "force": 7540,
      "ĠOften": 7541,
      "ĠDCIM": 7542,
      "Ġwritten": 7543,
      "='\\": 7544,
      "Ġcompany": 7545,
      "Ġplt": 7546,
      "Ġcombined": 7547,
      "ĠGB": 7548,
      "Ġund": 7549,
      "enerate": 7550,
      "Ġgoogle": 7551,
      "Ġcrontab": 7552,
      "Ġunits": 7553,
      "remote": 7554,
      "crease": 7555,
      "(\"/": 7556,
      "Ġclearer": 7557,
      "Ġunderneath": 7558,
      "phant": 7559,
      "alend": 7560,
      "Ġhappened": 7561,
      "----": 7562,
      "ĠExpress": 7563,
      "Ġnetgear": 7564,
      "ĠStick": 7565,
      "ĠDog": 7566,
      "Ġfailures": 7567,
      "Ġsnap": 7568,
      "Ġorders": 7569,
      "Ġframes": 7570,
      "Ġinitialize": 7571,
      "Ġfalling": 7572,
      "Ġdivide": 7573,
      "ĠManagement": 7574,
      "Ġ??": 7575,
      "Ġtimeouts": 7576,
      "roller": 7577,
      "Ġrepeating": 7578,
      "ĠUpgrade": 7579,
      "ChildItem": 7580,
      "merge": 7581,
      "Ġtracks": 7582,
      "Ġbuildings": 7583,
      "OUT": 7584,
      "Ġwatchdog": 7585,
      "posts": 7586,
      "Ġcycles": 7587,
      "(/\\": 7588,
      "cheap": 7589,
      "Ġoperations": 7590,
      "Ġsqlite": 7591,
      "Ġmalware": 7592,
      "Ġcodes": 7593,
      "Ġglass": 7594,
      "evens": 7595,
      "Ġopport": 7596,
      "ĠtranslateY": 7597,
      "ĠDisk": 7598,
      "powercfg": 7599,
      "Ġroughly": 7600,
      "Ġdeleting": 7601,
      "Ġindentation": 7602,
      "PAUSED": 7603,
      "Simplest": 7604,
      "Ġcredentials": 7605,
      "Ġdisappears": 7606,
      "Ġvacuum": 7607,
      "ĠActivity": 7608,
      "quoosh": 7609,
      "meteo": 7610,
      "%)`;": 7611,
      ")',": 7612,
      "320": 7613,
      "48": 7614,
      "Are": 7615,
      "Call": 7616,
      "Direction": 7617,
      "FOR": 7618,
      "Gold": 7619,
      "IO": 7620,
      "Pre": 7621,
      "Part": 7622,
      "Turn": 7623,
      "Url": 7624,
      "Wr": 7625,
      "Wrap": 7626,
      "YOUR": 7627,
      "\\'": 7628,
      "bow": 7629,
      "car": 7630,
      "dot": 7631,
      "ktop": 7632,
      "ners": 7633,
      "ools": 7634,
      "spa": 7635,
      "soup": 7636,
      "sweet": 7637,
      "vable": 7638,
      "Ġahead": 7639,
      "Ġsorry": 7640,
      "Ġcateg": 7641,
      "include": 7642,
      "itched": 7643,
      "enance": 7644,
      "Ġital": 7645,
      "Ġrenders": 7646,
      "sid": 7647,
      "lls": 7648,
      "rict": 7649,
      "ribut": 7650,
      "Ġ'':": 7651,
      "three": 7652,
      "Ġlies": 7653,
      "Ġconn": 7654,
      "ĠAsk": 7655,
      "seconds": 7656,
      "Ġmesh": 7657,
      "Ġtrouble": 7658,
      "')))": 7659,
      "ĠSp": 7660,
      "ĠSort": 7661,
      "delimiter": 7662,
      "decor": 7663,
      "quid": 7664,
      "abin": 7665,
      "scan": 7666,
      "ĠBas": 7667,
      "okay": 7668,
      "ĠPri": 7669,
      "Ġheap": 7670,
      "ĠFROM": 7671,
      "Ġcolon": 7672,
      "Ġ[...": 7673,
      "Ġoutfile": 7674,
      "Ġtele": 7675,
      "ĠROWS": 7676,
      "'])`": 7677,
      "Ġprecise": 7678,
      "Ġbuzz": 7679,
      "Ġbundle": 7680,
      "Ġrespect": 7681,
      "Ġnois": 7682,
      "ĠJoke": 7683,
      "Ġappli": 7684,
      "ended": 7685,
      "placeholder": 7686,
      "Ġhelper": 7687,
      "anges": 7688,
      "Ġunre": 7689,
      "Ġmisalign": 7690,
      "cloudflared": 7691,
      "Ġparam": 7692,
      "performance": 7693,
      "Ġsmtp": 7694,
      "Ġacceler": 7695,
      "Ġsales": 7696,
      "Ġsolve": 7697,
      "Ġcurrently": 7698,
      "Ġrace": 7699,
      "imalware": 7700,
      "Ġcheapest": 7701,
      "izer": 7702,
      "Ġlightweight": 7703,
      "Ġquotechar": 7704,
      "Ġlengths": 7705,
      "Ġstreams": 7706,
      "Sego": 7707,
      "Ġsticker": 7708,
      "buf": 7709,
      "Ġreversing": 7710,
      "Ġreversed": 7711,
      "ĠClicking": 7712,
      "Ġargparse": 7713,
      "cells": 7714,
      "Ġ{}).": 7715,
      "Ġmodifying": 7716,
      "thernet": 7717,
      "arrowup": 7718,
      "Ġgrowth": 7719,
      "Obstacles": 7720,
      "makedirs": 7721,
      "Ġtoner": 7722,
      "correct": 7723,
      "detect": 7724,
      "ondon": 7725,
      "strokeStyle": 7726,
      "Weather": 7727,
      "Ġhogging": 7728,
      "Img": 7729,
      "Ġrecord": 7730,
      "Ġchipset": 7731,
      "Ġ\"%{": 7732,
      "ĠHEAD": 7733,
      "Ġsemicolons": 7734,
      "Ġconcaten": 7735,
      "ĠLennon": 7736,
      "ĠFocus": 7737,
      "ClientRect": 7738,
      "oundingClientRect": 7739,
      "Ġ<!--": 7740,
      "getBoundingClientRect": 7741,
      "Ġopportunity": 7742,
      "Segoe": 7743,
      "\").": 7744,
      ")=>": 7745,
      ".',": 7746,
      "=-": 7747,
      "?.": 7748,
      "CC": 7749,
      "Cool": 7750,
      "Dist": 7751,
      "Hold": 7752,
      "Light": 7753,
      "Nice": 7754,
      "SV": 7755,
      "Sm": 7756,
      "Space": 7757,
      "SIZE": 7758,
      "VAL": 7759,
      "Word": 7760,
      "Write": 7761,
      "cors": 7762,
      "cwd": 7763,
      "hi": 7764,
      "meric": 7765,
      "oc": 7766,
      "often": 7767,
      "same": 7768,
      "sli": 7769,
      "ti": 7770,
      "tad": 7771,
      "tighten": 7772,
      "will": 7773,
      "yaml": 7774,
      "Ġiron": 7775,
      "Ġss": 7776,
      "Ġslack": 7777,
      "ĠĠĠĠĠĠ": 7778,
      "Ġclip": 7779,
      "Ġcmd": 7780,
      "Ġcamera": 7781,
      "stderr": 7782,
      "Ġfour": 7783,
      "|>`": 7784,
      "Ġwake": 7785,
      "Ġdim": 7786,
      "Ġduct": 7787,
      "ito": 7788,
      "ense": 7789,
      "alert": 7790,
      "Ġlube": 7791,
      "Ġtooth": 7792,
      "ĠIFS": 7793,
      "sided": 7794,
      "Ġinvol": 7795,
      "Ġhing": 7796,
      "Ġhur": 7797,
      "Ġhate": 7798,
      "Ġham": 7799,
      "Ġ'*": 7800,
      "rocessing": 7801,
      "urance": 7802,
      "ising": 7803,
      "Ġ}).": 7804,
      "ĠAc": 7805,
      "ĠCore": 7806,
      "ĠCELL": 7807,
      "peat": 7808,
      "Ġloosen": 7809,
      "ĠSup": 7810,
      "Ġasks": 7811,
      "ifest": 7812,
      "getHours": 7813,
      "getcwd": 7814,
      "deg": 7815,
      "ĠBig": 7816,
      "ico": 7817,
      "Ġheadless": 7818,
      "Ġ\".\"": 7819,
      "svg": 7820,
      "ived": 7821,
      "gry": 7822,
      "ĠMAX": 7823,
      "ĠFallback": 7824,
      "owness": 7825,
      "pache": 7826,
      "Ġnewname": 7827,
      "ĠLe": 7828,
      "ĠLat": 7829,
      "ĠUsage": 7830,
      "Ġmoisture": 7831,
      "ĠDB": 7832,
      "Ġenabled": 7833,
      "toFixed": 7834,
      "ĠRed": 7835,
      "Ġpreference": 7836,
      "Ġdish": 7837,
      "gameTick": 7838,
      "ĠForEach": 7839,
      "Ġspawning": 7840,
      "Ġworker": 7841,
      "ĠGe": 7842,
      "ĠGr": 7843,
      "Ġlooping": 7844,
      "ĠstartTime": 7845,
      "Ġarch": 7846,
      "Ġuninstall": 7847,
      "Ġparams": 7848,
      "DOM": 7849,
      "Ġaccur": 7850,
      "Ġinterpre": 7851,
      "Theme": 7852,
      "Ġtested": 7853,
      "Ġexamples": 7854,
      "Ġpointing": 7855,
      "ĠrestartBtn": 7856,
      "pres": 7857,
      "figure": 7858,
      "1200": 7859,
      "fromtimestamp": 7860,
      "ĠautoCost": 7861,
      "latitude": 7862,
      "ĠpowerUp": 7863,
      "documentElement": 7864,
      "iterdir": 7865,
      "Ġcollisions": 7866,
      "Ġthrott": 7867,
      "={'": 7868,
      "Ġprimes": 7869,
      "Ġsystemctl": 7870,
      "OME": 7871,
      "Ġnormalize": 7872,
      "Ġlots": 7873,
      "ĠAnything": 7874,
      "Ġhosts": 7875,
      "Ġreply": 7876,
      "Ġcables": 7877,
      "MMSS": 7878,
      "ĠNetgear": 7879,
      "Ġtricky": 7880,
      "ĠISO": 7881,
      "Ġrepeats": 7882,
      "Ġfruit": 7883,
      "Ġrestore": 7884,
      "awesome": 7885,
      "Ġâī": 7886,
      "Ġ256": 7887,
      "ffic": 7888,
      "arrowright": 7889,
      "arrowdown": 7890,
      "arrowleft": 7891,
      "chunksize": 7892,
      "Ġprogramm": 7893,
      "Ġscrolling": 7894,
      "Ġmaps": 7895,
      "Ġhashlib": 7896,
      "Ġelapsed": 7897,
      "dropdown": 7898,
      "longitude": 7899,
      "grep": 7900,
      "Ġprovider": 7901,
      "Ġpaid": 7902,
      "Ġoptimize": 7903,
      "Ġresolve": 7904,
      "Ġspending": 7905,
      "Ġdocs": 7906,
      "Ġplaces": 7907,
      "Ġrecogn": 7908,
      "ĠINFO": 7909,
      "trailing": 7910,
      "Ġdecreases": 7911,
      "Ġdenied": 7912,
      "Ġaggressive": 7913,
      "Ġmirror": 7914,
      "Area": 7915,
      "decoration": 7916,
      "merica": 7917,
      "tadata": 7918,
      "\"?": 7919,
      "\"}": 7920,
      "'?<|": 7921,
      "27": 7922,
      "Effect": 7923,
      "EST": 7924,
      "Fetch": 7925,
      "IY": 7926,
      "Monitor": 7927,
      "Media": 7928,
      "Number": 7929,
      "Pool": 7930,
      "Some": 7931,
      "Session": 7932,
      "SMTP": 7933,
      "TIME": 7934,
      "Want": 7935,
      "]),": 7936,
      "fast": 7937,
      "ils": 7938,
      "nx": 7939,
      "tab": 7940,
      "vous": 7941,
      "rest": 7942,
      "Ġcub": 7943,
      "increment": 7944,
      "Ġff": 7945,
      "Ġfits": 7946,
      "anel": 7947,
      "annels": 7948,
      "Ġburn": 7949,
      "Ġbend": 7950,
      "Ġda": 7951,
      "Ġdang": 7952,
      "Ġpatch": 7953,
      "Ġpins": 7954,
      "Ġpromise": 7955,
      "encode": 7956,
      "Ġmine": 7957,
      "uspen": 7958,
      "Ġremin": 7959,
      "Ġincorrect": 7960,
      "ribe": 7961,
      "riend": 7962,
      "ntimalware": 7963,
      "Ġfires": 7964,
      "ĠonClick": 7965,
      "Ġ`$": 7966,
      "export": 7967,
      "aked": 7968,
      "('--": 7969,
      "chieve": 7970,
      "ĠTr": 7971,
      "sep": 7972,
      "Ġsoap": 7973,
      "keyframes": 7974,
      "ĠHappy": 7975,
      "gets": 7976,
      "scheme": 7977,
      "Ġchannels": 7978,
      "Ġcoord": 7979,
      "Ġ\"\\": 7980,
      "ram": 7981,
      "rain": 7982,
      "Ġchecker": 7983,
      "Ġcheckbox": 7984,
      "ĠPick": 7985,
      "Ġleg": 7986,
      "Ġleaking": 7987,
      "pag": 7988,
      "Status": 7989,
      "achable": 7990,
      "services": 7991,
      "ĠOK": 7992,
      "ĠDes": 7993,
      "ĠDIY": 7994,
      "Ġwrapped": 7995,
      "Ġkept": 7996,
      "ffff": 7997,
      "Ġsimply": 7998,
      "addr": 7999,
      "Ġcompat": 8000,
      "Ġ10000": 8001,
      "Ġprepend": 8002,
      "Ġclunk": 8003,
      "__(": 8004,
      "Ġcharging": 8005,
      "Items": 8006,
      "Ġindexes": 8007,
      "Ġrobocopy": 8008,
      "logs": 8009,
      "figcaption": 8010,
      "cursion": 8011,
      "Ġblockquote": 8012,
      "},{": 8013,
      "ĠcopyText": 8014,
      "Update": 8015,
      "Updated": 8016,
      "argument": 8017,
      "gnito": 8018,
      "pending": 8019,
      "Ġtypically": 8020,
      "Ġtraffic": 8021,
      "Ġbrush": 8022,
      "Ġslice": 8023,
      "ĠĠĠĠĠĠĠĠĠĠĠĠčĊ": 8024,
      "Ġswitching": 8025,
      "ckets": 8026,
      "Ġrelated": 8027,
      "aws": 8028,
      "Ġpushing": 8029,
      "Ġmidnight": 8030,
      "Ġslowness": 8031,
      "Ġinsurance": 8032,
      "Ġtechy": 8033,
      "Ġpasted": 8034,
      "Ġappending": 8035,
      "ĠPHPMailer": 8036,
      "dropna": 8037,
      "Ġequals": 8038,
      "ĠSelenium": 8039,
      "destination": 8040,
      "Ġmarkdown": 8041,
      "Ġoperator": 8042,
      "secure": 8043,
      "small": 8044,
      "666": 8045,
      "DEST": 8046,
      "ĠtranslateX": 8047,
      "888": 8048,
      "ĠDisable": 8049,
      "Ġsquee": 8050,
      "bigfile": 8051,
      "Ġmentally": 8052,
      "Ġplaced": 8053,
      "Server": 8054,
      "ĠDHCP": 8055,
      "Ġaggreg": 8056,
      "Ġtorn": 8057,
      "Ġofficial": 8058,
      "Ġscraping": 8059,
      "KEY": 8060,
      "ferences": 8061,
      "Ġsymbols": 8062,
      "Ġmiles": 8063,
      "umbnail": 8064,
      "Ġmaintenance": 8065,
      "Ġsplash": 8066,
      "initialspace": 8067,
      "Ġoccasionally": 8068,
      "Ġnervous": 8069,
      "Active": 8070,
      "Missing": 8071,
      "Ġcentral": 8072,
      "Ġitalic": 8073,
      "Ġreminder": 8074,
      "Ġcoordin": 8075,
      "\"])": 8076,
      "$/": 8077,
      "$',": 8078,
      "'âĢĶ": 8079,
      "*(": 8080,
      "/*": 8081,
      "700": 8082,
      "7000": 8083,
      "816": 8084,
      ">'": 8085,
      "America": 8086,
      "Block": 8087,
      "Better": 8088,
      "DH": 8089,
      "DU": 8090,
      "Encod": 8091,
      "Grid": 8092,
      "Option": 8093,
      "Play": 8094,
      "Pixel": 8095,
      "PRO": 8096,
      "TO": 8097,
      "Users": 8098,
      "Wire": 8099,
      "\\/": 8100,
      "]='": 8101,
      "`),": 8102,
      "call": 8103,
      "iod": 8104,
      "ilet": 8105,
      "mical": 8106,
      "oft": 8107,
      "ration": 8108,
      "yond": 8109,
      "Ġbow": 8110,
      "Ġblog": 8111,
      "Ġdial": 8112,
      "itches": 8113,
      "Ġreser": 8114,
      "sius": 8115,
      "Ġhose": 8116,
      "Ġhighest": 8117,
      "Ġemer": 8118,
      "Ġeffici": 8119,
      "ants": 8120,
      "Ġru": 8121,
      "exc": 8122,
      "exp": 8123,
      "Ġstiff": 8124,
      "chromium": 8125,
      "ĠTotal": 8126,
      "ĠAss": 8127,
      "Ġscans": 8128,
      "Ġbeyond": 8129,
      "Ġnotes": 8130,
      "Ġ240": 8131,
      "Ġuploads": 8132,
      "Ġsecret": 8133,
      "Ġshark": 8134,
      "getMinutes": 8135,
      "Ġchmod": 8136,
      "icros": 8137,
      "ĠPromise": 8138,
      "Ġdefin": 8139,
      "Ġled": 8140,
      "Ġlearning": 8141,
      "illed": 8142,
      "ĠFree": 8143,
      "Ġprintf": 8144,
      "ĠButton": 8145,
      "setTimeout": 8146,
      ")).": 8147,
      "addle": 8148,
      "sharp": 8149,
      "']`.": 8150,
      "Ġspare": 8151,
      "Ġcentering": 8152,
      "ĠEthernet": 8153,
      "Ġeveryone": 8154,
      "loaded": 8155,
      "Ġcommits": 8156,
      "Ġmismatch": 8157,
      "coming": 8158,
      "Ġdisplayed": 8159,
      "listen": 8160,
      "Ġpossibility": 8161,
      "ncaught": 8162,
      "velop": 8163,
      "Ġmessed": 8164,
      "Ġcontinues": 8165,
      "Ġgotcha": 8166,
      "contents": 8167,
      "Ġ1500": 8168,
      "resume": 8169,
      "Ġturned": 8170,
      "Ġswipe": 8171,
      "Ġswapping": 8172,
      "ĠExcel": 8173,
      "2021": 8174,
      "Ġprefixed": 8175,
      "Ġoutputs": 8176,
      "cision": 8177,
      "obstacles": 8178,
      "ĠbaseSpeed": 8179,
      "innerWidth": 8180,
      "summary": 8181,
      "Ġconfigure": 8182,
      "Ġsystemd": 8183,
      "Ġfair": 8184,
      "Progress": 8185,
      "Ġignoring": 8186,
      "Ġsavings": 8187,
      "Ġtrace": 8188,
      "Ġconnecting": 8189,
      "}-${": 8190,
      "ĠĠĠĠĠĠĠĠĠĠĠĠĠĠĠĠ": 8191,
      "**:": 8192,
      "Ġcapital": 8193,
      "Ġcutting": 8194,
      "Ġdigital": 8195,
      "Ġcards": 8196,
      "offset": 8197,
      "Ġpauses": 8198,
      "Ġremovable": 8199,
      "Ġextracts": 8200,
      "RET": 8201,
      "Ġrotor": 8202,
      "Ġterminals": 8203,
      "Ġoverheat": 8204,
      "}`);": 8205,
      "Ġguide": 8206,
      "Ġculprits": 8207,
      "abspath": 8208,
      "Ġjokes": 8209,
      "sectionObserver": 8210,
      "google": 8211,
      "ĠSelect": 8212,
      "Ġrounded": 8213,
      "ĠCleanup": 8214,
      "checked": 8215,
      "breaking": 8216,
      "ĠOSError": 8217,
      "ĠService": 8218,
      "Ġpotato": 8219,
      "Attribute": 8220,
      "OLD": 8221,
      "Ġsmells": 8222,
      "Ġbookmark": 8223,
      "Ġbarely": 8224,
      "Ġaxle": 8225,
      "spawnFood": 8226,
      "Ġseparators": 8227,
      "ĠAlways": 8228,
      "Ġrainbow": 8229,
      "Ġnecessary": 8230,
      "Blur": 8231,
      "Ġaltern": 8232,
      "Ġupgrading": 8233,
      "Ġhungry": 8234,
      "HHMMSS": 8235,
      "Ġmisaligned": 8236,
      "Ġhinge": 8237,
      "ĠLatin": 8238,
      "Encoding": 8239,
      "icrosoft": 8240,
      ")=": 8241,
      "+(": 8242,
      "+',": 8243,
      "?)": 8244,
      "DR": 8245,
      "Mon": 8246,
      "NOR": 8247,
      "Pl": 8248,
      "Python": 8249,
      "Value": 8250,
      "_\\": 8251,
      "bones": 8252,
      "fish": 8253,
      "gth": 8254,
      "gig": 8255,
      "np": 8256,
      "oom": 8257,
      "sfc": 8258,
      "tup": 8259,
      "tasks": 8260,
      "under": 8261,
      "vity": 8262,
      "zier": 8263,
      "ĠQ": 8264,
      "Ġrid": 8265,
      "Ġtur": 8266,
      "Ġtaste": 8267,
      "Ġinde": 8268,
      "Ġsed": 8269,
      "onents": 8270,
      "inse": 8271,
      "stats": 8272,
      "Ġfly": 8273,
      "Ġfins": 8274,
      "orrect": 8275,
      "Ġways": 8276,
      "Ġbatter": 8277,
      "Ġpee": 8278,
      "enu": 8279,
      "engine": 8280,
      "Ġtoilet": 8281,
      "Ġreve": 8282,
      "Ġrepr": 8283,
      "Ġreview": 8284,
      "Ġinco": 8285,
      "Ġinvest": 8286,
      "otes": 8287,
      "Ġ'');": 8288,
      "think": 8289,
      "Ġrm": 8290,
      "Ġ({": 8291,
      "Ġ`*": 8292,
      "Ġforces": 8293,
      "Ġdoll": 8294,
      "Ġliquid": 8295,
      "Ġcannon": 8296,
      "lives": 8297,
      "ĠTerminal": 8298,
      "headless": 8299,
      "ĠAX": 8300,
      "seen": 8301,
      "semb": 8302,
      "selector": 8303,
      "Ġexport": 8304,
      "Ġexclud": 8305,
      "Ġshr": 8306,
      "Ġworst": 8307,
      "quality": 8308,
      "ably": 8309,
      "Ġchoke": 8310,
      "ulation": 8311,
      "ipes": 8312,
      "Ġlegit": 8313,
      "itea": 8314,
      "Ġprof": 8315,
      "Ġaddition": 8316,
      "ĠscoreDisplay": 8317,
      "Ġ36": 8318,
      "ĠNumber": 8319,
      "ĠNULL": 8320,
      "ĠLAN": 8321,
      "Ġmoment": 8322,
      "ĠOutput": 8323,
      "agent": 8324,
      "Ġhasn": 8325,
      "=''`": 8326,
      "Ġcleared": 8327,
      "styles": 8328,
      "Ġdispos": 8329,
      "Ġdiscard": 8330,
      "Ġresort": 8331,
      "ĠJohn": 8332,
      "ryst": 8333,
      "Ġapplies": 8334,
      "osevel": 8335,
      "ĠEvent": 8336,
      "ĠEvery": 8337,
      "Ġserving": 8338,
      "Ġserved": 8339,
      "Ġeverywhere": 8340,
      "Ġcraters": 8341,
      "Ġunused": 8342,
      "Ġbool": 8343,
      "Ġslows": 8344,
      "Ġacces": 8345,
      "myBtn": 8346,
      "heses": 8347,
      "Ġsubscript": 8348,
      "licated": 8349,
      "Ġspinner": 8350,
      "newline": 8351,
      "Ġbasket": 8352,
      "aled": 8353,
      "Ġchemical": 8354,
      "...\">": 8355,
      "Ġencodings": 8356,
      "ĠspawnApple": 8357,
      "Ġtemplate": 8358,
      "netlify": 8359,
      "Ġcontents": 8360,
      "ORT": 8361,
      "Ġfetching": 8362,
      "ĠRemember": 8363,
      "10000": 8364,
      "([^": 8365,
      "Ġpickax": 8366,
      "Ġoriginals": 8367,
      "dicts": 8368,
      "Ġairflow": 8369,
      "Ġdusty": 8370,
      "notes": 8371,
      "clockwise": 8372,
      "Ġasking": 8373,
      "Ġcustomer": 8374,
      "RES": 8375,
      "Ġpops": 8376,
      "ĠgoldenApple": 8377,
      "monospace": 8378,
      "Ġparentheses": 8379,
      "global": 8380,
      "Ġslash": 8381,
      "Ġ~$": 8382,
      "Ġpings": 8383,
      "Ġmillions": 8384,
      "aha": 8385,
      "Ġroutes": 8386,
      "ĠIDs": 8387,
      "Build": 8388,
      "Ġreassemble": 8389,
      "Ġtokens": 8390,
      "HTTPS": 8391,
      "Ġtomato": 8392,
      "Ġmagic": 8393,
      "Modal": 8394,
      "Ġdeleted": 8395,
      "Web": 8396,
      "Ġrecovery": 8397,
      "Ġattempts": 8398,
      "Ġbolts": 8399,
      "=\"#\">": 8400,
      "Ġjpgs": 8401,
      "Ġdecrease": 8402,
      "Ġcollapse": 8403,
      "ĠBefore": 8404,
      "Secure": 8405,
      "Ġcongestion": 8406,
      "XXXX": 8407,
      "JSONDecodeError": 8408,
      "ĠRoosevel": 8409,
      "EMAIL": 8410,
      "Ġalphabetically": 8411,
      "ĠProcesses": 8412,
      "Ġdegrees": 8413,
      "escape": 8414,
      "Ġpurchase": 8415,
      "olocation": 8416,
      "Ġbackwards": 8417,
      "Ġprotect": 8418,
      "Length": 8419,
      "Ġundo": 8420,
      "alendar": 8421,
      "Ġteleport": 8422,
      "DOMContentLoaded": 8423,
      "Ġincorrectly": 8424,
      "Ġincognito": 8425,
      "ĠRoosevelt": 8426,
      "-$": 8427,
      ".)": 8428,
      ":</": 8429,
      "AA": 8430,
      "App": 8431,
      "Easy": 8432,
      "HE": 8433,
      "Line": 8434,
      "Pi": 8435,
      "Port": 8436,
      "Post": 8437,
      "Temp": 8438,
      "VID": 8439,
      "bed": 8440,
      "caf": 8441,
      "crypt": 8442,
      "github": 8443,
      "king": 8444,
      "nh": 8445,
      "ooth": 8446,
      "win": 8447,
      "watch": 8448,
      "xies": 8449,
      "zf": 8450,
      "zon": 8451,
      "}}": 8452,
      "}[-_": 8453,
      "Â©": 8454,
      "Ġut": 8455,
      "Ġtre": 8456,
      "Ġtaken": 8457,
      "Ġswe": 8458,
      "Ġsweet": 8459,
      "onac": 8460,
      "inline": 8461,
      "atio": 8462,
      "stems": 8463,
      "lent": 8464,
      "Ġfuser": 8465,
      "Ġbath": 8466,
      "Ġdont": 8467,
      "Ġdual": 8468,
      "Ġpics": 8469,
      "alt": 8470,
      "alph": 8471,
      "owels": 8472,
      "uted": 8473,
      "Ġrely": 8474,
      "Ġrese": 8475,
      "oded": 8476,
      "Ġgaming": 8477,
      "Ġ'[:": 8478,
      "Ġisp": 8479,
      "sistor": 8480,
      "Ġstray": 8481,
      "Ġstamina": 8482,
      "rops": 8483,
      "Ġlibs": 8484,
      "Ġconcurrent": 8485,
      "ĠTAG": 8486,
      "ĠASC": 8487,
      "ĠClock": 8488,
      "ĠCook": 8489,
      "Ġlocked": 8490,
      "Ġupside": 8491,
      "ĠSm": 8492,
      "concat": 8493,
      "Ġ\"_\"": 8494,
      "Ġ\"\"\"": 8495,
      "ĠPull": 8496,
      "astype": 8497,
      "ssl": 8498,
      "ĠMe": 8499,
      "Steve": 8500,
      "ĠtimeLeft": 8501,
      "ardown": 8502,
      "ĠDid": 8503,
      "Ġoutline": 8504,
      "Ġteardown": 8505,
      "ĠRaspberry": 8506,
      "should": 8507,
      "Ġdisch": 8508,
      "Err": 8509,
      "ĠJPG": 8510,
      "acket": 8511,
      "aker": 8512,
      "Ġ480": 8513,
      "Ġworkaround": 8514,
      "Ġactivity": 8515,
      "ĠEither": 8516,
      "fafa": 8517,
      "ifies": 8518,
      "ĠwillEat": 8519,
      "Ġdripping": 8520,
      "Ġcleanly": 8521,
      "\",\"": 8522,
      "Ġlookup": 8523,
      "Ġlogo": 8524,
      "coll": 8525,
      "Ġsolves": 8526,
      "Ġflexible": 8527,
      "Ġbasename": 8528,
      "minutes": 8529,
      "Ġmulti": 8530,
      "ificate": 8531,
      "--)": 8532,
      "...';": 8533,
      "PUT": 8534,
      "Ġputting": 8535,
      "network": 8536,
      "ĠbuyBtn": 8537,
      "Ġnetlify": 8538,
      "60816": 8539,
      "trap": 8540,
      "track": 8541,
      "Ġsnag": 8542,
      "Ġportfolio": 8543,
      "([]))": 8544,
      "tried": 8545,
      "overflow": 8546,
      "auth": 8547,
      "Another": 8548,
      "Second": 8549,
      "Ġ1920": 8550,
      "Ref": 8551,
      "Ġpointers": 8552,
      "Ġpulls": 8553,
      "build": 8554,
      "Ġmethods": 8555,
      ">`;": 8556,
      "shadowBlur": 8557,
      "Ġkilling": 8558,
      "currentTime": 8559,
      "Ġgrowing": 8560,
      "execute": 8561,
      "ĠGetform": 8562,
      "Ġbusiness": 8563,
      "Ġensures": 8564,
      "Ġdamaged": 8565,
      "Ġ_,": 8566,
      "Ġpaying": 8567,
      "Ġattached": 8568,
      "Ġrectangle": 8569,
      "Ġproduce": 8570,
      "Ġescaped": 8571,
      "Ġflickers": 8572,
      "Service": 8573,
      "ambur": 8574,
      "Ġanten": 8575,
      "Ġreduced": 8576,
      "allowed": 8577,
      "Ġpermanently": 8578,
      "QUOTE": 8579,
      "About": 8580,
      "ĠSteps": 8581,
      "Ġterms": 8582,
      "Ġmicrowaves": 8583,
      "BUG": 8584,
      "Ġgigs": 8585,
      "ĠSQLite": 8586,
      "relative": 8587,
      "ĠHWMonitor": 8588,
      "batteryreport": 8589,
      "squares": 8590,
      "types": 8591,
      "Ġinterpolation": 8592,
      "elephant": 8593,
      "SERVER": 8594,
      "separated": 8595,
      "Ġprotection": 8596,
      "Ġfurnace": 8597,
      "Ġdebugging": 8598,
      "Ġguaranteed": 8599,
      "uetooth": 8600,
      "scannow": 8601,
      "Ġffmpeg": 8602,
      "Ġcoordinates": 8603,
      "Ġbowl": 8604,
      "Ġemergency": 8605,
      "sembly": 8606,
      "Ġshrinks": 8607,
      "Ġdisposal": 8608,
      "rystal": 8609,
      "onacci": 8610,
      "ĠTAGS": 8611,
      "ĠASCII": 8612,
      "!'": 8613,
      "%`": 8614,
      "''.": 8615,
      "'})": 8616,
      "(('.": 8617,
      ")'": 8618,
      "/*.": 8619,
      "2000": 8620,
      ";`.": 8621,
      "=/": 8622,
      "AP": 8623,
      "Collision": 8624,
      "HO": 8625,
      "Host": 8626,
      "Joke": 8627,
      "Keep": 8628,
      "Magick": 8629,
      "NA": 8630,
      "Node": 8631,
      "Of": 8632,
      "Pictures": 8633,
      "SU": 8634,
      "_')": 8635,
      "_'):": 8636,
      "audio": 8637,
      "cir": 8638,
      "dude": 8639,
      "ev": 8640,
      "efficient": 8641,
      "fli": 8642,
      "frequ": 8643,
      "goto": 8644,
      "gative": 8645,
      "guard": 8646,
      "hp": 8647,
      "hip": 8648,
      "ios": 8649,
      "kb": 8650,
      "kit": 8651,
      "mouse": 8652,
      "nap": 8653,
      "palindrome": 8654,
      "ruct": 8655,
      "spect": 8656,
      "tip": 8657,
      "ĉĉ": 8658,
      "Ġaware": 8659,
      "Ġachieve": 8660,
      "erous": 8661,
      "Ġsides": 8662,
      "heic": 8663,
      "stud": 8664,
      "Ġfli": 8665,
      "Ġfra": 8666,
      "ords": 8667,
      "memory": 8668,
      "Ġbot": 8669,
      "Ġbird": 8670,
      "Ġbots": 8671,
      "Ġbirthday": 8672,
      "Ġbakery": 8673,
      "Ġpen": 8674,
      "Ġpic": 8675,
      "Ġprom": 8676,
      "Ġpry": 8677,
      "Ġpacket": 8678,
      "itial": 8679,
      "itivity": 8680,
      "ashed": 8681,
      "Ġmus": 8682,
      "Ġmmap": 8683,
      "allen": 8684,
      "Ġreaches": 8685,
      "cks": 8686,
      "otify": 8687,
      "ris": 8688,
      "Ġgeo": 8689,
      "Ġram": 8690,
      "exclude": 8691,
      "Ġstraw": 8692,
      "Ġstock": 8693,
      "Ġstability": 8694,
      "Ġorgan": 8695,
      "Ġcannot": 8696,
      "chardet": 8697,
      "ĠTues": 8698,
      "()):": 8699,
      "ĠApache": 8700,
      "logging": 8701,
      "locity": 8702,
      "ĠCache": 8703,
      "Ġsolen": 8704,
      "Ġmetadata": 8705,
      "=\"_": 8706,
      "Ġtran": 8707,
      "Ġtrave": 8708,
      "ĠST": 8709,
      "ĠSATA": 8710,
      "Ġshoot": 8711,
      "ĠHome": 8712,
      "deb": 8713,
      "Ġwants": 8714,
      "absolute": 8715,
      "Ġchallen": 8716,
      "bose": 8717,
      "ĠBackup": 8718,
      "icated": 8719,
      "raft": 8720,
      "ĠPATH": 8721,
      "ivic": 8722,
      "ivirus": 8723,
      "Ġdell": 8724,
      "Ġdevelop": 8725,
      "grandma": 8726,
      "ĠWork": 8727,
      "paths": 8728,
      "Ġ35": 8729,
      "ĠNeed": 8730,
      "))`.": 8731,
      "='\"": 8732,
      "shots": 8733,
      "Ġcomponents": 8734,
      "Ġplot": 8735,
      "Ġovernight": 8736,
      "Ġclar": 8737,
      "Ġclue": 8738,
      "Ġ443": 8739,
      "ĠGND": 8740,
      "ĠGHz": 8741,
      "world": 8742,
      "Ġperiod": 8743,
      "Ġserious": 8744,
      "negative": 8745,
      "Ġunpack": 8746,
      "control": 8747,
      "Ġmanage": 8748,
      "Look": 8749,
      "Ġthinkpad": 8750,
      "parsed": 8751,
      "parsers": 8752,
      "Ġaligned": 8753,
      "Query": 8754,
      "Ġ92": 8755,
      "Ġ99": 8756,
      "Ġzones": 8757,
      "Ġmultiprocessing": 8758,
      "Ġadjusted": 8759,
      "Ġcalibr": 8760,
      "Ġthrottle": 8761,
      "proxy": 8762,
      "Ġprices": 8763,
      "ĠShort": 8764,
      "ĠShare": 8765,
      "([\"": 8766,
      "Ġpicking": 8767,
      "Ġcounterclockwise": 8768,
      "Ġfault": 8769,
      "ĠMany": 8770,
      "Ġreadings": 8771,
      "Ġsticks": 8772,
      "groupby": 8773,
      "Ġcarefully": 8774,
      "Running": 8775,
      "Ġpulling": 8776,
      "Ġlowerc": 8777,
      "Added": 8778,
      "Ġheavier": 8779,
      "gotcha": 8780,
      "nextcloud": 8781,
      "nextDirection": 8782,
      "contains": 8783,
      "Ġstripped": 8784,
      "ĠAnyway": 8785,
      "Ġpopup": 8786,
      "Ġpinpoint": 8787,
      "running": 8788,
      "Ġbulb": 8789,
      "Ġcarri": 8790,
      "ART": 8791,
      "Ġfills": 8792,
      "ĠImageMagick": 8793,
      "Ġbands": 8794,
      "Ġlocks": 8795,
      "Ġvelocity": 8796,
      "ĠDOMContentLoaded": 8797,
      "restartBtn": 8798,
      "Ġforgetting": 8799,
      "Ġhuman": 8800,
      "Ġoptimization": 8801,
      "Ġloses": 8802,
      "Ġratt": 8803,
      "Ġparticle": 8804,
      "events": 8805,
      "Ġelectron": 8806,
      "voice": 8807,
      "Ġantivirus": 8808,
      "ĠArcher": 8809,
      "snakeHighScore": 8810,
      "Ġmechanic": 8811,
      "Ġjamming": 8812,
      "Ġgallons": 8813,
      "Ġpuzzle": 8814,
      "WARNING": 8815,
      "elements": 8816,
      "Ġimplementation": 8817,
      "ĠBuild": 8818,
      "Ġdedup": 8819,
      "Submit": 8820,
      "Ġspreadsheet": 8821,
      "Ġpercentage": 8822,
      "iversal": 8823,
      "ĠColor": 8824,
      "supported": 8825,
      "Ġpushed": 8826,
      "Ġunplugged": 8827,
      "Install": 8828,
      "roceries": 8829,
      "carol": 8830,
      "spacing": 8831,
      "Ġacceleration": 8832,
      "Ġthrottling": 8833,
      "Errno": 8834,
      "amburger": 8835,
      "Ġsolenoid": 8836,
      "Ġchallenge": 8837,
      "06": 8838,
      "350": 8839,
      "=...": 8840,
      "AI": 8841,
      "Both": 8842,
      "CK": 8843,
      "Direct": 8844,
      "DATA": 8845,
      "EB": 8846,
      "Mac": 8847,
      "Multiplier": 8848,
      "OWN": 8849,
      "Pick": 8850,
      "Rate": 8851,
      "ROW": 8852,
      "TE": 8853,
      "Two": 8854,
      "UL": 8855,
      "Wi": 8856,
      "Warning": 8857,
      "York": 8858,
      "\\%": 8859,
      "]/": 8860,
      "]}\"": 8861,
      "`);": 8862,
      "`/`": 8863,
      "bat": 8864,
      "brow": 8865,
      "dough": 8866,
      "gor": 8867,
      "gmail": 8868,
      "gres": 8869,
      "jo": 8870,
      "lp": 8871,
      "mac": 8872,
      "po": 8873,
      "pio": 8874,
      "route": 8875,
      "tree": 8876,
      "two": 8877,
      "}&": 8878,
      "}):": 8879,
      "ĠÂ": 8880,
      "Ġtb": 8881,
      "Ġtv": 8882,
      "Ġamp": 8883,
      "Ġsftp": 8884,
      "retry": 8885,
      "oning": 8886,
      "Ġcame": 8887,
      "Ġcast": 8888,
      "inder": 8889,
      "lear": 8890,
      "ousing": 8891,
      "Ġbother": 8892,
      "Ġmatched": 8893,
      "already": 8894,
      "etti": 8895,
      "Ġgit": 8896,
      "Ġop": 8897,
      "urllib": 8898,
      "isSecure": 8899,
      "Ġconcise": 8900,
      "Ġneat": 8901,
      "005": 8902,
      "entries": 8903,
      "Ġscope": 8904,
      "Ġscales": 8905,
      "selves": 8906,
      "Ġlogged": 8907,
      "Ġtrunc": 8908,
      "Ġ27": 8909,
      "Ġ220": 8910,
      "Ġ250": 8911,
      "Ġjoint": 8912,
      "Ġexpres": 8913,
      "keyup": 8914,
      "ĠHave": 8915,
      "Ġassets": 8916,
      "iframe": 8917,
      "getSeconds": 8918,
      "ĠBy": 8919,
      "illator": 8920,
      "ĠPage": 8921,
      "ipconfig": 8922,
      "ainer": 8923,
      "plt": 8924,
      "ĠgetRandom": 8925,
      "ults": 8926,
      "Ġ*;": 8927,
      "ĠtimeZone": 8928,
      "othing": 8929,
      "aused": 8930,
      "Ġhashing": 8931,
      "amond": 8932,
      "Ġkno": 8933,
      "ship": 8934,
      "shoot": 8935,
      "Ġcomplicated": 8936,
      "Ġplate": 8937,
      "Ġresource": 8938,
      "Ġminus": 8939,
      "ourdough": 8940,
      "Ġoverthink": 8941,
      "acc": 8942,
      "avy": 8943,
      "aky": 8944,
      "Ġthemselves": 8945,
      "Ġ!(": 8946,
      "Ġunsure": 8947,
      "Ġunchanged": 8948,
      "docx": 8949,
      "Ġbooks": 8950,
      "Ġmissed": 8951,
      "downloads": 8952,
      "Ġplacement": 8953,
      "logfile": 8954,
      "Ġwidths": 8955,
      "urlopen": 8956,
      "Ġgrades": 8957,
      "newQuote": 8958,
      "Ġpasswords": 8959,
      "Think": 8960,
      "Ġobj": 8961,
      "Ġthank": 8962,
      "Ġincreasing": 8963,
      "cii": 8964,
      "Ġbasement": 8965,
      "Ġorigin": 8966,
      "Ġformatting": 8967,
      "ĠShift": 8968,
      "Ġpickup": 8969,
      "Ġchunking": 8970,
      "temperature": 8971,
      "Process": 8972,
      "Project": 8973,
      "Ġautomate": 8974,
      "Ġintervals": 8975,
      "Ġstrength": 8976,
      "Ġgeneral": 8977,
      "Ġiterative": 8978,
      "Ġdups": 8979,
      "Ġrefreshing": 8980,
      "buffer": 8981,
      "Ġcaps": 8982,
      "Ġhoney": 8983,
      "999": 8984,
      "Ġearn": 8985,
      "Ġlimited": 8986,
      "Ġdigit": 8987,
      "Ġhalfway": 8988,
      "FileSync": 8989,
      "Ġfrontend": 8990,
      "Ġwalking": 8991,
      "Ġhanging": 8992,
      "Ġeffective": 8993,
      "Ġmountain": 8994,
      "ĠConsole": 8995,
      "Ġfinis": 8996,
      "Format": 8997,
      "ĠSecond": 8998,
      "(/<": 8999,
      "sqrt": 9000,
      "Ġshifts": 9001,
      "Ġoperation": 9002,
      "Cannot": 9003,
      "Ġfeeding": 9004,
      "Ġfeedback": 9005,
      "highScore": 9006,
      "Ġsuccessful": 9007,
      "blank": 9008,
      "Cloud": 9009,
      "Ġsitting": 9010,
      "Ġdynamically": 9011,
      "Ġ'-'": 9012,
      "[^>": 9013,
      "Ġbeginner": 9014,
      "Ġpurpose": 9015,
      "'^\\": 9016,
      "packages": 9017,
      "Ġbalance": 9018,
      "537": 9019,
      "Component": 9020,
      "Ġoverrides": 9021,
      "ibility": 9022,
      "Ġdelivery": 9023,
      "Ġnaturally": 9024,
      "Ġhyd": 9025,
      "Ġcordless": 9026,
      "IGNOR": 9027,
      "Auth": 9028,
      "ighthawk": 9029,
      "PHPMailer": 9030,
      "Ġcreation": 9031,
      "Ġconsistently": 9032,
      "FORM": 9033,
      "Ġhammer": 9034,
      "Ġdangerous": 9035,
      "lenty": 9036,
      "isSecureContext": 9037,
      ",\"": 9038,
      "5000": 9039,
      "72": 9040,
      "84": 9041,
      "96": 9042,
      "As": 9043,
      "Action": 9044,
      "Audio": 9045,
      "Amount": 9046,
      "Bad": 9047,
      "Cat": 9048,
      "Common": 9049,
      "EN": 9050,
      "HOLD": 9051,
      "Iter": 9052,
      "IGH": 9053,
      "RC": 9054,
      "Slow": 9055,
      "Search": 9056,
      "TB": 9057,
      "Usually": 9058,
      "^\\": 9059,
      "band": 9060,
      "cb": 9061,
      "clip": 9062,
      "den": 9063,
      "fu": 9064,
      "found": 9065,
      "gif": 9066,
      "hold": 9067,
      "more": 9068,
      "matic": 9069,
      "oon": 9070,
      "pow": 9071,
      "pose": 9072,
      "rd": 9073,
      "router": 9074,
      "yellow": 9075,
      "}`.": 9076,
      "Î©": 9077,
      "Ġ)": 9078,
      "Ġ00": 9079,
      "Ġul": 9080,
      "ĠYes": 9081,
      "hever": 9082,
      "repr": 9083,
      "Ġcx": 9084,
      "Ġcash": 9085,
      "Ġcalendar": 9086,
      "attr": 9087,
      "Ġfades": 9088,
      "Ġfrag": 9089,
      "ounc": 9090,
      "anum": 9091,
      "Ġbags": 9092,
      "Ġbanana": 9093,
      "Ġpc": 9094,
      "Ġplenty": 9095,
      "Ġmil": 9096,
      "Ġnative": 9097,
      "etry": 9098,
      "Ġinfile": 9099,
      "Ġhund": 9100,
      "otype": 9101,
      "Ġev": 9102,
      "Ġele": 9103,
      "odemail": 9104,
      "ric": 9105,
      "risp": 9106,
      "Ġ'</": 9107,
      "Ġ''))": 9108,
      "Ġfive": 9109,
      "Ġrod": 9110,
      "Ġrush": 9111,
      "Ġrinse": 9112,
      "expen": 9113,
      "ional": 9114,
      "Ġbutter": 9115,
      "Ġstat": 9116,
      "Ġstation": 9117,
      "roken": 9118,
      "robocopy": 9119,
      "upload": 9120,
      "ĠTL": 9121,
      "ĠTokyo": 9122,
      "Ġneon": 9123,
      "()-": 9124,
      "()'>": 9125,
      "ĠAb": 9126,
      "ĠAll": 9127,
      "ĠAudio": 9128,
      "Ġ---": 9129,
      "=\"(": 9130,
      "=\"\">": 9131,
      "aps": 9132,
      "')]": 9133,
      "Ġselenium": 9134,
      "Ġexha": 9135,
      "ĠSM": 9136,
      "ĠSub": 9137,
      "ĠSte": 9138,
      "condition": 9139,
      "dec": 9140,
      "icy": 9141,
      "ichever": 9142,
      "Ġcoat": 9143,
      "Ġ\"))": 9144,
      "\">+": 9145,
      "Ġheld": 9146,
      "ĠFilter": 9147,
      "ĠWP": 9148,
      "ĠWalk": 9149,
      "ĠgameSpeed": 9150,
      "Stay": 9151,
      "Ġate": 9152,
      "Ġtimed": 9153,
      "ĠNOT": 9154,
      "Ġalgor": 9155,
      "ĠDec": 9156,
      "Ġdirpath": 9157,
      "important": 9158,
      "tover": 9159,
      "aging": 9160,
      "added": 9161,
      "Ġhashes": 9162,
      "Container": 9163,
      "Ġkilled": 9164,
      "sha": 9165,
      "Ġprecision": 9166,
      "ashboard": 9167,
      "Ġcloudflared": 9168,
      "ĠGlad": 9169,
      "ĠtextToCopy": 9170,
      "Ġfonts": 9171,
      "ĠEnable": 9172,
      "Ġserif": 9173,
      "Ġseries": 9174,
      "Ġserves": 9175,
      "ney": 9176,
      "Ġcrack": 9177,
      "Ġ8000": 9178,
      "Ġcurr": 9179,
      "Ġforms": 9180,
      "ĠlastMove": 9181,
      "lists": 9182,
      "created": 9183,
      "Log": 9184,
      "licing": 9185,
      "Ġgrind": 9186,
      "prefers": 9187,
      "Ġredraw": 9188,
      "Ġtrim": 9189,
      "elsius": 9190,
      "Ġintent": 9191,
      "Ġbreaker": 9192,
      "justify": 9193,
      "ĠautoClicker": 9194,
      "Ġplayers": 9195,
      "ĠView": 9196,
      "ĠThose": 9197,
      "ixels": 9198,
      "Ġregion": 9199,
      "inputDir": 9200,
      "Ġbuilds": 9201,
      "Ġwasn": 9202,
      "observe": 9203,
      "Ġediting": 9204,
      "100000": 9205,
      "innerHeight": 9206,
      "Ġstrateg": 9207,
      "Ġpicker": 9208,
      "Ġfaulty": 9209,
      "Toggle": 9210,
      "Any": 9211,
      "ASS": 9212,
      "Ġstanding": 9213,
      "Ġconditional": 9214,
      "=[[": 9215,
      "nah": 9216,
      "1820": 9217,
      "Ġrotation": 9218,
      "Ġfollowed": 9219,
      "factor": 9220,
      "Ġpersistent": 9221,
      "onential": 9222,
      "pressed": 9223,
      "Ġslugg": 9224,
      "Ġrespond": 9225,
      "Ġtitles": 9226,
      "Ġlabor": 9227,
      "chars": 9228,
      "Ġclients": 9229,
      "Ġscanning": 9230,
      "Ġattack": 9231,
      "Ġrebooting": 9232,
      "PNG": 9233,
      "Ġhumidity": 9234,
      "Ġrooms": 9235,
      "Ġwarnings": 9236,
      "Ġpreserving": 9237,
      "Ġresolves": 9238,
      "Ġplants": 9239,
      "aaa": 9240,
      "[^\\": 9241,
      "Ġrecover": 9242,
      "Ġconflicts": 9243,
      "Ġstrictly": 9244,
      "ĠArray": 9245,
      "Ġmechanical": 9246,
      "Ġreducer": 9247,
      "OURCE": 9248,
      "Possible": 9249,
      "Ġexpenses": 9250,
      "Ġoffice": 9251,
      "Before": 9252,
      "Ġfrequency": 9253,
      "Ġmicrowave": 9254,
      "ĠSwitch": 9255,
      "Ġbursts": 9256,
      "Ġsensitive": 9257,
      "Ġeggs": 9258,
      "ĠBluetooth": 9259,
      "Ġisolate": 9260,
      "ĠKeyboard": 9261,
      "Ġindicator": 9262,
      "Ġsuddenly": 9263,
      "Ġcandidate": 9264,
      "Writer": 9265,
      "Ġnoisy": 9266,
      "Ġinvolved": 9267,
      "Ġsqueeze": 9268,
      "DHT": 9269,
      "Ġbatteries": 9270,
      "Ġaccessible": 9271,
      "audioCtx": 9272,
      "joy": 9273,
      "Ġknock": 9274,
      "anumeric": 9275,
      "odemailer": 9276,
      "Ġexhaust": 9277,
      "Ġalgorith": 9278,
      "Ġsluggish": 9279,
      "\"'": 9280,
      "$')": 9281,
      "%.<|": 9282,
      ")\")": 9283,
      "39": 9284,
      "51": 9285,
      "74": 9286,
      ">$": 9287,
      "@]+": 9288,
      "Bar": 9289,
      "Bought": 9290,
      "CO": 9291,
      "Dict": 9292,
      "En": 9293,
      "Empty": 9294,
      "Folder": 9295,
      "HOME": 9296,
      "Man": 9297,
      "Mar": 9298,
      "Max": 9299,
      "MIN": 9300,
      "NE": 9301,
      "Optim": 9302,
      "PY": 9303,
      "PORT": 9304,
      "Rep": 9305,
      "Sound": 9306,
      "TL": 9307,
      "UD": 9308,
      "WOR": 9309,
      "]!=-": 9310,
      "_',": 9311,
      "alect": 9312,
      "bet": 9313,
      "batch": 9314,
      "bert": 9315,
      "could": 9316,
      "copied": 9317,
      "dm": 9318,
      "ein": 9319,
      "fpm": 9320,
      "friend": 9321,
      "nut": 9322,
      "numpy": 9323,
      "tw": 9324,
      "take": 9325,
      "tcp": 9326,
      "wire": 9327,
      "walls": 9328,
      "ym": 9329,
      "yml": 9330,
      "Ġtax": 9331,
      "Ġsan": 9332,
      "Ġsid": 9333,
      "Ġsqu": 9334,
      "Ġssh": 9335,
      "reed": 9336,
      "release": 9337,
      "revenue": 9338,
      "Ġca": 9339,
      "Ġchat": 9340,
      "invoice": 9341,
      "Ġflips": 9342,
      "oritize": 9343,
      "ouched": 9344,
      "osion": 9345,
      "Ġ=~": 9346,
      "Ġpalindrome": 9347,
      "Ġpaddle": 9348,
      "ascii": 9349,
      "Ġmm": 9350,
      "also": 9351,
      "Ġlava": 9352,
      "Ġrewr": 9353,
      "ctools": 9354,
      "odge": 9355,
      "Ġgla": 9356,
      "Ġ(${": 9357,
      "Ġstead": 9358,
      "veral": 9359,
      "Ġlid": 9360,
      "Ġcanned": 9361,
      "Ġconsu": 9362,
      "exts": 9363,
      "extension": 9364,
      "locked": 9365,
      "sequ": 9366,
      "andir": 9367,
      "Ġloan": 9368,
      "Ġloaf": 9369,
      "Ġtrash": 9370,
      "Ġ255": 9371,
      "')\">": 9372,
      "lets": 9373,
      "connection": 9374,
      "ĠHandle": 9375,
      "quit": 9376,
      "scandir": 9377,
      "Ġchips": 9378,
      "ĠBirthday": 9379,
      "Ġlex": 9380,
      "aining": 9381,
      "Ġprobab": 9382,
      "Ġ360": 9383,
      "ĠtimeStr": 9384,
[...]
