{
  "version": "1.0",
  "truncation": null,
  "padding": null,
  "added_tokens": [
    {
      "id": 0,
      "content": "<|bos|>",
      "single_word": false,
      "lstrip": false,
      "rstrip": false,
      "normalized": false,
      "special": true
    },
    {
      "id": 1,
      "content": "<|eos|>",
      "single_word": false,
      "lstrip": false,
      "rstrip": false,
      "normalized": false,
      "special": true
    },
    {
      "id": 2,
      "content": "<|pad|>",
      "single_word": false,
      "lstrip": false,
      "rstrip": false,
      "normalized": false,
      "special": true
    },
    {
      "id": 3,
      "content": "<|system|>",
      "single_word": false,
      "lstrip": false,
      "rstrip": false,
      "normalized": false,
      "special": true
    },
    {
      "id": 4,
      "content": "<|user|>",
      "single_word": false,
      "lstrip": false,
      "rstrip": false,
      "normalized": false,
      "special": true
    },
    {
      "id": 5,
      "content": "<|assistant|>",
      "single_word": false,
      "lstrip": false,
      "rstrip": false,
      "normalized": false,
      "special": true
    }
  ],
  "normalizer": null,
  "pre_tokenizer": {
    "type": "ByteLevel",
    "add_prefix_space": false,
    "trim_offsets": true,
    "use_regex": true
  },
  "post_processor": null,
  "decoder": {
    "type": "ByteLevel",
    "add_prefix_space": true,
    "trim_offsets": true,
    "use_regex": true
  },
  "model": {
    "type": "BPE",
    "dropout": null,
    "unk_token": null,
    "continuing_subword_prefix": null,
    "end_of_word_suffix": null,
    "fuse_unk": false,
    "byte_fallback": false,
    "ignore_merges": false,
    "vocab": {
      "<|bos|>": 0,
      "<|eos|>": 1,
      "<|pad|>": 2,
      "<|system|>": 3,
      "<|user|>": 4,
      "<|assistant|>": 5,
      "!": 6,
      "\"": 7,
      "#": 8,
      "$": 9,
      "%": 10,
      "&": 11,
      "'": 12,
      "(": 13,
      ")": 14,
      "*": 15,
      "+": 16,
      ",": 17,
      "-": 18,
      ".": 19,
      "/": 20,
      "0": 21,
      "1": 22,
      "2": 23,
      "3": 24,
      "4": 25,
      "5": 26,
      "6": 27,
      "7": 28,
      "8": 29,
      "9": 30,
      ":": 31,
      ";": 32,
      "<": 33,
      "=": 34,
      ">": 35,
      "?": 36,
      "@": 37,
      "A": 38,
      "B": 39,
      "C": 40,
      "D": 41,
      "E": 42,
      "F": 43,
      "G": 44,
      "H": 45,
      "I": 46,
      "J": 47,
      "K": 48,
      "L": 49,
      "M": 50,
      "N": 51,
      "O": 52,
      "P": 53,
      "Q": 54,
      "R": 55,
      "S": 56,
      "T": 57,
      "U": 58,
      "V": 59,
      "W": 60,
      "X": 61,
      "Y": 62,
      "Z": 63,
      "[": 64,
      "\\": 65,
      "]": 66,
      "^": 67,
      "_": 68,
      "`": 69,
      "a": 70,
      "b": 71,
      "c": 72,
      "d": 73,
      "e": 74,
      "f": 75,
      "g": 76,
      "h": 77,
      "i": 78,
      "j": 79,
      "k": 80,
      "l": 81,
      "m": 82,
      "n": 83,
      "o": 84,
      "p": 85,
      "q": 86,
      "r": 87,
      "s": 88,
      "t": 89,
      "u": 90,
      "v": 91,
      "w": 92,
      "x": 93,
      "y": 94,
      "z": 95,
      "{": 96,
      "|": 97,
      "}": 98,
      "~": 99,
      "¡": 100,
      "¢": 101,
      "£": 102,
      "¤": 103,
      "¥": 104,
      "¦": 105,
      "§": 106,
      "¨": 107,
      "©": 108,
      "ª": 109,
      "«": 110,
      "¬": 111,
      "®": 112,
      "¯": 113,
      "°": 114,
      "±": 115,
      "²": 116,
      "³": 117,
      "´": 118,
      "µ": 119,
      "¶": 120,
      "·": 121,
      "¸": 122,
      "¹": 123,
      "º": 124,
      "»": 125,
      "¼": 126,
      "½": 127,
      "¾": 128,
      "¿": 129,
      "À": 130,
      "Á": 131,
      "Â": 132,
      "Ã": 133,
      "Ä": 134,
      "Å": 135,
      "Æ": 136,
      "Ç": 137,
      "È": 138,
      "É": 139,
      "Ê": 140,
      "Ë": 141,
      "Ì": 142,
      "Í": 143,
      "Î": 144,
      "Ï": 145,
      "Ð": 146,
      "Ñ": 147,
      "Ò": 148,
      "Ó": 149,
      "Ô": 150,
      "Õ": 151,
      "Ö": 152,
      "×": 153,
      "Ø": 154,
      "Ù": 155,
      "Ú": 156,
      "Û": 157,
      "Ü": 158,
      "Ý": 159,
      "Þ": 160,
      "ß": 161,
      "à": 162,
      "á": 163,
      "â": 164,
      "ã": 165,
      "ä": 166,
      "å": 167,
      "æ": 168,
      "ç": 169,
      "è": 170,
      "é": 171,
      "ê": 172,
      "ë": 173,
      "ì": 174,
      "í": 175,
      "î": 176,
      "ï": 177,
      "ð": 178,
      "ñ": 179,
      "ò": 180,
      "ó": 181,
      "ô": 182,
      "õ": 183,
      "ö": 184,
      "÷": 185,
      "ø": 186,
      "ù": 187,
      "ú": 188,
      "û": 189,
      "ü": 190,
      "ý": 191,
      "þ": 192,
      "ÿ": 193,
      "Ā": 194,
      "ā": 195,
      "Ă": 196,
      "ă": 197,
      "Ą": 198,
      "ą": 199,
      "Ć": 200,
      "ć": 201,
      "Ĉ": 202,
      "ĉ": 203,
      "Ċ": 204,
      "ċ": 205,
      "Č": 206,
      "č": 207,
      "Ď": 208,
      "ď": 209,
      "Đ": 210,
      "đ": 211,
      "Ē": 212,
      "ē": 213,
      "Ĕ": 214,
      "ĕ": 215,
      "Ė": 216,
      "ė": 217,
      "Ę": 218,
      "ę": 219,
      "Ě": 220,
      "ě": 221,
      "Ĝ": 222,
      "ĝ": 223,
      "Ğ": 224,
      "ğ": 225,
      "Ġ": 226,
      "ġ": 227,
      "Ģ": 228,
      "ģ": 229,
      "Ĥ": 230,
      "ĥ": 231,
      "Ħ": 232,
      "ħ": 233,
      "Ĩ": 234,
      "ĩ": 235,
      "Ī": 236,
      "ī": 237,
      "Ĭ": 238,
      "ĭ": 239,
      "Į": 240,
      "į": 241,
      "İ": 242,
      "ı": 243,
      "Ĳ": 244,
      "ĳ": 245,
      "Ĵ": 246,
      "ĵ": 247,
      "Ķ": 248,
      "ķ": 249,
      "ĸ": 250,
      "Ĺ": 251,
      "ĺ": 252,
      "Ļ": 253,
      "ļ": 254,
      "Ľ": 255,
      "ľ": 256,
      "Ŀ": 257,
      "ŀ": 258,
      "Ł": 259,
      "ł": 260,
      "Ń": 261,
      "Ġt": 262,
      "Ġa": 263,
      "he": 264,
      "in": 265,
      "er": 266,
      "on": 267,
      "re": 268,
      "čĊ": 269,
      "Ġthe": 270,
      "st": 271,
      "an": 272,
      "at": 273,
      "or": 274,
      "en": 275,
      "Ġc": 276,
      "Ġs": 277,
      "Ġo": 278,
      "Ġw": 279,
      "it": 280,
      "Ġan": 281,
      "ed": 282,
      "al": 283,
      "es": 284,
      "Ġf": 285,
      "ing": 286,
      "is": 287,
      "ou": 288,
      "Ġp": 289,
      "ar": 290,
      "Ġand": 291,
      "Ġin": 292,
      "Ġof": 293,
      "Ġb": 294,
      "ic": 295,
      "Ġm": 296,
      "|>": 297,
      "<|": 298,
      "Ġto": 299,
      "as": 300,
      "ion": 301,
      "le": 302,
      "Ġd": 303,
      "ro": 304,
      "os": 305,
      "Ġh": 306,
      "ent": 307,
      "ĠT": 308,
      "il": 309,
      "om": 310,
      "Ġre": 311,
      "Ġe": 312,
      "us": 313,
      "ct": 314,
      "ist": 315,
      "Ġl": 316,
      "el": 317,
      "ĠS": 318,
      "Ġth": 319,
      "am": 320,
      "et": 321,
      "ĠC": 322,
      "ĠA": 323,
      "ol": 324,
      "ĠĠ": 325,
      "Ġn": 326,
      "Ġhe": 327,
      "eos": 328,
      "ant": 329,
      "|><|": 330,
      "iv": 331,
      "ch": 332,
      "ul": 333,
      "Ġas": 334,
      "Ġg": 335,
      "ation": 336,
      "ur": 337,
      "Ġ1": 338,
      "em": 339,
      "im": 340,
      "ad": 341,
      "id": 342,
      "Ġfor": 343,
      "Ġis": 344,
      "ow": 345,
      "ce": 346,
      "ers": 347,
      "ig": 348,
      "ut": 349,
      "ir": 350,
      "Ġon": 351,
      "ĠI": 352,
      "Ġcon": 353,
      "ot": 354,
      "Ġst": 355,
      "ĠM": 356,
      "ay": 357,
      "un": 358,
      "ly": 359,
      "Ġbe": 360,
      "ith": 361,
      "ĠB": 362,
      "Ġare": 363,
      "ra": 364,
      "sist": 365,
      "Ġ(": 366,
      "ĠP": 367,
      ".<|": 368,
      "Ġy": 369,
      "Ġwith": 370,
      "ĠH": 371,
      "sistant": 372,
      "Ġwas": 373,
      "Ġpro": 374,
      "Ġthat": 375,
      "ĠThe": 376,
      "ver": 377,
      "Ġal": 378,
      "if": 379,
      "ge": 380,
      "ĠW": 381,
      "um": 382,
      "th": 383,
      "ter": 384,
      "ĠR": 385,
      "Ġ2": 386,
      "ve": 387,
      "ate": 388,
      "and": 389,
      "Ġyou": 390,
      "ĠD": 391,
      "Ġor": 392,
      "Ġit": 393,
      "Ġwh": 394,
      "her": 395,
      "ip": 396,
      "ĠF": 397,
      "ess": 398,
      "ab": 399,
      "op": 400,
      "ĠL": 401,
      "ac": 402,
      "Ġcom": 403,
      "oun": 404,
      "od": 405,
      "'s": 406,
      "ies": 407,
      "Ġv": 408,
      "Ġ19": 409,
      "ak": 410,
      "ĠG": 411,
      "Ġby": 412,
      "Ġhel": 413,
      "ity": 414,
      "oc": 415,
      "ore": 416,
      "ure": 417,
      "Ġde": 418,
      "ĠE": 419,
      "ĠN": 420,
      "00": 421,
      "rom": 422,
      "Ġex": 423,
      "Ġhelp": 424,
      "ain": 425,
      "ill": 426,
      "ia": 427,
      "Ġsu": 428,
      "user": 429,
      "Ġat": 430,
      "yst": 431,
      "se": 432,
      "ort": 433,
      "ld": 434,
      "qu": 435,
      "pp": 436,
      "ful": 437,
      "ive": 438,
      "all": 439,
      "ud": 440,
      "igh": 441,
      "ise": 442,
      "ew": 443,
      "ystem": 444,
      "Ġse": 445,
      "Ġfrom": 446,
      "âĢ": 447,
      "Ġr": 448,
      "assistant": 449,
      "Ġch": 450,
      "Ġcan": 451,
      "art": 452,
      "out": 453,
      "ĠJ": 454,
      "You": 455,
      "50": 456,
      "ag": 457,
      "ment": 458,
      "ial": 459,
      "ect": 460,
      "Ġconc": 461,
      "res": 462,
      "Ġar": 463,
      "Ġus": 464,
      "ĠĠĠĠ": 465,
      "Ġpl": 466,
      "Ġen": 467,
      "ĠO": 468,
      "Ġ\"": 469,
      "Ġab": 470,
      "ri": 471,
      "ust": 472,
      "Ġle": 473,
      "ast": 474,
      "Ġassistant": 475,
      "The": 476,
      "iny": 477,
      "Ġhelpful": 478,
      "Ġconcise": 479,
      "bos": 480,
      "system": 481,
      "est": 482,
      "ard": 483,
      "ĠTiny": 484,
      "rit": 485,
      "Ġsp": 486,
      "our": 487,
      "ĠIn": 488,
      "Ġun": 489,
      "og": 490,
      "ions": 491,
      "Ġsh": 492,
      "ĠU": 493,
      "ber": 494,
      "ine": 495,
      "ich": 496,
      "ap": 497,
      "ik": 498,
      "ec": 499,
      "Ġtheir": 500,
      "iz": 501,
      "Ġk": 502,
      "ated": 503,
      "Ġwor": 504,
      "ell": 505,
      "gh": 506,
      "ight": 507,
      "end": 508,
      "Ġha": 509,
      "ĠK": 510,
      "ome": 511,
      "fer": 512,
      "up": 513,
      "Ġcomp": 514,
      "are": 515,
      "ound": 516,
      "ide": 517,
      "Ġad": 518,
      "du": 519,
      "ĠčĊ": 520,
      "ear": 521,
      "ks": 522,
      "ian": 523,
      "Ġinc": 524,
      "Ġhis": 525,
      "ost": 526,
      "ame": 527,
      "so": 528,
      "Ġte": 529,
      "ĠSt": 530,
      "Ġim": 531,
      "ep": 532,
      "ould": 533,
      "ical": 534,
      "ong": 535,
      "ff": 536,
      "Ġabout": 537,
      "age": 538,
      "ary": 539,
      "Ġyour": 540,
      "per": 541,
      "ere": 542,
      "ther": 543,
      "pl": 544,
      "âĢĵ": 545,
      "act": 546,
      "orm": 547,
      "ish": 548,
      "av": 549,
      "ough": 550,
      "cc": 551,
      "ence": 552,
      "Ġalso": 553,
      "ign": 554,
      "ach": 555,
      "Ġint": 556,
      "ue": 557,
      "ry": 558,
      "Ġhas": 559,
      "Ġwhich": 560,
      "ire": 561,
      "Ġhave": 562,
      "der": 563,
      "ces": 564,
      "ations": 565,
      "ous": 566,
      "Ġcl": 567,
      "ov": 568,
      "ran": 569,
      "Ġcont": 570,
      "ult": 571,
      "ub": 572,
      "ass": 573,
      "able": 574,
      "ĠTh": 575,
      "ie": 576,
      "ice": 577,
      "ok": 578,
      "ack": 579,
      "mer": 580,
      "low": 581,
      "Ġmore": 582,
      "ĠCh": 583,
      "ord": 584,
      "Ġwe": 585,
      "ake": 586,
      "Ġj": 587,
      "ĠĠĠ": 588,
      "Ġher": 589,
      "Ġwhe": 590,
      "Ġimp": 591,
      "Ġart": 592,
      "ĠV": 593,
      "ction": 594,
      "ents": 595,
      "form": 596,
      "19": 597,
      "ru": 598,
      "ime": 599,
      "ĠIt": 600,
      "Ġres": 601,
      "Ġ20": 602,
      "ind": 603,
      "Ġapp": 604,
      "Ġnot": 605,
      "ount": 606,
      "Ġme": 607,
      "Ġ200": 608,
      "ition": 609,
      "ater": 610,
      "Ġman": 611,
      "ric": 612,
      "Ġhad": 613,
      "ory": 614,
      "ang": 615,
      "Ġwere": 616,
      "ib": 617,
      "lud": 618,
      "vel": 619,
      "ance": 620,
      "ark": 621,
      "Ġthey": 622,
      "pt": 623,
      "ail": 624,
      "Ġne": 625,
      "ase": 626,
      "ĠHe": 627,
      "ood": 628,
      "Ġ3": 629,
      "own": 630,
      "reat": 631,
      "ally": 632,
      "Ġthis": 633,
      "Ġ=": 634,
      "Ġother": 635,
      "Ġits": 636,
      "Ġser": 637,
      "ile": 638,
      "Ġbut": 639,
      "ey": 640,
      "ace": 641,
      "edia": 642,
      "Ġ-": 643,
      "Ġinclud": 644,
      "ress": 645,
      "ren": 646,
      "),": 647,
      "In": 648,
      "les": 649,
      "Ġrec": 650,
      "irst": 651,
      "ors": 652,
      "Ġro": 653,
      "rite": 654,
      "int": 655,
      "ree": 656,
      "Ġsc": 657,
      "amp": 658,
      "Ġper": 659,
      "Ġplay": 660,
      "ĠUn": 661,
      "Ġup": 662,
      "Ġpart": 663,
      "Ġout": 664,
      "Ġgr": 665,
      "Ġprov": 666,
      "Ġwho": 667,
      "Ġone": 668,
      "ely": 669,
      "Ġdes": 670,
      "Ġco": 671,
      "Ġsome": 672,
      "ph": 673,
      "ite": 674,
      "ond": 675,
      "als": 676,
      "Ġfe": 677,
      "hed": 678,
      "Ġcomm": 679,
      "gr": 680,
      "ild": 681,
      "ens": 682,
      "tern": 683,
      "Ġnew": 684,
      "ific": 685,
      "Ġdis": 686,
      "ings": 687,
      "Ġshe": 688,
      "ĠThis": 689,
      "lic": 690,
      "Ġev": 691,
      "wn": 692,
      "Ġfirst": 693,
      "Ġover": 694,
      "Ġtw": 695,
      "Write": 696,
      "Ġwork": 697,
      "ates": 698,
      "icle": 699,
      "oy": 700,
      "Ġthem": 701,
      "Ġtra": 702,
      "Ġpe": 703,
      "Ġpre": 704,
      "ck": 705,
      "Ġsuch": 706,
      "Ġkn": 707,
      "Ġadd": 708,
      "Ġinto": 709,
      "one": 710,
      "Ġtime": 711,
      "rough": 712,
      "Ġall": 713,
      "Ġcol": 714,
      "we": 715,
      "ob": 716,
      "ĠAn": 717,
      "ased": 718,
      "Ġarticle": 719,
      "ool": 720,
      "Ġqu": 721,
      "Ġprodu": 722,
      "fter": 723,
      "Ġwill": 724,
      "urn": 725,
      "ade": 726,
      "land": 727,
      "Ġso": 728,
      "ĠâĢĵ": 729,
      "ons": 730,
      "orn": 731,
      "Ġbec": 732,
      "te": 733,
      "Ġacc": 734,
      "ational": 735,
      "ities": 736,
      "Ġyear": 737,
      "Ġhow": 738,
      "Ġ4": 739,
      "Ġem": 740,
      "lect": 741,
      "uring": 742,
      "Ġind": 743,
      "ts": 744,
      "ĠAl": 745,
      "ences": 746,
      "?<|": 747,
      "Ġgo": 748,
      "ike": 749,
      "ose": 750,
      "erm": 751,
      "ikip": 752,
      "ikipedia": 753,
      "ĠWikipedia": 754,
      "way": 755,
      "ople": 756,
      "Ġtr": 757,
      "Ġbeen": 758,
      "ics": 759,
      "ick": 760,
      "Ġtwo": 761,
      "Ġcre": 762,
      "ft": 763,
      "olog": 764,
      "Ġ199": 765,
      "Ġpr": 766,
      "gan": 767,
      "ious": 768,
      "old": 769,
      "ced": 770,
      "ited": 771,
      "Ġ201": 772,
      "Ġuse": 773,
      "ature": 774,
      "Ġnum": 775,
      "Ġbet": 776,
      "ember": 777,
      "Ġdif": 778,
      "hip": 779,
      "ath": 780,
      "xt": 781,
      "Ġ18": 782,
      "Ġthrough": 783,
      "Ġag": 784,
      "chool": 785,
      "Ġserv": 786,
      "Ġused": 787,
      "ife": 788,
      "ans": 789,
      "Ġact": 790,
      "pe": 791,
      "get": 792,
      "Ġinter": 793,
      "ook": 794,
      "meric": 795,
      ").": 796,
      "arn": 797,
      "Ġdo": 798,
      "ular": 799,
      "ivers": 800,
      "Ġwould": 801,
      "oth": 802,
      "ener": 803,
      "ating": 804,
      "Ġloc": 805,
      "Ġspec": 806,
      "Ġbu": 807,
      "velop": 808,
      "ement": 809,
      "rans": 810,
      "ollow": 811,
      "Ġ5": 812,
      "Ġstud": 813,
      "iss": 814,
      "Ġoff": 815,
      "ward": 816,
      "ĠY": 817,
      "Ġwhen": 818,
      "port": 819,
      "Ġrel": 820,
      "ĠEn": 821,
      "Ġany": 822,
      "very": 823,
      "20": 824,
      "ata": 825,
      "ern": 826,
      "aw": 827,
      "Ġeff": 828,
      "ily": 829,
      "any": 830,
      "rib": 831,
      "Ġret": 832,
      "erson": 833,
      "ject": 834,
      "Ġunder": 835,
      "hes": 836,
      "Ġstr": 837,
      "Ġra": 838,
      "ience": 839,
      "bs": 840,
      "ĠAr": 841,
      "Ġthere": 842,
      "chn": 843,
      "ef": 844,
      "Ġpeople": 845,
      "alth": 846,
      "ract": 847,
      "Ġatt": 848,
      "ual": 849,
      "io": 850,
      "red": 851,
      "ert": 852,
      "arch": 853,
      "Ġreg": 854,
      "ee": 855,
      "ied": 856,
      "ss": 857,
      "aking": 858,
      "Ġfollow": 859,
      "hen": 860,
      "Ġsm": 861,
      "Ġam": 862,
      "Ġform": 863,
      "Ġdiffer": 864,
      "Ġfl": 865,
      "ll": 866,
      "ower": 867,
      "ĠĠĠĠĠĠĠ": 868,
      "oup": 869,
      "Ġmake": 870,
      "Ġcould": 871,
      "ative": 872,
      "its": 873,
      "Ġph": 874,
      "Ġbl": 875,
      "au": 876,
      "Ġmost": 877,
      "ne": 878,
      "iet": 879,
      "Ġsec": 880,
      "Ġwhere": 881,
      "ict": 882,
      "ility": 883,
      "ments": 884,
      "ock": 885,
      "Ġdevelop": 886,
      "ork": 887,
      "ĠNew": 888,
      "pport": 889,
      "Ġlike": 890,
      "gram": 891,
      "ove": 892,
      "Ġrem": 893,
      "elf": 894,
      "ween": 895,
      "ont": 896,
      "Ġexper": 897,
      "âĢĻ": 898,
      "ĠAmeric": 899,
      "ient": 900,
      "Ġmay": 901,
      "Ġeach": 902,
      "Ġafter": 903,
      "ball": 904,
      "Ġ198": 905,
      "Ġpos": 906,
      "Ġset": 907,
      "ys": 908,
      "Re": 909,
      "ten": 910,
      "aus": 911,
      "Ġway": 912,
      "oot": 913,
      "omm": 914,
      "Ġdec": 915,
      "ins": 916,
      "ices": 917,
      "Ġpo": 918,
      "Ġtrans": 919,
      "ident": 920,
      "Ġwell": 921,
      "Ġmany": 922,
      "Ġif": 923,
      "Ġbetween": 924,
      "oh": 925,
      "Ġneed": 926,
      "Ġmus": 927,
      "row": 928,
      "Ġfin": 929,
      "Ġteam": 930,
      "ting": 931,
      "ange": 932,
      "Ġbr": 933,
      "Ġhigh": 934,
      "Ġpol": 935,
      "ug": 936,
      "ustom": 937,
      "ize": 938,
      "ars": 939,
      "Ġthan": 940,
      "ah": 941,
      "Ġexp": 942,
      "Ġthese": 943,
      "ix": 944,
      "gy": 945,
      "Ġcons": 946,
      "Ġtechn": 947,
      "Ġfun": 948,
      "Ġ6": 949,
      "Ġmod": 950,
      "Ġvar": 951,
      "ĠLe": 952,
      "ision": 953,
      "let": 954,
      "ferences": 955,
      "ilm": 956,
      "Ġsystem": 957,
      "Ġsign": 958,
      "Ġinform": 959,
      "Ġchar": 960,
      "ĠAd": 961,
      "ĠRe": 962,
      "Ġinst": 963,
      "fore": 964,
      "eng": 965,
      "ural": 966,
      "Ġsk": 967,
      "ral": 968,
      "Ġfound": 969,
      "Ġmin": 970,
      "ished": 971,
      "ax": 972,
      "ames": 973,
      "Ġprovide": 974,
      "Ġprogram": 975,
      "ized": 976,
      "ness": 977,
      "Ġcommun": 978,
      "Ġday": 979,
      "ional": 980,
      "Ġdet": 981,
      "Ġdata": 982,
      "uc": 983,
      "Ġincluding": 984,
      "Ġcent": 985,
      "Ġdist": 986,
      "Ġsoc": 987,
      "iness": 988,
      "ever": 989,
      "ĠPro": 990,
      "ann": 991,
      "ĠShe": 992,
      "Ġwhile": 993,
      "Ġlead": 994,
      "Ġdesign": 995,
      "Ġhim": 996,
      "Ġyears": 997,
      "Ġmy": 998,
      "Ġlist": 999,
      "az": 1000,
      "Ġduring": 1001,
      "iel": 1002,
      "Ġ$": 1003,
      "Ġfam": 1004,
      "Ġmade": 1005,
      "ury": 1006,
      "Ġlife": 1007,
      "Ġmon": 1008,
      "Ġ197": 1009,
      "Ġpub": 1010,
      "ines": 1011,
      "Ġac": 1012,
      "Ġusing": 1013,
      "Ġpop": 1014,
      "Ġcustom": 1015,
      "Ġworld": 1016,
      "ues": 1017,
      "eth": 1018,
      "Ġ<": 1019,
      "ton": 1020,
      "Ġonly": 1021,
      "enc": 1022,
      "raph": 1023,
      "Ġdifferent": 1024,
      "ruct": 1025,
      "Ġnumber": 1026,
      "Ġed": 1027,
      "iqu": 1028,
      "ology": 1029,
      "cess": 1030,
      "Ġhealth": 1031,
      "ier": 1032,
      "Ġthen": 1033,
      "iven": 1034,
      "vent": 1035,
      "anc": 1036,
      "outh": 1037,
      "Ġperson": 1038,
      "els": 1039,
      "Ġbus": 1040,
      "pr": 1041,
      "resent": 1042,
      "ds": 1043,
      "bers": 1044,
      "ĠCan": 1045,
      "Ġback": 1046,
      "ible": 1047,
      "ĠCol": 1048,
      "ĠThey": 1049,
      "arket": 1050,
      "ale": 1051,
      "Th": 1052,
      "Ġsub": 1053,
      "put": 1054,
      "ason": 1055,
      "inn": 1056,
      "Ġsur": 1057,
      "Ġlar": 1058,
      "ality": 1059,
      "air": 1060,
      "iew": 1061,
      "Ġent": 1062,
      "ĠSh": 1063,
      "Ġcount": 1064,
      "gest": 1065,
      "Ġour": 1066,
      "iversity": 1067,
      "ince": 1068,
      "ives": 1069,
      "ures": 1070,
      "Ġinformation": 1071,
      "orth": 1072,
      "References": 1073,
      "Ġstart": 1074,
      "Ġproduct": 1075,
      "arm": 1076,
      "istory": 1077,
      "led": 1078,
      "200": 1079,
      "ĠAmerican": 1080,
      "ĠHow": 1081,
      "til": 1082,
      "Ġknown": 1083,
      "ink": 1084,
      "Ġgu": 1085,
      "Ġbo": 1086,
      "ather": 1087,
      "Ġmain": 1088,
      "Ġown": 1089,
      "ĠAs": 1090,
      "Ġeng": 1091,
      "Ġval": 1092,
      "Ġcar": 1093,
      "ash": 1094,
      "Ġty": 1095,
      "lish": 1096,
      "iver": 1097,
      "Ġprovid": 1098,
      "ved": 1099,
      "Ġrele": 1100,
      "other": 1101,
      "Ġlearn": 1102,
      "ages": 1103,
      "Ġend": 1104,
      "Ġ10": 1105,
      "ĠSc": 1106,
      "Ġest": 1107,
      "Ġschool": 1108,
      "Ġreturn": 1109,
      "Ġdr": 1110,
      "bum": 1111,
      "Ġmov": 1112,
      "ution": 1113,
      "Ġass": 1114,
      "Ġgener": 1115,
      "Ġ196": 1116,
      "ĠUnited": 1117,
      "Ġredu": 1118,
      "Ġbefore": 1119,
      "over": 1120,
      "Ġshould": 1121,
      "Ġwhat": 1122,
      "Ġgroup": 1123,
      "lement": 1124,
      "Ġbeing": 1125,
      "ex": 1126,
      "Ġimpro": 1127,
      "Ġcur": 1128,
      "'t": 1129,
      "Ġcare": 1130,
      "ouse": 1131,
      "Ġthree": 1132,
      "ists": 1133,
      "ĠInd": 1134,
      "ven": 1135,
      "ential": 1136,
      "iving": 1137,
      "Ġ7": 1138,
      "Ġeffect": 1139,
      "ode": 1140,
      "att": 1141,
      "aj": 1142,
      "Ġfilm": 1143,
      "ohn": 1144,
      "Ġdisc": 1145,
      "Ġmed": 1146,
      "Ġname": 1147,
      "Ġuntil": 1148,
      "ym": 1149,
      "ants": 1150,
      "Ġfind": 1151,
      "Ġlong": 1152,
      "Ġsupport": 1153,
      "Ġ8": 1154,
      "Ġwrit": 1155,
      "ank": 1156,
      "Ġ'": 1157,
      "Ġcall": 1158,
      "ined": 1159,
      "Ġsa": 1160,
      "ism": 1161,
      "Ġwater": 1162,
      "Ġdef": 1163,
      "Ġprom": 1164,
      "18": 1165,
      "Ex": 1166,
      "Ġagain": 1167,
      "Ġaut": 1168,
      "Ġperform": 1169,
      "Ġshow": 1170,
      "ling": 1171,
      "pen": 1172,
      "Ġboth": 1173,
      "Ġbusiness": 1174,
      "riend": 1175,
      "Ġfollowing": 1176,
      "ccess": 1177,
      "Ġbuild": 1178,
      "Ġincre": 1179,
      "Ġprocess": 1180,
      "Ġmarket": 1181,
      "con": 1182,
      "ivid": 1183,
      "Ġear": 1184,
      "Ġresp": 1185,
      "vol": 1186,
      "Ġorgan": 1187,
      "Ġsim": 1188,
      "orld": 1189,
      "Ġclass": 1190,
      "Ġfeature": 1191,
      "ĠYou": 1192,
      "ĠCl": 1193,
      "Ġcreate": 1194,
      "Ġno": 1195,
      "ble": 1196,
      "man": 1197,
      "Âł": 1198,
      "omp": 1199,
      "Ġinf": 1200,
      "Ġmem": 1201,
      "ergy": 1202,
      "Ġsmall": 1203,
      "Ġresult": 1204,
      "ider": 1205,
      "Ġimport": 1206,
      "ĠEng": 1207,
      "Ġche": 1208,
      "ron": 1209,
      "ĠZ": 1210,
      "irect": 1211,
      "line": 1212,
      "ĠFor": 1213,
      "Ġvis": 1214,
      "10": 1215,
      "Ġalbum": 1216,
      "angu": 1217,
      "Ġinclude": 1218,
      "ĠSp": 1219,
      "ving": 1220,
      "akes": 1221,
      "Ġsever": 1222,
      "ired": 1223,
      "Ġcap": 1224,
      "mp": 1225,
      "Ġdep": 1226,
      "Ġallow": 1227,
      "ternal": 1228,
      "Ġsocial": 1229,
      "Ġbro": 1230,
      "Ġins": 1231,
      "ample": 1232,
      "\",": 1233,
      "cept": 1234,
      "Ġevery": 1235,
      "ĠUniversity": 1236,
      "ty": 1237,
      "Ġmusic": 1238,
      "inc": 1239,
      "Ġcreat": 1240,
      "yn": 1241,
      "Ġcharact": 1242,
      "ify": 1243,
      "ually": 1244,
      "ĠWh": 1245,
      "ger": 1246,
      "Ġrep": 1247,
      "lished": 1248,
      "ted": 1249,
      "Ġext": 1250,
      "inks": 1251,
      ".\"": 1252,
      "imes": 1253,
      "ause": 1254,
      "lex": 1255,
      "Ġprof": 1256,
      "Ġaround": 1257,
      "rip": 1258,
      "ets": 1259,
      "Ġsecond": 1260,
      "Ġsing": 1261,
      "Ġpass": 1262,
      "Ġexpl": 1263,
      "000": 1264,
      "Ġbecame": 1265,
      "Ġpower": 1266,
      "Ġrequ": 1267,
      "Ġgre": 1268,
      "iety": 1269,
      "ograph": 1270,
      "Ġrecord": 1271,
      "ived": 1272,
      "ootball": 1273,
      "Ġsol": 1274,
      "igin": 1275,
      "Ġsuccess": 1276,
      "ield": 1277,
      "uch": 1278,
      "uss": 1279,
      "Ġelect": 1280,
      "urch": 1281,
      "Ġjust": 1282,
      "Ġcontin": 1283,
      "Ġdesc": 1284,
      "ital": 1285,
      "erv": 1286,
      "arr": 1287,
      "ley": 1288,
      "Ġdown": 1289,
      "Ġav": 1290,
      ">>": 1291,
      "ĠCon": 1292,
      "rop": 1293,
      "ands": 1294,
      "ĠOn": 1295,
      "eep": 1296,
      "ically": 1297,
      "day": 1298,
      "Ġarea": 1299,
      "Ġfamily": 1300,
      "Ġoper": 1301,
      "Ġenergy": 1302,
      "Ġbel": 1303,
      "por": 1304,
      "Ã©": 1305,
      "Ġseveral": 1306,
      "itional": 1307,
      "icip": 1308,
      "Ġ9": 1309,
      "St": 1310,
      "ĠStates": 1311,
      "Ġopt": 1312,
      "ium": 1313,
      "ross": 1314,
      "Ġeven": 1315,
      "ared": 1316,
      "iron": 1317,
      "ourn": 1318,
      "##": 1319,
      "ek": 1320,
      "ining": 1321,
      "Ġpot": 1322,
      "ĠWorld": 1323,
      "rent": 1324,
      "Ġtake": 1325,
      "eb": 1326,
      "Ġob": 1327,
      "Ġbre": 1328,
      "Ġcompany": 1329,
      "Ġadv": 1330,
      "iam": 1331,
      "ĠMar": 1332,
      "ĠĠĠĠĠĠĠĠ": 1333,
      "ery": 1334,
      "Ġimpact": 1335,
      "Ġrun": 1336,
      "rict": 1337,
      "ave": 1338,
      "ior": 1339,
      "Ġ[": 1340,
      "ĠBl": 1341,
      "ĠGr": 1342,
      "ĠIs": 1343,
      "Ġget": 1344,
      "Ġlinks": 1345,
      "Ġgreat": 1346,
      "ĠJohn": 1347,
      "ull": 1348,
      "by": 1349,
      "Ġestab": 1350,
      "ĠPl": 1351,
      "Ġve": 1352,
      "ute": 1353,
      "Ġlater": 1354,
      "Ġlangu": 1355,
      "ense": 1356,
      "Ġconst": 1357,
      "Ġele": 1358,
      "ources": 1359,
      "Ġhum": 1360,
      "ina": 1361,
      "Ġchild": 1362,
      "Ġ+": 1363,
      "Ġopen": 1364,
      "ĠSchool": 1365,
      "Ġexample": 1366,
      "Ġair": 1367,
      "Ġseason": 1368,
      "ĠQ": 1369,
      "Ġpract": 1370,
      "Ġmanag": 1371,
      "Ġsignific": 1372,
      "ves": 1373,
      "Ġref": 1374,
      "enn": 1375,
      "ights": 1376,
      "Ġspecific": 1377,
      "Ġcity": 1378,
      "alk": 1379,
      "nect": 1380,
      "Ġgiven": 1381,
      "Ġ194": 1382,
      "ague": 1383,
      "Ġgame": 1384,
      "ries": 1385,
      "amed": 1386,
      "Ġknow": 1387,
      "Ġtop": 1388,
      "Ġsong": 1389,
      "ization": 1390,
      "Ġbased": 1391,
      "Ġmet": 1392,
      "``": 1393,
      "Ġmat": 1394,
      "ains": 1395,
      "itive": 1396,
      "wards": 1397,
      "Can": 1398,
      "Ġread": 1399,
      "Ġcle": 1400,
      "Ġfour": 1401,
      "Ġhome": 1402,
      "ertain": 1403,
      "Ġoften": 1404,
      "Ġpat": 1405,
      "vern": 1406,
      "Ġactiv": 1407,
      "ats": 1408,
      "ĠAust": 1409,
      "ware": 1410,
      "ott": 1411,
      "ips": 1412,
      "Ġaccess": 1413,
      "Ġfeel": 1414,
      "Ġgl": 1415,
      "Ġdirect": 1416,
      "--": 1417,
      "Ġbest": 1418,
      "Ġcult": 1419,
      "External": 1420,
      "ask": 1421,
      "Ġsum": 1422,
      "Ġarr": 1423,
      "ths": 1424,
      "stand": 1425,
      "Ġorigin": 1426,
      "Ġ{": 1427,
      "ples": 1428,
      "ĠAt": 1429,
      "viron": 1430,
      "Ġbir": 1431,
      "Ġfew": 1432,
      "Ġsal": 1433,
      "Ġplace": 1434,
      "Ġpublic": 1435,
      "ody": 1436,
      "Ġsug": 1437,
      "ript": 1438,
      "ploy": 1439,
      "ulation": 1440,
      "Ġwon": 1441,
      "ze": 1442,
      "Ġ0": 1443,
      "ique": 1444,
      "An": 1445,
      "ĠHowever": 1446,
      "ĠBrit": 1447,
      "Ġmaking": 1448,
      "Ġpoint": 1449,
      "to": 1450,
      "oci": 1451,
      "ring": 1452,
      "Ġ|": 1453,
      "Ġreal": 1454,
      "Ġexam": 1455,
      "Ġgovern": 1456,
      "ĠâĢ": 1457,
      "Ġgrow": 1458,
      "Ġpar": 1459,
      "ĠBe": 1460,
      "uro": 1461,
      "Ġtext": 1462,
      "ills": 1463,
      "Ġseries": 1464,
      "Ġsent": 1465,
      "cent": 1466,
      "ĠFran": 1467,
      "oss": 1468,
      "ency": 1469,
      "view": 1470,
      "Ġdel": 1471,
      "com": 1472,
      "Ġdid": 1473,
      "Wh": 1474,
      "Ġwebs": 1475,
      "Ġcr": 1476,
      "Ġmedia": 1477,
      "Ġexperience": 1478,
      "Ġproject": 1479,
      "Ġlevel": 1480,
      "ober": 1481,
      "Ġanal": 1482,
      "Ġ15": 1483,
      "lege": 1484,
      "ocus": 1485,
      "Ġsame": 1486,
      "Ġtrad": 1487,
      "tain": 1488,
      "Ġhand": 1489,
      "ret": 1490,
      "ote": 1491,
      "Ġfriend": 1492,
      "Ġequ": 1493,
      "Ġindust": 1494,
      "Ġrest": 1495,
      "ĠHere": 1496,
      "Ġeas": 1497,
      "Ġcost": 1498,
      "gg": 1499,
      "ĠComm": 1500,
      "Ġ17": 1501,
      "Ġconf": 1502,
      "Ġprot": 1503,
      "Ġindivid": 1504,
      "Ġhead": 1505,
      "199": 1506,
      "Ġens": 1507,
      "ĠOr": 1508,
      "Ġsignificant": 1509,
      "Ġoffer": 1510,
      "ours": 1511,
      "ively": 1512,
      "Ġ195": 1513,
      "Ġment": 1514,
      "As": 1515,
      "ately": 1516,
      "conom": 1517,
      "tal": 1518,
      "vest": 1519,
      "Ġ12": 1520,
      "vironment": 1521,
      "ĠPh": 1522,
      "Ġfood": 1523,
      "Ġeduc": 1524,
      "ajor": 1525,
      "Ġimportant": 1526,
      "Ġlocal": 1527,
      "aut": 1528,
      "Ġfunction": 1529,
      "Ġplayers": 1530,
      "ternational": 1531,
      "vers": 1532,
      "cl": 1533,
      "Ġplayed": 1534,
      "ĠDe": 1535,
      "Ġrece": 1536,
      "ĠCount": 1537,
      "ĠAdd": 1538,
      "ĠBr": 1539,
      "Ġchall": 1540,
      "ese": 1541,
      "Ġappro": 1542,
      "Ġstory": 1543,
      "rodu": 1544,
      "Ġstudents": 1545,
      "ĠWe": 1546,
      "Ġchang": 1547,
      "Ġfac": 1548,
      "Ġaff": 1549,
      "ories": 1550,
      "yle": 1551,
      "Ġinvol": 1552,
      "ene": 1553,
      "ĠTe": 1554,
      "Ġcalled": 1555,
      "Ġnow": 1556,
      "ĠThese": 1557,
      "ried": 1558,
      "isc": 1559,
      "itions": 1560,
      "ases": 1561,
      "\".": 1562,
      "12": 1563,
      "ways": 1564,
      "Ch": 1565,
      "lu": 1566,
      "Ġgood": 1567,
      "ĠWest": 1568,
      "Ġpersonal": 1569,
      "Ġ16": 1570,
      "Ġident": 1571,
      "ĠSouth": 1572,
      "ĠWar": 1573,
      "ilt": 1574,
      "Ġagainst": 1575,
      "Ġdetail": 1576,
      "Ġdevelopment": 1577,
      "Ġtown": 1578,
      "):": 1579,
      "Ġlanguage": 1580,
      "Ġtyp": 1581,
      "Ġterm": 1582,
      "self": 1583,
      "Ġstate": 1584,
      "ability": 1585,
      "ĠNational": 1586,
      "Ġuser": 1587,
      ");": 1588,
      "Ġcamp": 1589,
      "ĠGerm": 1590,
      "Ġlarge": 1591,
      "Ġfocus": 1592,
      "Ġkey": 1593,
      "Ġconsider": 1594,
      "ms": 1595,
      "Ġ&": 1596,
      "Ġstat": 1597,
      "bo": 1598,
      "utes": 1599,
      "ĠCar": 1600,
      "Ġcontro": 1601,
      "ients": 1602,
      "Ġinterest": 1603,
      "Ġsom": 1604,
      "Ġide": 1605,
      "Ġcompet": 1606,
      "oint": 1607,
      "Ġstation": 1608,
      "son": 1609,
      "read": 1610,
      "Ġvarious": 1611,
      "Ġmuch": 1612,
      "Ġrese": 1613,
      "ĠPr": 1614,
      "ner": 1615,
      "Ġren": 1616,
      "Ġlet": 1617,
      "br": 1618,
      "ĠSe": 1619,
      "Ġtoget": 1620,
      "Ġtogether": 1621,
      "une": 1622,
      "Ġposs": 1623,
      "oon": 1624,
      "Ġpres": 1625,
      "Ġtechnology": 1626,
      "Ġprofess": 1627,
      "Ġwebsite": 1628,
      "Ġsee": 1629,
      "Ġfootball": 1630,
      "ĠMay": 1631,
      "ane": 1632,
      "Ġevent": 1633,
      "work": 1634,
      "ai": 1635,
      "lev": 1636,
      "Ġconnect": 1637,
      "Ġmar": 1638,
      "oman": 1639,
      "ĠAnd": 1640,
      "ept": 1641,
      "Ġmil": 1642,
      "Ġearly": 1643,
      "Ġben": 1644,
      "ister": 1645,
      "ĠIf": 1646,
      "esp": 1647,
      "Ġcurrent": 1648,
      "ended": 1649,
      "Ġdem": 1650,
      "Ġcommon": 1651,
      "Ġcareer": 1652,
      "rist": 1653,
      "Ġfact": 1654,
      "Ġlook": 1655,
      "osed": 1656,
      "Ġenvironment": 1657,
      "ĠEx": 1658,
      "the": 1659,
      "Ġwant": 1660,
      "Ġbegan": 1661,
      "ards": 1662,
      "oks": 1663,
      "ians": 1664,
      "Ġlast": 1665,
      "hor": 1666,
      "ays": 1667,
      "ateg": 1668,
      "Ġlit": 1669,
      "aterial": 1670,
      "ged": 1671,
      "Ġlight": 1672,
      "ator": 1673,
      "Ġcharacter": 1674,
      "Ġvers": 1675,
      "ĠCanad": 1676,
      "atural": 1677,
      "orpor": 1678,
      "Ġold": 1679,
      "Ġline": 1680,
      "Ġ193": 1681,
      "Ġhistory": 1682,
      "Ġnear": 1683,
      "Ġess": 1684,
      "Ġexamples": 1685,
      "Ġtem": 1686,
      "sp": 1687,
      "ĠYork": 1688,
      "Ġalong": 1689,
      "oad": 1690,
      "ĠNorth": 1691,
      "Ġ<<": 1692,
      "ampions": 1693,
      "Ġpolit": 1694,
      "Ġimprove": 1695,
      "Ġthose": 1696,
      "Ġenc": 1697,
      "Ġiss": 1698,
      "ream": 1699,
      "und": 1700,
      "ird": 1701,
      "Ġbeh": 1702,
      "Ġformer": 1703,
      "Ġthough": 1704,
      "Ġaud": 1705,
      "Ġservice": 1706,
      "Ġocc": 1707,
      "my": 1708,
      "15": 1709,
      "ĠAustral": 1710,
      "ĠBritish": 1711,
      "Ġmembers": 1712,
      "hips": 1713,
      "ĠCent": 1714,
      "orts": 1715,
      "Ġrange": 1716,
      "Ġleft": 1717,
      "ission": 1718,
      "hern": 1719,
      "cing": 1720,
      "augh": 1721,
      "app": 1722,
      "Ġunderstand": 1723,
      "He": 1724,
      "Ġsit": 1725,
      "chie": 1726,
      "abor": 1727,
      "Ġtotal": 1728,
      "Ġfore": 1729,
      "ination": 1730,
      "ables": 1731,
      "Ġwithin": 1732,
      "ending": 1733,
      "Ġservices": 1734,
      "ially": 1735,
      "Ġkeep": 1736,
      "Ġcustomer": 1737,
      "Ġstill": 1738,
      "aster": 1739,
      "Ġsound": 1740,
      "Ġpopular": 1741,
      "Ġpresent": 1742,
      "Ġorder": 1743,
      "This": 1744,
      "ording": 1745,
      "Ġsuggest": 1746,
      "ĠBy": 1747,
      "Ġreduce": 1748,
      "urope": 1749,
      "Ġplan": 1750,
      "Ġmaterial": 1751,
      "21": 1752,
      "Ġ/": 1753,
      "Ġmult": 1754,
      "Ġcontent": 1755,
      "idd": 1756,
      "Ġeconom": 1757,
      "Ġpotential": 1758,
      "Ġsoft": 1759,
      "Ġsl": 1760,
      "less": 1761,
      "aur": 1762,
      "Ġstep": 1763,
      "Ġdeath": 1764,
      "ĠCal": 1765,
      "Ġreleased": 1766,
      "Ġsince": 1767,
      "Ġbenef": 1768,
      "ĠMus": 1769,
      "__": 1770,
      "Ġ`": 1771,
      "ĠPar": 1772,
      "Ġlocated": 1773,
      "ĠAm": 1774,
      "ope": 1775,
      "Ġbook": 1776,
      "ised": 1777,
      "born": 1778,
      "Ġpain": 1779,
      "be": 1780,
      "Ġbecause": 1781,
      "Ġfeatures": 1782,
      "Ġspe": 1783,
      "yl": 1784,
      "Ġlearning": 1785,
      "ored": 1786,
      "ffic": 1787,
      "Ġcal": 1788,
      "anu": 1789,
      "ĠThere": 1790,
      "istor": 1791,
      "Ġrole": 1792,
      "Ġcommunity": 1793,
      "omen": 1794,
      "ke": 1795,
      "Ġmajor": 1796,
      "ently": 1797,
      "ography": 1798,
      "Ġdra": 1799,
      "Ġ2006": 1800,
      "Ġturn": 1801,
      "Ġstand": 1802,
      "Ġemploy": 1803,
      "Ġ*": 1804,
      "me": 1805,
      "ĠGe": 1806,
      "ges": 1807,
      "Ġshort": 1808,
      "Ġnamed": 1809,
      "ĠUse": 1810,
      "ush": 1811,
      "ued": 1812,
      "Ġcour": 1813,
      "Ġrefer": 1814,
      "Ġphys": 1815,
      "ication": 1816,
      "ĠHigh": 1817,
      "Ġ.": 1818,
      "af": 1819,
      "Ġel": 1820,
      "tle": 1821,
      "sh": 1822,
      "ĠAll": 1823,
      "Ġinvest": 1824,
      "ument": 1825,
      "Ġresearch": 1826,
      "Ġi": 1827,
      "ified": 1828,
      "uly": 1829,
      "16": 1830,
      "ected": 1831,
      "ĠEm": 1832,
      "Ġcomb": 1833,
      "oid": 1834,
      "par": 1835,
      "ape": 1836,
      "Ġrelations": 1837,
      "ĠKing": 1838,
      "Ġpost": 1839,
      "Ġcho": 1840,
      "Ġbecome": 1841,
      "ches": 1842,
      "ethod": 1843,
      "Ġchalleng": 1844,
      "erc": 1845,
      "ogn": 1846,
      "ival": 1847,
      "Ġ#": 1848,
      "Ġgovernment": 1849,
      "ructure": 1850,
      "ĠCounty": 1851,
      "Ġright": 1852,
      "Ġlove": 1853,
      "atch": 1854,
      "ĠEurope": 1855,
      "reate": 1856,
      "Ġleg": 1857,
      "ĠBro": 1858,
      "Ġtimes": 1859,
      "ĠCity": 1860,
      "ublic": 1861,
      "iod": 1862,
      "Ġtrack": 1863,
      "Ġland": 1864,
      "atic": 1865,
      "ems": 1866,
      "urs": 1867,
      "Ġanother": 1868,
      "Ġband": 1869,
      "hest": 1870,
      "Ġvill": 1871,
      "Ġtest": 1872,
      "Ġtool": 1873,
      "On": 1874,
      "Ġchange": 1875,
      "med": 1876,
      "illion": 1877,
      "Ġachie": 1878,
      "Ġdoes": 1879,
      "esc": 1880,
      "lymp": 1881,
      "idge": 1882,
      "min": 1883,
      "Ġproper": 1884,
      "ming": 1885,
      "ĠDec": 1886,
      "17": 1887,
      "Ġothers": 1888,
      "ĠAss": 1889,
      "aren": 1890,
      "aces": 1891,
      "ipp": 1892,
      "Ġdev": 1893,
      "eter": 1894,
      "Ġsingle": 1895,
      "Ġtit": 1896,
      "Ġwithout": 1897,
      "Ġbuilding": 1898,
      "elt": 1899,
      "Ġanim": 1900,
      "Ġoffic": 1901,
      "Ġworks": 1902,
      "Ġchildren": 1903,
      "ĠII": 1904,
      "ances": 1905,
      "levision": 1906,
      "Ġann": 1907,
      "ĠLeague": 1908,
      "Ġgames": 1909,
      "avor": 1910,
      "ning": 1911,
      "ĠAfter": 1912,
      "Ġdue": 1913,
      "Ġhere": 1914,
      "It": 1915,
      "Ġunique": 1916,
      "Ġareas": 1917,
      "Ġcentury": 1918,
      "Ġfr": 1919,
      "Ġreport": 1920,
      "Ġminutes": 1921,
      "ng": 1922,
      "Ġtry": 1923,
      "Ġhuman": 1924,
      "ilities": 1925,
      "ones": 1926,
      "ĠRep": 1927,
      "ords": 1928,
      "reen": 1929,
      "ĠHis": 1930,
      "Ġbetter": 1931,
      "Ġcook": 1932,
      "Ġrepresent": 1933,
      "Ġself": 1934,
      "uals": 1935,
      "ony": 1936,
      "ained": 1937,
      "ĠCo": 1938,
      "Ġavail": 1939,
      "ĠUS": 1940,
      "ĠMan": 1941,
      "Ġappear": 1942,
      "Ġnatural": 1943,
      "Ġalways": 1944,
      "Ġinflu": 1945,
      "cer": 1946,
      "osp": 1947,
      "Ġ14": 1948,
      "Ġmag": 1949,
      "ĠEd": 1950,
      "ĠEnglish": 1951,
      "Ġcomput": 1952,
      "adem": 1953,
      "Ġevents": 1954,
      "atform": 1955,
      "Ġproducts": 1956,
      "imate": 1957,
      "oph": 1958,
      "Ġclub": 1959,
      "Ġsw": 1960,
      "rap": 1961,
      "apan": 1962,
      "ising": 1963,
      "ĠGu": 1964,
      "ple": 1965,
      "Ġbody": 1966,
      "Ġindustry": 1967,
      "Ġensure": 1968,
      "Ġcode": 1969,
      "Ġfre": 1970,
      "Ġcor": 1971,
      "Ġjourn": 1972,
      "ideo": 1973,
      "ĠAf": 1974,
      "Ġprint": 1975,
      "side": 1976,
      "Ġside": 1977,
      "oura": 1978,
      "urther": 1979,
      "198": 1980,
      "ĠRec": 1981,
      "Ġbuilt": 1982,
      "Ġfive": 1983,
      "arget": 1984,
      "Ġcountry": 1985,
      "Ġless": 1986,
      "Ġnever": 1987,
      "ana": 1988,
      "ĠPol": 1989,
      "Ġer": 1990,
      "ead": 1991,
      "Ġpopulation": 1992,
      "ison": 1993,
      "Ġtook": 1994,
      "illed": 1995,
      "Ġcustomers": 1996,
      "ĠTr": 1997,
      "ugust": 1998,
      "Ġmember": 1999,
      "ĠMarch": 2000,
      "Ġ30": 2001,
      "Ġpartic": 2002,
      "Ġbeg": 2003,
      "ĠReg": 2004,
      "Ġbelie": 2005,
      "ĠNov": 2006,
      "anuary": 2007,
      "Ġnet": 2008,
      "ham": 2009,
      "Ġstore": 2010,
      "Ġengag": 2011,
      "umb": 2012,
      "Ġable": 2013,
      "Ġvery": 2014,
      "ering": 2015,
      "ung": 2016,
      "Ġmodel": 2017,
      "Ġlim": 2018,
      "Ġmarketing": 2019,
      "Ġdescrib": 2020,
      "14": 2021,
      "ĠWill": 2022,
      "Ġla": 2023,
      "ilar": 2024,
      "lection": 2025,
      "ĠChrist": 2026,
      "ruction": 2027,
      "Ġtype": 2028,
      "aper": 2029,
      "itor": 2030,
      "ĠState": 2031,
      "ĠComp": 2032,
      "ots": 2033,
      "30": 2034,
      "yd": 2035,
      "val": 2036,
      "Ġproble": 2037,
      "Ġmethod": 2038,
      "Ġnon": 2039,
      "ĠĠĠĠĠĠĠĠĠĠĠ": 2040,
      "duct": 2041,
      "ae": 2042,
      "irc": 2043,
      "Ġestablished": 2044,
      "Ġcontrol": 2045,
      "Ġplatform": 2046,
      "Ġapplic": 2047,
      "Ġlate": 2048,
      "here": 2049,
      "Ġlaw": 2050,
      "dom": 2051,
      "Ġusers": 2052,
      "Ġperiod": 2053,
      "Ġpast": 2054,
      "Ġmust": 2055,
      "Ġcover": 2056,
      "See": 2057,
      "Ġvalue": 2058,
      "stit": 2059,
      "uck": 2060,
      "Ġsystems": 2061,
      "Ġserved": 2062,
      "ides": 2063,
      "Ġnext": 2064,
      "play": 2065,
      "ements": 2066,
      "ĠPark": 2067,
      "ĠBar": 2068,
      "Ġobject": 2069,
      "ĠSw": 2070,
      "Ġgive": 2071,
      "ĠHer": 2072,
      "of": 2073,
      "rench": 2074,
      "yc": 2075,
      "Ġcrit": 2076,
      "uture": 2077,
      "Ġinit": 2078,
      "Ġplayer": 2079,
      "ĠCollege": 2080,
      "Ġspecial": 2081,
      "ĠOne": 2082,
      "Ġconsist": 2083,
      "Ġeducation": 2084,
      "hel": 2085,
      "Ġsure": 2086,
      "Ġdon": 2087,
      "Ġquest": 2088,
      "Ġjob": 2089,
      "Ġstudy": 2090,
      "Ġborn": 2091,
      "asing": 2092,
      "Ġonline": 2093,
      "lease": 2094,
      "Ġperformance": 2095,
      "History": 2096,
      "ĠFl": 2097,
      "Ġexc": 2098,
      "Ġhig": 2099,
      "ole": 2100,
      "back": 2101,
      "Ġstrong": 2102,
      "Ġneeds": 2103,
      "ĠBut": 2104,
      "Ġmot": 2105,
      "Ġ}": 2106,
      "str": 2107,
      "Ġamong": 2108,
      "âĢĿ": 2109,
      "eal": 2110,
      "Ġfree": 2111,
      "ama": 2112,
      "resh": 2113,
      "ĠJanuary": 2114,
      "Ġexperi": 2115,
      "eptember": 2116,
      "ĠEast": 2117,
      "Ġled": 2118,
      "Ġjo": 2119,
      "Ġincrease": 2120,
      "ĠAugust": 2121,
      "Ġ13": 2122,
      "Ġlo": 2123,
      "alf": 2124,
      "acks": 2125,
      "Ġcond": 2126,
      "itionally": 2127,
      "Ġsaid": 2128,
      "Ġage": 2129,
      "pportun": 2130,
      "Ġfield": 2131,
      "Ġdeep": 2132,
      "Ġlow": 2133,
      "Ġarch": 2134,
      "unicip": 2135,
      "Ġstarted": 2136,
      "opp": 2137,
      "22": 2138,
      "reet": 2139,
      "ribut": 2140,
      "gor": 2141,
      "Ġclear": 2142,
      "ĠJapan": 2143,
      "Ġengine": 2144,
      "ĠPart": 2145,
      "pril": 2146,
      "Ġavailable": 2147,
      "Ġpromot": 2148,
      "Ġheld": 2149,
      "Ġmeas": 2150,
      "ĠX": 2151,
      "Ġtarget": 2152,
      "aign": 2153,
      "Ġsuccessful": 2154,
      "iting": 2155,
      "Ġcoll": 2156,
      "Ã¡": 2157,
      "Ġinput": 2158,
      "joy": 2159,
      "iment": 2160,
      "Sure": 2161,
      "Ġinte": 2162,
      "ille": 2163,
      "ĠSoc": 2164,
      "ĠWith": 2165,
      "acy": 2166,
      "Ġhapp": 2167,
      "Ġmen": 2168,
      "vert": 2169,
      "ctober": 2170,
      "Ġimplement": 2171,
      "Ġhouse": 2172,
      "Ġfriends": 2173,
      "ĠEl": 2174,
      "Ġresources": 2175,
      "rain": 2176,
      "Ġways": 2177,
      "ox": 2178,
      "amb": 2179,
      "ees": 2180,
      "ĠOlymp": 2181,
      "Al": 2182,
      "aste": 2183,
      "What": 2184,
      "Ġparticular": 2185,
      "fact": 2186,
      "Ġworking": 2187,
      "Ġsense": 2188,
      "Ġopportun": 2189,
      "Ġstyle": 2190,
      "uation": 2191,
      "Ġmean": 2192,
      "ump": 2193,
      "Ġbas": 2194,
      "inter": 2195,
      "Ġtraining": 2196,
      "13": 2197,
      "ĠWhen": 2198,
      "isk": 2199,
      "Ġcup": 2200,
      "ales": 2201,
      "Ġview": 2202,
      "Ġbreak": 2203,
      "Ġrecomm": 2204,
      "Ġfinal": 2205,
      "Ġsym": 2206,
      "Ġrepl": 2207,
      "aced": 2208,
      "oor": 2209,
      "anies": 2210,
      "Ġauthor": 2211,
      "cast": 2212,
      "Ġx": 2213,
      "Ġemot": 2214,
      "Ġsentence": 2215,
      "ĠSeptember": 2216,
      "Ġmind": 2217,
      "Ġoil": 2218,
      "for": 2219,
      "Ġregular": 2220,
      "vious": 2221,
      "inning": 2222,
      "ething": 2223,
      "Ġstring": 2224,
      "Ġflow": 2225,
      "Ġtravel": 2226,
      "pper": 2227,
      "gress": 2228,
      "umn": 2229,
      "Ġspace": 2230,
      "ĠGeor": 2231,
      "Ġtraditional": 2232,
      "Ġmeet": 2233,
      "Ġfuture": 2234,
      "ĠJune": 2235,
      "Ġport": 2236,
      "Ġassoci": 2237,
      "Ġpri": 2238,
      "Ġincludes": 2239,
      "aves": 2240,
      "197": 2241,
      "Ġdeterm": 2242,
      "ops": 2243,
      "ength": 2244,
      "Ġthird": 2245,
      "Ġcome": 2246,
      "urg": 2247,
      "ched": 2248,
      "Ġred": 2249,
      "Ġsoftware": 2250,
      "Ġeffic": 2251,
      "Ġdays": 2252,
      "pect": 2253,
      "Ġcomplet": 2254,
      "cul": 2255,
      "Ã¼": 2256,
      "usion": 2257,
      "11": 2258,
      "oll": 2259,
      "ration": 2260,
      "Ġgen": 2261,
      "Ġskills": 2262,
      "Ġsn": 2263,
      "Ġheart": 2264,
      "Ġrad": 2265,
      "lete": 2266,
      "Ġrespons": 2267,
      "Ġbeaut": 2268,
      "Ġpublished": 2269,
      "ĠOctober": 2270,
      "Ġhard": 2271,
      "mar": 2272,
      "Ġcomplex": 2273,
      "Ġwords": 2274,
      "ĠApril": 2275,
      "..": 2276,
      "izing": 2277,
      "Ġversion": 2278,
      "Ġprovides": 2279,
      "tt": 2280,
      "ĠJuly": 2281,
      "ĠAI": 2282,
      "Ġtelevision": 2283,
      "Ġcolor": 2284,
      "elling": 2285,
      "ino": 2286,
      "Ġdig": 2287,
      "ource": 2288,
      "ĠAfric": 2289,
      "urity": 2290,
      "Ġsupp": 2291,
      "time": 2292,
      "Ġvillage": 2293,
      "Ġcreated": 2294,
      "Ġaudience": 2295,
      "```": 2296,
      "thing": 2297,
      "Ġdiff": 2298,
      "Ġindividuals": 2299,
      "ĠMe": 2300,
      "ĠMc": 2301,
      "Ġoriginal": 2302,
      "Ġactivities": 2303,
      "Ġpossible": 2304,
      "ebru": 2305,
      "Ġrout": 2306,
      "Ġacross": 2307,
      "ground": 2308,
      "ebruary": 2309,
      "attle": 2310,
      "ato": 2311,
      "Ġdeb": 2312,
      "Ġpositive": 2313,
      "Ġweek": 2314,
      "Ġgrowth": 2315,
      "Ġtips": 2316,
      "sc": 2317,
      "Ġgrad": 2318,
      "Ġgoals": 2319,
      "Ġphot": 2320,
      "Ġdetails": 2321,
      "rick": 2322,
      "Ġrecip": 2323,
      "Ġ11": 2324,
      "Ġcampaign": 2325,
      "Ġtransport": 2326,
      "Ġbrand": 2327,
      "Ġep": 2328,
      "ivity": 2329,
      "Ġtre": 2330,
      "Ġcaus": 2331,
      "Ġprofessional": 2332,
      "gorith": 2333,
      "Ġmach": 2334,
      "inal": 2335,
      "Ġproduction": 2336,
      "Ġprotect": 2337,
      "ĠDecember": 2338,
      "ivision": 2339,
      "Ġnorth": 2340,
      "co": 2341,
      "Ġfull": 2342,
      "ondon": 2343,
      "Americ": 2344,
      "Ġsearch": 2345,
      "Ġinteract": 2346,
      "ĠAb": 2347,
      "Ġmess": 2348,
      "Ġ2005": 2349,
      "ĠâĢľ": 2350,
      "ĠDist": 2351,
      "ĠMin": 2352,
      "ĠCup": 2353,
      "itar": 2354,
      "verall": 2355,
      "apt": 2356,
      "irt": 2357,
      "century": 2358,
      "Ġnational": 2359,
      "ĠChar": 2360,
      "Ġwind": 2361,
      "Ġsomething": 2362,
      "60": 2363,
      "Ġbenefits": 2364,
      "Ġvideo": 2365,
      "Ġamount": 2366,
      "ror": 2367,
      "Ġelements": 2368,
      "Ġreceived": 2369,
      "oyal": 2370,
      "ara": 2371,
      "Ġincluded": 2372,
      "Ġsqu": 2373,
      "Ġspecies": 2374,
      "hem": 2375,
      "ĠSer": 2376,
      "ounc": 2377,
      "icult": 2378,
      "ĠFrench": 2379,
      "ford": 2380,
      "40": 2381,
      "ĠSec": 2382,
      "Ġword": 2383,
      "ibility": 2384,
      "Ġmix": 2385,
      "Ġmultip": 2386,
      "=\"": 2387,
      "itary": 2388,
      "Ġchallenges": 2389,
      "Ġthink": 2390,
      "Ġlive": 2391,
      "though": 2392,
      "ĠRes": 2393,
      "Ġstay": 2394,
      "ĠTo": 2395,
      "Ġsaf": 2396,
      "iction": 2397,
      "go": 2398,
      "ĠItal": 2399,
      "epend": 2400,
      "Ġcame": 2401,
      "irl": 2402,
      "Ġrecogn": 2403,
      "yth": 2404,
      "uk": 2405,
      "25": 2406,
      "ĠNovember": 2407,
      "ĠGo": 2408,
      "ĠNe": 2409,
      "ĠChampions": 2410,
      "ows": 2411,
      "ibr": 2412,
      "ĠAng": 2413,
      "Ġleading": 2414,
      "Ġcase": 2415,
      "ĠHar": 2416,
      "ression": 2417,
      "Ġwritten": 2418,
      "istic": 2419,
      "Ġsust": 2420,
      "Ġquick": 2421,
      "eder": 2422,
      "Ġsix": 2423,
      "ĠRiver": 2424,
      "ĠGl": 2425,
      "Ġdesigned": 2426,
      "fect": 2427,
      "Ġprim": 2428,
      "lin": 2429,
      "ald": 2430,
      "oms": 2431,
      "Ġmanagement": 2432,
      "aching": 2433,
      "Ġvol": 2434,
      "Ġbusinesses": 2435,
      "ological": 2436,
      "Ġalgorith": 2437,
      "American": 2438,
      "raft": 2439,
      "rack": 2440,
      "'m": 2441,
      "ĠBo": 2442,
      "Ġmodern": 2443,
      "Ġnec": 2444,
      "Ġdistrict": 2445,
      "Ġsimilar": 2446,
      "Ġwent": 2447,
      "Ġhold": 2448,
      "ĠFebruary": 2449,
      "ĠProv": 2450,
      "aul": 2451,
      "aff": 2452,
      "ĠDav": 2453,
      "face": 2454,
      "Ġz": 2455,
      "ĠLondon": 2456,
      "Ġnumbers": 2457,
      "Ġcreating": 2458,
      ",\"": 2459,
      "Ġhaving": 2460,
      "Ġmental": 2461,
      "Ġ25": 2462,
      "ered": 2463,
      "aining": 2464,
      "Ġhours": 2465,
      "ĠWilliam": 2466,
      "ĠCanada": 2467,
      "Ġestablish": 2468,
      "There": 2469,
      "ises": 2470,
      "ler": 2471,
      "aim": 2472,
      "ius": 2473,
      "Ġproviding": 2474,
      "Ġveget": 2475,
      "Ġphysical": 2476,
      "Ġthroughout": 2477,
      "Ġshare": 2478,
      "na": 2479,
      "iques": 2480,
      "ament": 2481,
      "iforn": 2482,
      "Ġsite": 2483,
      "Ġsat": 2484,
      "Ġtoo": 2485,
      "ells": 2486,
      "lands": 2487,
      "cial": 2488,
      "atter": 2489,
      "ĠPre": 2490,
      "Ġneg": 2491,
      "Ġparticip": 2492,
      "urb": 2493,
      "Ġsun": 2494,
      "Ġessential": 2495,
      "Ġcompanies": 2496,
      "Ġaway": 2497,
      "Ġhistor": 2498,
      "Ġregion": 2499,
      "ĠGerman": 2500,
      "Ġnov": 2501,
      "artment": 2502,
      "One": 2503,
      "ĠSm": 2504,
      "iber": 2505,
      "ĠNo": 2506,
      "Ġquality": 2507,
      "ĠRed": 2508,
      "Ġintrodu": 2509,
      "Ġpay": 2510,
      "Ġaddress": 2511,
      "hers": 2512,
      "Ġarray": 2513,
      "imately": 2514,
      "Ġsouth": 2515,
      "Ġ2007": 2516,
      "Ġeasy": 2517,
      "Ġidentify": 2518,
      "Ġsold": 2519,
      "ĠPe": 2520,
      "idence": 2521,
      "Ġadditional": 2522,
      "ĠMon": 2523,
      "Ġprop": 2524,
      "ifornia": 2525,
      "anced": 2526,
      "Ġnight": 2527,
      "iate": 2528,
      "Ġwar": 2529,
      "Ġoffers": 2530,
      "Ġoverall": 2531,
      "Create": 2532,
      "Ġdifficult": 2533,
      "ctor": 2534,
      "Ġlay": 2535,
      "based": 2536,
      "ele": 2537,
      "Ġpoints": 2538,
      "Ġ100": 2539,
      "mit": 2540,
      "Ġ2000": 2541,
      "Ġbirths": 2542,
      "Ġemail": 2543,
      "Ġmaintain": 2544,
      "Ġprevious": 2545,
      "ancial": 2546,
      "Ġanaly": 2547,
      "rew": 2548,
      "aken": 2549,
      "Ġground": 2550,
      "Ar": 2551,
      "itect": 2552,
      "Ġmeans": 2553,
      "Ġtreat": 2554,
      "Ġmom": 2555,
      "Ġchanges": 2556,
      "ĠEar": 2557,
      "Ġeffective": 2558,
      "**": 2559,
      "ĠDr": 2560,
      "'re": 2561,
      "Ġpurch": 2562,
      "ĠAdditionally": 2563,
      "ysis": 2564,
      "head": 2565,
      "Ġcourse": 2566,
      "Ġprevent": 2567,
      "Ġmillion": 2568,
      "Ġhon": 2569,
      "Ġaccount": 2570,
      "Ġfather": 2571,
      "ĠIndian": 2572,
      "cks": 2573,
      "alls": 2574,
      "Ġcharacters": 2575,
      "Ġmoved": 2576,
      "Ġworked": 2577,
      "ging": 2578,
      "ĠSome": 2579,
      "Ġdest": 2580,
      "Ġprograms": 2581,
      "Ġbase": 2582,
      "Ġroad": 2583,
      "Ġtowards": 2584,
      "ift": 2585,
      "Ġrequire": 2586,
      "Ġenjoy": 2587,
      "ĠInc": 2588,
      "ha": 2589,
      "ids": 2590,
      "<<": 2591,
      "Ġstru": 2592,
      "itation": 2593,
      "Ġfeed": 2594,
      "Ġsustain": 2595,
      "Ġgreen": 2596,
      "ington": 2597,
      "li": 2598,
      "Ġ2004": 2599,
      "Ġter": 2600,
      "Ġhost": 2601,
      "Ġey": 2602,
      "Ġposition": 2603,
      "Ġfurther": 2604,
      "Ġtypes": 2605,
      "Ġson": 2606,
      "ertainly": 2607,
      "Ġhelps": 2608,
      "iddle": 2609,
      "Ġlik": 2610,
      "ĠCalifornia": 2611,
      "ters": 2612,
      "ma": 2613,
      "Ġrail": 2614,
      "Ġant": 2615,
      "Ġpred": 2616,
      "Ġoptions": 2617,
      "Ġcountries": 2618,
      "Ġpur": 2619,
      "round": 2620,
      "ps": 2621,
      "Ġeast": 2622,
      "sequ": 2623,
      "Ġwest": 2624,
      "Ġwriting": 2625,
      "Ġbar": 2626,
      "ached": 2627,
      "Ġ,": 2628,
      "ires": 2629,
      "Ġgeneral": 2630,
      "eum": 2631,
      "</": 2632,
      "ĠCom": 2633,
      "aving": 2634,
      "ude": 2635,
      "ention": 2636,
      "ided": 2637,
      "Ġtitle": 2638,
      "23": 2639,
      "ĠAustralia": 2640,
      "Ġgroups": 2641,
      "sel": 2642,
      "oring": 2643,
      "ĠMich": 2644,
      "Ġaddition": 2645,
      "ĠMed": 2646,
      "Ġvariety": 2647,
      "ators": 2648,
      "utions": 2649,
      "Ġfelt": 2650,
      "ĠEngland": 2651,
      "Ġtakes": 2652,
      "aches": 2653,
      "Ġtaking": 2654,
      "Ġincorpor": 2655,
      "redients": 2656,
      "ades": 2657,
      "rast": 2658,
      "Ġuses": 2659,
      "Ġvari": 2660,
      "Ġpolic": 2661,
      "Ġhot": 2662,
      "Ġnetwork": 2663,
      "ica": 2664,
      "Ġwalk": 2665,
      "reek": 2666,
      "Ġproduced": 2667,
      "alt": 2668,
      "Ġ||": 2669,
      "ster": 2670,
      "Ġbecom": 2671,
      "Ġmunicip": 2672,
      "Ġpark": 2673,
      "Ġwomen": 2674,
      "Ġstructure": 2675,
      "care": 2676,
      "ivil": 2677,
      "aring": 2678,
      "Ġtechniques": 2679,
      "ification": 2680,
      "ĠIndia": 2681,
      "Ġissues": 2682,
      "Un": 2683,
      "Ġability": 2684,
      "Ġreview": 2685,
      "Ġstrateg": 2686,
      "Ġmight": 2687,
      "avy": 2688,
      "ured": 2689,
      "oe": 2690,
      "Ġpriv": 2691,
      "Ä±": 2692,
      "Ġdeveloped": 2693,
      "Ġrecommend": 2694,
      "Ġtools": 2695,
      "ĠInternational": 2696,
      "overn": 2697,
      "ened": 2698,
      "enced": 2699,
      "bon": 2700,
      "Ġresults": 2701,
      "ĠHouse": 2702,
      "Ġconsum": 2703,
      "----": 2704,
      "Ġyoung": 2705,
      "Ġknew": 2706,
      "Ġhalf": 2707,
      "fort": 2708,
      "Ġtemper": 2709,
      "Ġ24": 2710,
      "Ġallows": 2711,
      "Ġpers": 2712,
      "lected": 2713,
      "Ġconsidered": 2714,
      "Ġ2008": 2715,
      "ĠAc": 2716,
      "sw": 2717,
      "',": 2718,
      "ouncil": 2719,
      "ief": 2720,
      "Ġcommunication": 2721,
      "ĠArt": 2722,
      "Ġtour": 2723,
      "Ġinternational": 2724,
      "Ġpattern": 2725,
      "Ġcirc": 2726,
      "Ġdise": 2727,
      "ĠDistrict": 2728,
      "ĠPer": 2729,
      "ership": 2730,
      "ĠSan": 2731,
      "emb": 2732,
      "Gener": 2733,
      "ĠRuss": 2734,
      "Ġsources": 2735,
      "Ġsens": 2736,
      "Ġlevels": 2737,
      "ĠQu": 2738,
      ".,": 2739,
      "Ġdoc": 2740,
      "Ġplant": 2741,
      "()": 2742,
      "omin": 2743,
      "Ġ190": 2744,
      "Ġfresh": 2745,
      "Ġexist": 2746,
      "verage": 2747,
      "Ġbooks": 2748,
      "Ġsuper": 2749,
      "Ġpress": 2750,
      "Sc": 2751,
      "Ġface": 2752,
      "asket": 2753,
      "Ġexerc": 2754,
      "Ġdied": 2755,
      "ĠApp": 2756,
      "Ġculture": 2757,
      "light": 2758,
      "ĠAir": 2759,
      "Ġencoura": 2760,
      "ĠPhil": 2761,
      "Ġgra": 2762,
      "Ġwid": 2763,
      "orthern": 2764,
      "ĠĠčĊ": 2765,
      "Ġblack": 2766,
      "Ġclos": 2767,
      "Ã¶": 2768,
      "Con": 2769,
      "ael": 2770,
      "Ġvoc": 2771,
      "Ġclean": 2772,
      "Ġput": 2773,
      "Ġseen": 2774,
      "Ġplaying": 2775,
      "print": 2776,
      "Ġbehav": 2777,
      "Ġ2010": 2778,
      "24": 2779,
      "erous": 2780,
      "Ġcomputer": 2781,
      "ither": 2782,
      "Ġonce": 2783,
      "ram": 2784,
      "Ġfinancial": 2785,
      "Ġinn": 2786,
      "ensive": 2787,
      "Ġindividual": 2788,
      "Ġmaterials": 2789,
      "reng": 2790,
      "Ġaction": 2791,
      "Ġeconomic": 2792,
      "Ġsize": 2793,
      "ĠDo": 2794,
      "ĠVal": 2795,
      "Cl": 2796,
      "Ġrock": 2797,
      "Ġprovided": 2798,
      "Ġthings": 2799,
      "uff": 2800,
      "oud": 2801,
      "ĠTw": 2802,
      "Ġlog": 2803,
      "Ġlost": 2804,
      "ĠNor": 2805,
      "ĠAmerica": 2806,
      "ender": 2807,
      "Ġmoney": 2808,
      "Ġvisit": 2809,
      "asks": 2810,
      "iles": 2811,
      "Certainly": 2812,
      "hood": 2813,
      "ĠÃ": 2814,
      "urk": 2815,
      "Ġpolitical": 2816,
      "Ġaccording": 2817,
      "Ġliving": 2818,
      "Ġnut": 2819,
      "ledge": 2820,
      "uel": 2821,
      "unch": 2822,
      "Ġcollabor": 2823,
      "ray": 2824,
      "def": 2825,
      "Ġtemperature": 2826,
      "Ġnature": 2827,
      "ĠChurch": 2828,
      "Ġpractice": 2829,
      "Ġbi": 2830,
      "Ġinsp": 2831,
      "ĠAssoci": 2832,
      "de": 2833,
      "obal": 2834,
      "Ġing": 2835,
      "ney": 2836,
      "How": 2837,
      "ĠBer": 2838,
      "Ġ2003": 2839,
      "Pro": 2840,
      "Ġtable": 2841,
      "Ġstrugg": 2842,
      ").<|": 2843,
      "Ġstress": 2844,
      "most": 2845,
      "ĠAg": 2846,
      "Yes": 2847,
      "ĠPres": 2848,
      "Ġautom": 2849,
      "Ġcheck": 2850,
      "Ġprogress": 2851,
      "Ġbroad": 2852,
      "196": 2853,
      "Ġmakes": 2854,
      "list": 2855,
      "reg": 2856,
      "Ġarchitect": 2857,
      "ding": 2858,
      "Ġlocation": 2859,
      "empt": 2860,
      "Ġroom": 2861,
      "num": 2862,
      "Ġlab": 2863,
      "Ġabove": 2864,
      "ĠHol": 2865,
      "Ġopened": 2866,
      "Ġbring": 2867,
      "Ġadj": 2868,
      "Ġmeaning": 2869,
      "Ġ2002": 2870,
      "Ġlower": 2871,
      "Ġreally": 2872,
      "Ġmiss": 2873,
      "Ġill": 2874,
      "!<|": 2875,
      "Ġupd": 2876,
      "gin": 2877,
      "Ġmax": 2878,
      "Ġhom": 2879,
      "Ġcapt": 2880,
      "izations": 2881,
      "Ġsett": 2882,
      "Ġteams": 2883,
      "Ġdeg": 2884,
      "Ã³": 2885,
      "Ġbal": 2886,
      "Ġguitar": 2887,
      "ĠDep": 2888,
      "Ġnecess": 2889,
      "Ġ2009": 2890,
      "ville": 2891,
      "Ġcut": 2892,
      "asc": 2893,
      "Ġhelped": 2894,
      "ĠSup": 2895,
      "ĠStud": 2896,
      "Ġ2011": 2897,
      "ĠTra": 2898,
      "ett": 2899,
      "Ġwarm": 2900,
      "Ġoptim": 2901,
      "orks": 2902,
      "ander": 2903,
      "sk": 2904,
      "icles": 2905,
      "Ġimm": 2906,
      "Ġdiscover": 2907,
      "oice": 2908,
      "Ġgoing": 2909,
      "Ġcontinued": 2910,
      "Ġanalysis": 2911,
      "ĠParty": 2912,
      "After": 2913,
      "####": 2914,
      "Ġsteps": 2915,
      "Ġinv": 2916,
      "BC": 2917,
      "Ġmultiple": 2918,
      "den": 2919,
      "ference": 2920,
      "iff": 2921,
      "ava": 2922,
      "Ġsepar": 2923,
      "Ġmachine": 2924,
      "Overall": 2925,
      "olic": 2926,
      "Ġalbums": 2927,
      "Ġmount": 2928,
      "ĠFin": 2929,
      "pro": 2930,
      "Ġopp": 2931,
      "bor": 2932,
      "anish": 2933,
      "aily": 2934,
      "outhern": 2935,
      "Ġleast": 2936,
      "Ġideas": 2937,
      "Ġstreng": 2938,
      "asons": 2939,
      "Ġplease": 2940,
      "ĠSam": 2941,
      "Ġhealthy": 2942,
      "Ġdark": 2943,
      "ription": 2944,
      "ÃŃ": 2945,
      "minist": 2946,
      "weet": 2947,
      "Ġsimple": 2948,
      "Ġperfect": 2949,
      "anks": 2950,
      "rup": 2951,
      "ends": 2952,
      "eds": 2953,
      "Ġdeliver": 2954,
      "ĠPort": 2955,
      "Ġreducing": 2956,
      "Ġliter": 2957,
      "itch": 2958,
      "Ġfrequ": 2959,
      "We": 2960,
      "Ġrenew": 2961,
      "obile": 2962,
      "Ġ50": 2963,
      "vant": 2964,
      "Ġsurv": 2965,
      "Ġlargest": 2966,
      "owl": 2967,
      "ĠAct": 2968,
      "asketball": 2969,
      "iation": 2970,
      "Ġpow": 2971,
      "ĠRoman": 2972,
      "icate": 2973,
      ")<|": 2974,
      "80": 2975,
      "Ġ1990": 2976,
      "leep": 2977,
      "Ġfilms": 2978,
      "Ġclimate": 2979,
      "aker": 2980,
      "Ġtasks": 2981,
      "ĠSun": 2982,
      "odes": 2983,
      "west": 2984,
      "Ġpromote": 2985,
      "ockey": 2986,
      "Ġ189": 2987,
      "Ġgold": 2988,
      "Ġever": 2989,
      "Ġintegr": 2990,
      "Ġneeded": 2991,
      "rest": 2992,
      "ĠEuropean": 2993,
      "Ġforest": 2994,
      "ĠCont": 2995,
      "Ġenh": 2996,
      "ĠStreet": 2997,
      "ĠBra": 2998,
      "atives": 2999,
      "ico": 3000,
      "Ġschools": 3001,
      "Ġjourney": 3002,
      "eared": 3003,
      "mon": 3004,
      "Ġsau": 3005,
      "thlet": 3006,
      "istics": 3007,
      "Ġpractices": 3008,
      "Ġpaper": 3009,
      "aries": 3010,
      "Ġhope": 3011,
      "Ġask": 3012,
      "Ġsurround": 3013,
      "Ġreach": 3014,
      "To": 3015,
      "name": 3016,
      "Ġdiscuss": 3017,
      "ĠCons": 3018,
      "Ġ2001": 3019,
      "Ġheat": 3020,
      "ĠRoad": 3021,
      "ought": 3022,
      "Ġtell": 3023,
      "ari": 3024,
      "Ġbig": 3025,
      "Ġelement": 3026,
      "ĠAlex": 3027,
      "ĠGermany": 3028,
      "cient": 3029,
      "ĠQue": 3030,
      "ĠLa": 3031,
      "Ġexperiences": 3032,
      "omb": 3033,
      "(\"": 3034,
      "Ġepis": 3035,
      "ĠSk": 3036,
      "Ġapproach": 3037,
      "ĠSte": 3038,
      "Ġcenter": 3039,
      "For": 3040,
      "ula": 3041,
      "Ġwhite": 3042,
      "ĠOlympics": 3043,
      "Ġcross": 3044,
      "Ġscient": 3045,
      "bert": 3046,
      "rown": 3047,
      "Ġlives": 3048,
      "Ġhigher": 3049,
      "vey": 3050,
      "Ġavoid": 3051,
      "Ġcultural": 3052,
      "Ġsyn": 3053,
      "ĠSch": 3054,
      "Ġsil": 3055,
      "Ġ1999": 3056,
      "Ġprior": 3057,
      "Ġfru": 3058,
      "Ġofficial": 3059,
      "Ġadded": 3060,
      "ĠJames": 3061,
      "Ġincreased": 3062,
      "Ġfig": 3063,
      "board": 3064,
      "Ġeffects": 3065,
      "Ġsports": 3066,
      "off": 3067,
      "Ġindepend": 3068,
      "ellow": 3069,
      "Ġrisk": 3070,
      "order": 3071,
      "ule": 3072,
      "wood": 3073,
      "Ġpack": 3074,
      "Ġtaken": 3075,
      "Ġsaw": 3076,
      "Ġfit": 3077,
      "ĠWhat": 3078,
      "Ġnovel": 3079,
      "word": 3080,
      "Ġsecurity": 3081,
      "duc": 3082,
      "airs": 3083,
      "Ġste": 3084,
      "Ġmale": 3085,
      "ĠĠĠĠĠ": 3086,
      "Ġarg": 3087,
      "Ġappoint": 3088,
      "Ġparen": 3089,
      "Ġap": 3090,
      "Ġexplore": 3091,
      "ĠDuring": 3092,
      "aps": 3093,
      "ĠDavid": 3094,
      "Ġfarm": 3095,
      "Ġfounded": 3096,
      "Ġusually": 3097,
      "Ġelectric": 3098,
      "inary": 3099,
      "Ġtoday": 3100,
      "Ġconduct": 3101,
      "ĠDon": 3102,
      "Ġlittle": 3103,
      "Ġentire": 3104,
      "Ġunderstanding": 3105,
      "ston": 3106,
      "ports": 3107,
      "âĢĶ": 3108,
      "Ġtou": 3109,
      "Ġitems": 3110,
      "Ġopportunities": 3111,
      "lying": 3112,
      "Ġmonths": 3113,
      "gen": 3114,
      "Ġrul": 3115,
      "iece": 3116,
      "iol": 3117,
      "Ġaward": 3118,
      "ably": 3119,
      "Ġwide": 3120,
      "Ġlength": 3121,
      "ĠAssociation": 3122,
      "Ġround": 3123,
      "Ġfar": 3124,
      "Ġpurp": 3125,
      "aid": 3126,
      "Ġdam": 3127,
      "cy": 3128,
      "Ġdigital": 3129,
      "isions": 3130,
      "Ġterms": 3131,
      "Ġmilitary": 3132,
      "Ġcast": 3133,
      "ĠRepublic": 3134,
      "ĠAustralian": 3135,
      "osition": 3136,
      "Ġsongs": 3137,
      "ĠGener": 3138,
      "Ġflavor": 3139,
      "Ġrelease": 3140,
      "ites": 3141,
      "Ġvalues": 3142,
      "uild": 3143,
      "hens": 3144,
      "ctions": 3145,
      "Ġbrother": 3146,
      "onse": 3147,
      "Ġquickly": 3148,
      "ellig": 3149,
      "ĠUnion": 3150,
      "ccording": 3151,
      "Ġ1980": 3152,
      "now": 3153,
      "uments": 3154,
      "wh": 3155,
      "ĠMy": 3156,
      "field": 3157,
      "Ġrelated": 3158,
      "Ġincreasing": 3159,
      "ĠWhile": 3160,
      "ĠFrance": 3161,
      "ĠRecords": 3162,
      "otes": 3163,
      "Ġproblem": 3164,
      "Ġupon": 3165,
      "Ġmove": 3166,
      "Ġmid": 3167,
      "Ġformed": 3168,
      "Ġearn": 3169,
      "Ġcomplete": 3170,
      "Ġemer": 3171,
      "Ġparty": 3172,
      "Ġknowledge": 3173,
      "Ġsource": 3174,
      "hib": 3175,
      "Ġfire": 3176,
      "ests": 3177,
      "Ġinvolved": 3178,
      "Ġthought": 3179,
      "Ġstrategies": 3180,
      "Ġgoal": 3181,
      "Ġpage": 3182,
      "Ġexec": 3183,
      "Ġkind": 3184,
      "Ġattract": 3185,
      "Ġweb": 3186,
      "Ġbehind": 3187,
      "Ġaccur": 3188,
      "stitute": 3189,
      "zz": 3190,
      "aint": 3191,
      "Ġobs": 3192,
      "Ġstations": 3193,
      "osing": 3194,
      "Ġscience": 3195,
      "Ġwood": 3196,
      "Ġfail": 3197,
      "Ġsubject": 3198,
      "Ġmother": 3199,
      "que": 3200,
      "Ġrate": 3201,
      "aughter": 3202,
      "'ll": 3203,
      "bol": 3204,
      "friend": 3205,
      "Ġconcept": 3206,
      "icro": 3207,
      "Ġsales": 3208,
      "ĠKingdom": 3209,
      "urt": 3210,
      "atory": 3211,
      "ĠSu": 3212,
      "ĠChe": 3213,
      "Ġcertain": 3214,
      "Ġcontribut": 3215,
      "come": 3216,
      "Ġloss": 3217,
      "incip": 3218,
      "inner": 3219,
      "ĠBel": 3220,
      "ĠRober": 3221,
      "ĠHall": 3222,
      "ython": 3223,
      "Ġjoined": 3224,
      "Ġeither": 3225,
      "Pe": 3226,
      "Pl": 3227,
      "Ad": 3228,
      "year": 3229,
      "Ġfish": 3230,
      "ili": 3231,
      "Ġcollege": 3232,
      "Ġmer": 3233,
      "Ġconditions": 3234,
      "Ġidea": 3235,
      "ounter": 3236,
      "Ġmatch": 3237,
      "ĠGreat": 3238,
      "ĠMor": 3239,
      "ume": 3240,
      "rag": 3241,
      "Ġrecipe": 3242,
      "Ġassociated": 3243,
      "selves": 3244,
      "abit": 3245,
      "ris": 3246,
      "Ġinstead": 3247,
      "Ġesp": 3248,
      "Ġspeed": 3249,
      "ĠRich": 3250,
      "Ġnav": 3251,
      "ĠâĢĶ": 3252,
      "ĠGovern": 3253,
      "Ġorganization": 3254,
      "Ġnecessary": 3255,
      "Ġconcern": 3256,
      "Ġwin": 3257,
      "ufact": 3258,
      "illing": 3259,
      "iful": 3260,
      "ĠGeorge": 3261,
      "Ġingredients": 3262,
      "itude": 3263,
      "izes": 3264,
      "aging": 3265,
      "Ġparts": 3266,
      "ĠBlack": 3267,
      "ĠTV": 3268,
      "Ġshows": 3269,
      "Ġpan": 3270,
      "esign": 3271,
      "rec": 3272,
      "Ġhimself": 3273,
      "Ġmanufact": 3274,
      "Ġparticularly": 3275,
      "Generate": 3276,
      "List": 3277,
      "ĠSim": 3278,
      "Ġbreat": 3279,
      "ĠAward": 3280,
      "Ġanimals": 3281,
      "Ġclaim": 3282,
      "Ġoffice": 3283,
      "Ġreturned": 3284,
      "yp": 3285,
      "Ġ2012": 3286,
      "\")": 3287,
      "lo": 3288,
      "ago": 3289,
      "Ġclose": 3290,
      "Ġcommit": 3291,
      "Ġ21": 3292,
      "oved": 3293,
      "Ġdisplay": 3294,
      "Ġemployees": 3295,
      "etic": 3296,
      "Ġdebut": 3297,
      "Ġbox": 3298,
      "Ġcalcul": 3299,
      "Ġfeedback": 3300,
      "Ġcontinue": 3301,
      "ructions": 3302,
      "elebr": 3303,
      "Ġdefe": 3304,
      "Ġefficient": 3305,
      "ĠRail": 3306,
      "Ġge": 3307,
      "Ġinvolves": 3308,
      "ĠCanadian": 3309,
      "Ġcoach": 3310,
      "rel": 3311,
      "Ġtransportation": 3312,
      "Ġplann": 3313,
      "Ġcred": 3314,
      "Ġfall": 3315,
      "ening": 3316,
      "ety": 3317,
      "Ġdecision": 3318,
      "ĠClub": 3319,
      "Ġnews": 3320,
      "ounced": 3321,
      "earch": 3322,
      "Ġmoment": 3323,
      "Ġaverage": 3324,
      "Ġ1998": 3325,
      "ij": 3326,
      "ears": 3327,
      "ooth": 3328,
      "Ġsauce": 3329,
      "ĠFirst": 3330,
      "Treat": 3331,
      "Ġdou": 3332,
      "ĠSum": 3333,
      "Ġappeared": 3334,
      "iverse": 3335,
      "oul": 3336,
      "Ġvisual": 3337,
      "Ġcosts": 3338,
      "Ġstudent": 3339,
      "Ġunc": 3340,
      "195": 3341,
      "ena": 3342,
      "ĠScott": 3343,
      "ecially": 3344,
      "ĠCommun": 3345,
      "Ġapplication": 3346,
      "CA": 3347,
      "Ġ40": 3348,
      "Ġinnov": 3349,
      "itz": 3350,
      "ĠPal": 3351,
      "Ġsustainable": 3352,
      "Ġtax": 3353,
      "ĠMal": 3354,
      "Ġspent": 3355,
      "rought": 3356,
      "ĠSar": 3357,
      "ĠNet": 3358,
      "ĠMag": 3359,
      "Ġhowever": 3360,
      "Ġful": 3361,
      "ĠFrom": 3362,
      "Ġelse": 3363,
      "rote": 3364,
      "rian": 3365,
      "Ġcomes": 3366,
      "Ġdaily": 3367,
      "28": 3368,
      "Ġdescribed": 3369,
      "etimes": 3370,
      "ĠMary": 3371,
      "amm": 3372,
      "Ġenough": 3373,
      "ĠPaul": 3374,
      "Ġattempt": 3375,
      "Ġlif": 3376,
      "astic": 3377,
      "volution": 3378,
      "At": 3379,
      "Ġmass": 3380,
      "Ġachieve": 3381,
      "ĠIsland": 3382,
      "Ġveh": 3383,
      "Ġexpress": 3384,
      "Ġbehavior": 3385,
      "Ġlikely": 3386,
      "And": 3387,
      "ician": 3388,
      "Ġimportance": 3389,
      "Ġrenewable": 3390,
      "Ġcand": 3391,
      "Ġconstruction": 3392,
      "Ġrelationships": 3393,
      "ado": 3394,
      "ĠMount": 3395,
      "olf": 3396,
      "Ġfamous": 3397,
      "Ġaltern": 3398,
      "Treaties": 3399,
      "omas": 3400,
      "ĠLou": 3401,
      "ils": 3402,
      "Ġslow": 3403,
      "Ġboard": 3404,
      "ĠIts": 3405,
      "ĠCompany": 3406,
      "ĠCor": 3407,
      "Ġpowerful": 3408,
      "Ġlooking": 3409,
      "use": 3410,
      "Ġaffect": 3411,
      "Ġdat": 3412,
      "Ġcause": 3413,
      "Ġ//": 3414,
      "chan": 3415,
      "Ġalgorithm": 3416,
      "orial": 3417,
      "Ġcompleted": 3418,
      "ER": 3419,
      "Ġglobal": 3420,
      "John": 3421,
      "Ġneigh": 3422,
      "Ġrelationship": 3423,
      "che": 3424,
      "Ġrunning": 3425,
      "ĠList": 3426,
      "Ġchick": 3427,
      "ademy": 3428,
      "ĠJack": 3429,
      "Ġcollect": 3430,
      "venue": 3431,
      "ĠBay": 3432,
      "Ġcolors": 3433,
      "amer": 3434,
      "Ġhealthcare": 3435,
      "Ġfactors": 3436,
      "house": 3437,
      "Ġrelig": 3438,
      "Ġten": 3439,
      "27": 3440,
      "ĠDivision": 3441,
      "irtual": 3442,
      "Ġet": 3443,
      "Ġhous": 3444,
      "Ġcheese": 3445,
      "Ġrequired": 3446,
      "ĠCour": 3447,
      "Ġmarried": 3448,
      "Ġattention": 3449,
      "Ġcop": 3450,
      "Ġoutside": 3451,
      "ĠUs": 3452,
      "Ġplants": 3453,
      "raw": 3454,
      "iec": 3455,
      "Ġfight": 3456,
      "Ġfoot": 3457,
      "Ġorganizations": 3458,
      "iers": 3459,
      "ĠAngel": 3460,
      "ĠSo": 3461,
      "ĠPat": 3462,
      "Ġfeeling": 3463,
      "Comp": 3464,
      "Ġcommunities": 3465,
      "imum": 3466,
      "van": 3467,
      "Ġdone": 3468,
      "ĠTrans": 3469,
      "Ġactivity": 3470,
      "100": 3471,
      "erve": 3472,
      "Ġnegative": 3473,
      "Ġ2014": 3474,
      "ĠFootball": 3475,
      "Ġrecorded": 3476,
      "Ġmonth": 3477,
      "arly": 3478,
      "Ġelection": 3479,
      "Ġsection": 3480,
      "oke": 3481,
      "Ġ1996": 3482,
      "Ġquestions": 3483,
      "ĠPri": 3484,
      "berg": 3485,
      "Ġrestaur": 3486,
      "Ġallowing": 3487,
      "string": 3488,
      "Ġking": 3489,
      "Ġrespect": 3490,
      "nd": 3491,
      "Ġplaces": 3492,
      "ension": 3493,
      "Ġespecially": 3494,
      "ĠMex": 3495,
      "Ġmention": 3496,
      "ricult": 3497,
      "Ġ1997": 3498,
      "Ġdocument": 3499,
      "rect": 3500,
      "estival": 3501,
      "ĠWash": 3502,
      "She": 3503,
      "Ġdraw": 3504,
      "//": 3505,
      "sy": 3506,
      "Ġchampions": 3507,
      "ĠGames": 3508,
      "Ġradio": 3509,
      "Ġresponse": 3510,
      "Ġsociety": 3511,
      "Ġ2013": 3512,
      "Ġacqu": 3513,
      "Ġbott": 3514,
      "roll": 3515,
      "Ġtypically": 3516,
      "ios": 3517,
      "Ġemb": 3518,
      "ĠWestern": 3519,
      "Ġassist": 3520,
      "Ġmedical": 3521,
      "Ġ2016": 3522,
      "Ġmessage": 3523,
      "Ġegg": 3524,
      "ux": 3525,
      "Ġwhy": 3526,
      "ĠCouncil": 3527,
      "Ġ27": 3528,
      "ĠSal": 3529,
      "uate": 3530,
      "range": 3531,
      "Ġ2015": 3532,
      "ĠSl": 3533,
      "Ġchanged": 3534,
      "ĠServ": 3535,
      "Ġ23": 3536,
      "ĠRoyal": 3537,
      "Ġbuy": 3538,
      "Ġcomfort": 3539,
      "uated": 3540,
      "ustr": 3541,
      "Ġfront": 3542,
      "yr": 3543,
      "Ġ188": 3544,
      "Ġprivate": 3545,
      "Ġprote": 3546,
      "Ġice": 3547,
      "hing": 3548,
      "Ġleague": 3549,
      "ĠPresident": 3550,
      "Ġtrue": 3551,
      "Ġspir": 3552,
      "Ġcard": 3553,
      "Ġoccur": 3554,
      "Ġder": 3555,
      "Ġeffectively": 3556,
      "riate": 3557,
      "Ġball": 3558,
      "kn": 3559,
      "Ġcontains": 3560,
      "Ġproblems": 3561,
      "enge": 3562,
      "ĠYour": 3563,
      "Ġconvers": 3564,
      "Ġadop": 3565,
      "Ġhit": 3566,
      "ĠOut": 3567,
      "Ġmedal": 3568,
      "Ġdate": 3569,
      "Ġvict": 3570,
      "Ġinstall": 3571,
      "People": 3572,
      "Ġfavor": 3573,
      "Ġchann": 3574,
      "Ġdog": 3575,
      "liam": 3576,
      "Ġtree": 3577,
      "Ġcat": 3578,
      "Ġmovement": 3579,
      "194": 3580,
      "anded": 3581,
      "ĠInst": 3582,
      "Ġlonger": 3583,
      "Ġeverything": 3584,
      "Ġsatis": 3585,
      "Ġabs": 3586,
      "ffer": 3587,
      "idents": 3588,
      "Ġtransl": 3589,
      "Ġ1970": 3590,
      "Ġfollowed": 3591,
      "ĠCentral": 3592,
      "Ġsay": 3593,
      "Ġattack": 3594,
      "Ġimages": 3595,
      "ean": 3596,
      "Ġartists": 3597,
      "ĠInter": 3598,
      "Ġsalt": 3599,
      "Living": 3600,
      "Ġgar": 3601,
      "Ġfile": 3602,
      "Ġ22": 3603,
      "Ġpatterns": 3604,
      "ĠArmy": 3605,
      "ĠMusic": 3606,
      "ĠRem": 3607,
      "Ġcru": 3608,
      "lusion": 3609,
      "Ġhor": 3610,
      "ipment": 3611,
      "Ġblue": 3612,
      "men": 3613,
      "like": 3614,
      "Ġancient": 3615,
      "Ġ187": 3616,
      "Ġmethods": 3617,
      "Ġwhether": 3618,
      "liament": 3619,
      "Ġseem": 3620,
      "icated": 3621,
      "ares": 3622,
      "eg": 3623,
      "ranch": 3624,
      "Ġthemselves": 3625,
      "ext": 3626,
      "ields": 3627,
      "iter": 3628,
      "ĠAv": 3629,
      "Ġsleep": 3630,
      "ĠFre": 3631,
      "ĠChristian": 3632,
      "Ġplatforms": 3633,
      "Ġprep": 3634,
      "Ġcurrently": 3635,
      "Ġinstit": 3636,
      "ĠMart": 3637,
      "Ġ2018": 3638,
      "Ġdeaths": 3639,
      "tar": 3640,
      "Ġteac": 3641,
      "Ġrace": 3642,
      "ologies": 3643,
      "ocol": 3644,
      "atin": 3645,
      "ibrary": 3646,
      "mary": 3647,
      "Ġsoon": 3648,
      "Ġsymbol": 3649,
      "ribe": 3650,
      "ready": 3651,
      "Ġstudies": 3652,
      "eters": 3653,
      "Ġcapital": 3654,
      "za": 3655,
      "ĠTex": 3656,
      "ĠCenter": 3657,
      "ategy": 3658,
      "Ġbud": 3659,
      "ĠEarth": 3660,
      "ĠChina": 3661,
      "ĠDem": 3662,
      "Ġcontain": 3663,
      "Ġut": 3664,
      "Ġsomeone": 3665,
      "Ġcompetition": 3666,
      "Ġpresident": 3667,
      "Ġwrote": 3668,
      "ection": 3669,
      "ixt": 3670,
      "Ġfem": 3671,
      "Ġadjust": 3672,
      "Ġforms": 3673,
      "Ġdevices": 3674,
      "Ġweight": 3675,
      "ĠCath": 3676,
      "Ġwife": 3677,
      "Ġcelebr": 3678,
      "ka": 3679,
      "Ġleaves": 3680,
      "Ġbuildings": 3681,
      "overs": 3682,
      "Ġchurch": 3683,
      "ceed": 3684,
      "Ġpath": 3685,
      "ĠZeal": 3686,
      "Ġcool": 3687,
      "Ġcarbon": 3688,
      "Ġaim": 3689,
      "ĠUK": 3690,
      "aught": 3691,
      "ĠTurk": 3692,
      "igate": 3693,
      "ya": 3694,
      "inct": 3695,
      "ieces": 3696,
      "unction": 3697,
      "Ġriver": 3698,
      "ĠJapanese": 3699,
      "issions": 3700,
      "Ġoutput": 3701,
      "AR": 3702,
      "ĠMichael": 3703,
      "Ġoriginally": 3704,
      "Ġcream": 3705,
      "Ġformat": 3706,
      "burg": 3707,
      "ception": 3708,
      "Ġded": 3709,
      "ternet": 3710,
      "Ġ()": 3711,
      "aling": 3712,
      "ĠZealand": 3713,
      "Ġtransform": 3714,
      "Ġrelevant": 3715,
      "]<|": 3716,
      "Ġprincip": 3717,
      "Ġcontact": 3718,
      "Ġaccept": 3719,
      "not": 3720,
      "elligence": 3721,
      "Ġ28": 3722,
      "Ġ1995": 3723,
      "ties": 3724,
      "Ġcollection": 3725,
      "Ġdiv": 3726,
      "Ġprojects": 3727,
      "Ġlarger": 3728,
      "Ġeventually": 3729,
      "Ġwa": 3730,
      "igation": 3731,
      "Sh": 3732,
      "irm": 3733,
      "Ġbeautiful": 3734,
      "Ġwaste": 3735,
      "Ġprimary": 3736,
      "utive": 3737,
      "heast": 3738,
      "ĠGreen": 3739,
      "ev": 3740,
      "Ġissue": 3741,
      "Ġcivil": 3742,
      "bour": 3743,
      "Ġbutter": 3744,
      "Ġlimited": 3745,
      "Ġinstr": 3746,
      "Ġmanage": 3747,
      "Ġenvironmental": 3748,
      "Ġoperations": 3749,
      "ĠFranc": 3750,
      "arden": 3751,
      "rics": 3752,
      "ams": 3753,
      "Ġvegetables": 3754,
      "Ġgenerate": 3755,
      "amic": 3756,
      "Ġ2020": 3757,
      "ĠMil": 3758,
      "Ġ26": 3759,
      "nel": 3760,
      "Ġsweet": 3761,
      "Ġvoice": 3762,
      "ribute": 3763,
      "ĠLaw": 3764,
      "ĠJos": 3765,
      "Ġrecent": 3766,
      "Ġactive": 3767,
      "Ġbackground": 3768,
      "Ġgas": 3769,
      "leg": 3770,
      "ĠWashington": 3771,
      "ĠGroup": 3772,
      "Ġproduce": 3773,
      "ulated": 3774,
      "Ġstates": 3775,
      "Ġblock": 3776,
      "pped": 3777,
      "Ġapprox": 3778,
      "Ġrailway": 3779,
      "Ġ2019": 3780,
      "Ġalready": 3781,
      "Ġinj": 3782,
      "Ġcommer": 3783,
      "26": 3784,
      "Ġimage": 3785,
      "ĠAfrica": 3786,
      "iency": 3787,
      "Ġbirth": 3788,
      "icious": 3789,
      "Ġbrought": 3790,
      "ota": 3791,
      "Ġchoose": 3792,
      "Ġengaging": 3793,
      "Ġeyes": 3794,
      "Ġtrees": 3795,
      "ribution": 3796,
      "ĠOnce": 3797,
      "ĠGreek": 3798,
      "ademic": 3799,
      "Ġnumerous": 3800,
      "ida": 3801,
      "ĠEmp": 3802,
      "Ġsurface": 3803,
      "Ġstage": 3804,
      "Ġadminist": 3805,
      "ĠTechn": 3806,
      "iced": 3807,
      "espite": 3808,
      "Ġdish": 3809,
      "29": 3810,
      "craft": 3811,
      "Ġsubs": 3812,
      "Ġannounced": 3813,
      "Ġsort": 3814,
      "Ġlands": 3815,
      "cean": 3816,
      "ĠItalian": 3817,
      "Ġgave": 3818,
      "ĠHen": 3819,
      "Ġbank": 3820,
      "____": 3821,
      "sych": 3822,
      "Ġpiece": 3823,
      "Ġmodels": 3824,
      "Ġsummer": 3825,
      "rug": 3826,
      "With": 3827,
      "Ġbeauty": 3828,
      "Ġwhole": 3829,
      "rab": 3830,
      "Ġstar": 3831,
      "Ġ186": 3832,
      "Ġpredict": 3833,
      "ĠScot": 3834,
      "Ġreflect": 3835,
      "ĠMet": 3836,
      "gar": 3837,
      "olit": 3838,
      "Ġapplications": 3839,
      "used": 3840,
      "Ġmovie": 3841,
      "writ": 3842,
      "Ġserving": 3843,
      "Ġefforts": 3844,
      "ĠAcademy": 3845,
      "unk": 3846,
      "gers": 3847,
      "Ġmobile": 3848,
      "ĠFr": 3849,
      "ronic": 3850,
      "Ġspread": 3851,
      "isco": 3852,
      "Ġquestion": 3853,
      "illa": 3854,
      "ĠIm": 3855,
      "Ġextra": 3856,
      "ĠSocial": 3857,
      "Ġstories": 3858,
      "book": 3859,
      "Ġpepper": 3860,
      "Ġhighly": 3861,
      "Ġcreative": 3862,
      "Ġver": 3863,
      "Ph": 3864,
      "Ġfeet": 3865,
      "atre": 3866,
      "Ġ2017": 3867,
      "Ġrather": 3868,
      "Ġsea": 3869,
      "Ġtraffic": 3870,
      "Ġpoem": 3871,
      "ocr": 3872,
      "ĠSen": 3873,
      "Ġrank": 3874,
      "Ġdecided": 3875,
      "inese": 3876,
      "add": 3877,
      "Ġbelow": 3878,
      "NA": 3879,
      "Ġdirector": 3880,
      "Ġitself": 3881,
      "Ġprice": 3882,
      "ĠLake": 3883,
      "Ġcentral": 3884,
      "room": 3885,
      "Ġelected": 3886,
      "Ġcateg": 3887,
      "Ġpeace": 3888,
      "ĠMac": 3889,
      "Ġ1960": 3890,
      "vement": 3891,
      "Ġsetting": 3892,
      "],": 3893,
      "Ġcontract": 3894,
      "Here": 3895,
      "arc": 3896,
      "arily": 3897,
      "Ġweather": 3898,
      "Ġ1994": 3899,
      "Ġ1992": 3900,
      "Ġregard": 3901,
      "known": 3902,
      "Early": 3903,
      "Ġprogramming": 3904,
      "ĠTexas": 3905,
      "ption": 3906,
      "ĠAfrican": 3907,
      "Ġtom": 3908,
      "Ġbasketball": 3909,
      "When": 3910,
      "rief": 3911,
      "ĠRobert": 3912,
      "ĠGeneral": 3913,
      "Ġmotiv": 3914,
      "Ġtransfer": 3915,
      "roy": 3916,
      "ĠCap": 3917,
      "Ġstrategy": 3918,
      "ervation": 3919,
      "Ġforce": 3920,
      "Ġdifference": 3921,
      "ĠSystem": 3922,
      "ĠBest": 3923,
      "Ġgirl": 3924,
      "ĠThat": 3925,
      "Ġ==": 3926,
      "Ġalmost": 3927,
      "arts": 3928,
      "These": 3929,
      "ny": 3930,
      "tic": 3931,
      "Ġmunicipality": 3932,
      "Ġsus": 3933,
      "Ġisland": 3934,
      "ĠColumb": 3935,
      "ini": 3936,
      "istan": 3937,
      "ĠMake": 3938,
      "Ġthr": 3939,
      "etry": 3940,
      "iring": 3941,
      "Ġdistance": 3942,
      "eks": 3943,
      "ĠDay": 3944,
      "lier": 3945,
      "Ġstarting": 3946,
      "ht": 3947,
      "porary": 3948,
      "Ġpieces": 3949,
      "vention": 3950,
      "ĠVir": 3951,
      "ducation": 3952,
      "hold": 3953,
      "set": 3954,
      "Ġeasily": 3955,
      "ala": 3956,
      "FL": 3957,
      "Ġsche": 3958,
      "eph": 3959,
      "Ġcorn": 3960,
      "isl": 3961,
      "Ġconclusion": 3962,
      "Ġ60": 3963,
      "Ġcompon": 3964,
      "azine": 3965,
      "unt": 3966,
      "Ġperformed": 3967,
      "Ġwoman": 3968,
      "Ġlink": 3969,
      "akers": 3970,
      "ĠPlay": 3971,
      "Ġparents": 3972,
      "rad": 3973,
      "ounds": 3974,
      "km": 3975,
      "Ġdeveloping": 3976,
      "ĠAut": 3977,
      "Ġbur": 3978,
      "ĠSociety": 3979,
      "ĠImp": 3980,
      "Ġgot": 3981,
      "ederal": 3982,
      "Ġgrand": 3983,
      "Ġscreen": 3984,
      "olk": 3985,
      "imal": 3986,
      "II": 3987,
      "Ġmark": 3988,
      "alle": 3989,
      "Ġsem": 3990,
      "Ġpric": 3991,
      "Ġlived": 3992,
      "col": 3993,
      "Ġlines": 3994,
      "Ġgraph": 3995,
      "ĠVict": 3996,
      "Ġsave": 3997,
      "Ġequipment": 3998,
      "Ġult": 3999,
      "193": 4000,
      "Ġcritical": 4001,
      "lor": 4002,
      "ĠGold": 4003,
      "Ġeconomy": 4004,
      "Name": 4005,
      "istry": 4006,
      "Ġalthough": 4007,
      "opping": 4008,
      "Ġadding": 4009,
      "mond": 4010,
      "Ġrob": 4011,
      "la": 4012,
      "Ġallowed": 4013,
      "ĠMont": 4014,
      "igned": 4015,
      "life": 4016,
      "ĠMiss": 4017,
      "ags": 4018,
      "Ġdemon": 4019,
      "ĠInstitute": 4020,
      "Ġ**": 4021,
      "Ġconflic": 4022,
      "Ġvocals": 4023,
      "friendly": 4024,
      "ĠRock": 4025,
      "gn": 4026,
      "ĠSing": 4027,
      "So": 4028,
      "Ġsounds": 4029,
      "Ġsummary": 4030,
      "atoes": 4031,
      "antic": 4032,
      "Ġappointed": 4033,
      "Ġstaff": 4034,
      "rehens": 4035,
      "Ġtrust": 4036,
      "Ġbecoming": 4037,
      "andom": 4038,
      "Ġgreater": 4039,
      "umber": 4040,
      "Ġcell": 4041,
      "Ġesc": 4042,
      "Ġtim": 4043,
      "Ġsmooth": 4044,
      "Ġserve": 4045,
      "Ġtrain": 4046,
      "New": 4047,
      "Ġstandard": 4048,
      "ĠBill": 4049,
      "Ġtrying": 4050,
      "Ġintroduced": 4051,
      "ww": 4052,
      "Ġevol": 4053,
      "ĠWil": 4054,
      "Ġsafety": 4055,
      "ĠGrand": 4056,
      "Ġessay": 4057,
      "Ġchicken": 4058,
      "Given": 4059,
      "ĠTom": 4060,
      "ners": 4061,
      "fess": 4062,
      "ĠJava": 4063,
      "By": 4064,
      "road": 4065,
      "Ġbudget": 4066,
      "Ġstruct": 4067,
      "Ġwrite": 4068,
      "Ġchem": 4069,
      "Ġpoll": 4070,
      "Ġqual": 4071,
      "ications": 4072,
      "ancing": 4073,
      "Ġsometimes": 4074,
      "'ve": 4075,
      "atively": 4076,
      "Ġhighest": 4077,
      "Ġselect": 4078,
      "oo": 4079,
      "Ġnames": 4080,
      "iding": 4081,
      "Ġdaughter": 4082,
      "Ġsigned": 4083,
      "That": 4084,
      "Ġaware": 4085,
      "ospital": 4086,
      "Ġsequ": 4087,
      "ona": 4088,
      "asp": 4089,
      "Ġanx": 4090,
      "adium": 4091,
      "Ġimag": 4092,
      "ulations": 4093,
      "Ġfast": 4094,
      "Ġdance": 4095,
      "AS": 4096,
      "ĠCourt": 4097,
      "But": 4098,
      "ĠFrank": 4099,
      "ĠIr": 4100,
      "ĠBen": 4101,
      "Ġbowl": 4102,
      "sec": 4103,
      "ĠJust": 4104,
      "Ġlot": 4105,
      "Ġforward": 4106,
      "Ġemotional": 4107,
      "edy": 4108,
      "ycle": 4109,
      "uit": 4110,
      "Ġleader": 4111,
      "Ġcities": 4112,
      "Ġhol": 4113,
      "Ġeight": 4114,
      "ĠCharles": 4115,
      "Ġrights": 4116,
      "Ġadvert": 4117,
      "td": 4118,
      "Ġ2021": 4119,
      "oys": 4120,
      "Ġdrum": 4121,
      "Ġaspect": 4122,
      "opped": 4123,
      "oses": 4124,
      "change": 4125,
      "Ġcommonly": 4126,
      "Ġtouch": 4127,
      "Desc": 4128,
      "Ġ1991": 4129,
      "orage": 4130,
      "Ġreb": 4131,
      "Ġtren": 4132,
      "45": 4133,
      "Ġop": 4134,
      "Ġ1993": 4135,
      "Ġexperiment": 4136,
      "icago": 4137,
      "Ġreached": 4138,
      "Ġpurpose": 4139,
      "mosp": 4140,
      "ĠMany": 4141,
      "ĠRad": 4142,
      "Ġmiles": 4143,
      "rie": 4144,
      "ĠThomas": 4145,
      "Ġviol": 4146,
      "ĠHealth": 4147,
      "Ġdegree": 4148,
      "Ġtalk": 4149,
      "ĠLouis": 4150,
      "uth": 4151,
      "Ġsmaller": 4152,
      "ĠPython": 4153,
      "Ġmatter": 4154,
      "Ġadvent": 4155,
      "Ġfeatured": 4156,
      "ĠDevelop": 4157,
      "Ġskin": 4158,
      "Ġwriter": 4159,
      "reland": 4160,
      "Ġdyn": 4161,
      "Ġweeks": 4162,
      "acc": 4163,
      "Ġdream": 4164,
      "ĠSpanish": 4165,
      "phas": 4166,
      "Ġremains": 4167,
      "Ġjournal": 4168,
      "aly": 4169,
      "log": 4170,
      "Ġsav": 4171,
      "ores": 4172,
      "Ġmechan": 4173,
      "Ġstream": 4174,
      "Ġtrip": 4175,
      "Ġtrade": 4176,
      "Ġadvanced": 4177,
      "Ġfund": 4178,
      "Ġplans": 4179,
      "TV": 4180,
      "Ġbalance": 4181,
      "ĠMel": 4182,
      "urban": 4183,
      "quality": 4184,
      "Ġagre": 4185,
      "Ġcoast": 4186,
      "Ġadapt": 4187,
      "Ġremained": 4188,
      "oral": 4189,
      "ĠKh": 4190,
      "Ġapprop": 4191,
      "Ġjud": 4192,
      "ĠTown": 4193,
      "Ġdiscovered": 4194,
      "Ġmeasure": 4195,
      "ĠParis": 4196,
      "Ġengagement": 4197,
      "right": 4198,
      "ogle": 4199,
      "lear": 4200,
      "Ġprec": 4201,
      "Ġhands": 4202,
      "Ġtables": 4203,
      "Ġvia": 4204,
      "ĠRob": 4205,
      "Ġvirtual": 4206,
      "ĠArch": 4207,
      "Ġletter": 4208,
      "ĠMod": 4209,
      "ĠMad": 4210,
      "Ġansw": 4211,
      "Ġyourself": 4212,
      "Ġstatement": 4213,
      "oper": 4214,
      "ĠJew": 4215,
      "Ġlearned": 4216,
      "Ġreading": 4217,
      "ilies": 4218,
      "Ġcaused": 4219,
      "ĠCatholic": 4220,
      "ĠName": 4221,
      "Ġcooking": 4222,
      "ĠLos": 4223,
      "ĠChampionship": 4224,
      "Ġepisode": 4225,
      "Ġproperty": 4226,
      "Ġemotions": 4227,
      "En": 4228,
      "Ġevidence": 4229,
      "rim": 4230,
      "rem": 4231,
      "Ġstrength": 4232,
      "ĠRo": 4233,
      "Ġapproximately": 4234,
      "arter": 4235,
      "LE": 4236,
      "Ġreact": 4237,
      "Ġguide": 4238,
      "Ġherself": 4239,
      "ffee": 4240,
      "iller": 4241,
      "Ġthreat": 4242,
      "ournament": 4243,
      "Ġoption": 4244,
      "Ġseven": 4245,
      "Ġfinished": 4246,
      "Ġtask": 4247,
      "Step": 4248,
      "ĠSmith": 4249,
      "Ġpick": 4250,
      "Ġ29": 4251,
      "ĠCong": 4252,
      "Ġimmed": 4253,
      "Ġfinally": 4254,
      "Ġiniti": 4255,
      "Ġdang": 4256,
      "ada": 4257,
      "Ġbeginning": 4258,
      "Ġphone": 4259,
      "Ġresponsible": 4260,
      "erry": 4261,
      "band": 4262,
      "iance": 4263,
      "Ġatmosp": 4264,
      "ĠOther": 4265,
      "Ġgenerally": 4266,
      "ixture": 4267,
      "uous": 4268,
      "Ġmentioned": 4269,
      "Ġlack": 4270,
      "Ġruns": 4271,
      "Ġagricult": 4272,
      "Ġmel": 4273,
      "agon": 4274,
      "eff": 4275,
      "Ġroll": 4276,
      "Ġcorrect": 4277,
      "ken": 4278,
      "reme": 4279,
      "tee": 4280,
      "Sp": 4281,
      "umni": 4282,
      "Ġmonitor": 4283,
      "ĠDel": 4284,
      "unior": 4285,
      "aters": 4286,
      "Ġwild": 4287,
      "ĠWinter": 4288,
      "Ġenhance": 4289,
      "Ġmusical": 4290,
      "Ġadvant": 4291,
      "uries": 4292,
      "Ġcomprehens": 4293,
      "))": 4294,
      "ĠDepartment": 4295,
      "Ġbra": 4296,
      "Ġ:": 4297,
      "ĠĠĠĠĠĠĠĠĠĠĠĠĠĠĠĠ": 4298,
      "lim": 4299,
      "ĠOrder": 4300,
      "Ġdetailed": 4301,
      "Ġsand": 4302,
      "Ġdecl": 4303,
      "ĠSummer": 4304,
      "Person": 4305,
      "Ġinfluence": 4306,
      "Ġblood": 4307,
      "Ġartist": 4308,
      "Ġdrive": 4309,
      "ĠChinese": 4310,
      "Ġdirected": 4311,
      "ulate": 4312,
      "ĠIreland": 4313,
      "Ġwatch": 4314,
      "Ġexercise": 4315,
      "ĠEmpire": 4316,
      "Ġsty": 4317,
      "load": 4318,
      "Ġconstant": 4319,
      "Ġestablishments": 4320,
      "udd": 4321,
      "Ġimproving": 4322,
      "Ġconstruct": 4323,
      "oviet": 4324,
      "Ġemp": 4325,
      "iveness": 4326,
      "anta": 4327,
      "ero": 4328,
      "rd": 4329,
      "ĠGod": 4330,
      "Ġdry": 4331,
      "ola": 4332,
      "Ġeveryone": 4333,
      "Ġsch": 4334,
      "ĠMark": 4335,
      "Ġhyd": 4336,
      "Ġmission": 4337,
      "Ġpercent": 4338,
      "Ġones": 4339,
      "orning": 4340,
      "Ġhistorical": 4341,
      "Ġmiddle": 4342,
      "Ġleaving": 4343,
      "ashion": 4344,
      "Ġrealized": 4345,
      "Ġshown": 4346,
      "If": 4347,
      "Ġsen": 4348,
      "Ġapprec": 4349,
      "Ġsugar": 4350,
      "Ġmeasures": 4351,
      "Ġtreatment": 4352,
      "Ġharm": 4353,
      "ĠCarol": 4354,
      "ective": 4355,
      "Ġsolutions": 4356,
      "ĠSuper": 4357,
      "BA": 4358,
      "Ġtaste": 4359,
      "Ġdivid": 4360,
      "Ġrain": 4361,
      "Ġexhib": 4362,
      "Ġmanager": 4363,
      "ishop": 4364,
      "Ġchoice": 4365,
      "Ġrev": 4366,
      "90": 4367,
      "Ġcommercial": 4368,
      "ros": 4369,
      "ĠPeter": 4370,
      "Ġ$<<": 4371,
      "Ã§": 4372,
      "Ġclosed": 4373,
      "Ġship": 4374,
      "ĠSecond": 4375,
      "Ġindependent": 4376,
      "ĠAngeles": 4377,
      "Ġleave": 4378,
      "Ġ1989": 4379,
      "Ġremain": 4380,
      "ĠAlso": 4381,
      "ĠMuseum": 4382,
      "Ġopportunity": 4383,
      "ĠVictor": 4384,
      "rig": 4385,
      "ĠItaly": 4386,
      "Ġeasier": 4387,
      "utch": 4388,
      "Ġlanguages": 4389,
      "inners": 4390,
      "Ġdetermine": 4391,
      "75": 4392,
      "uable": 4393,
      "Ġdecisions": 4394,
      "AT": 4395,
      "Ġappl": 4396,
      "Ġemphas": 4397,
      "Ġtechnologies": 4398,
      "Ġgrew": 4399,
      "ĠMo": 4400,
      "Ġgarlic": 4401,
      "iences": 4402,
      "ste": 4403,
      "Ġplaced": 4404,
      "ightly": 4405,
      "Ġnewsp": 4406,
      "ĠDan": 4407,
      "down": 4408,
      "ersey": 4409,
      "Ġbrown": 4410,
      "ĠVirgin": 4411,
      "Ġshared": 4412,
      "hi": 4413,
      "Ġmemory": 4414,
      "Ġsess": 4415,
      "azz": 4416,
      "ĠNot": 4417,
      "ĠChicago": 4418,
      "bit": 4419,
      "inent": 4420,
      "dent": 4421,
      "ĠPenn": 4422,
      "|>\"": 4423,
      "Ġdemonstr": 4424,
      "ien": 4425,
      "Ġpurchase": 4426,
      "Ġprotein": 4427,
      "Ġdidn": 4428,
      "acing": 4429,
      "CT": 4430,
      "Ġinside": 4431,
      "Ġdeal": 4432,
      "arian": 4433,
      "gian": 4434,
      "rupt": 4435,
      "De": 4436,
      "ĠHill": 4437,
      "Ġseek": 4438,
      "Ġgetting": 4439,
      "35": 4440,
      "Ġsolution": 4441,
      "Ġmixture": 4442,
      "Ġ1988": 4443,
      "Ġforces": 4444,
      "Ġwhose": 4445,
      "ply": 4446,
      "Ġrich": 4447,
      "Ġbit": 4448,
      "Ġdisease": 4449,
      "Ġsubsequ": 4450,
      "Ġtow": 4451,
      "ocks": 4452,
      "ĠMinister": 4453,
      "Te": 4454,
      "incial": 4455,
      "Ġprob": 4456,
      "Ġspl": 4457,
      "fulness": 4458,
      "Ġpolicy": 4459,
      "Ġfil": 4460,
      "Ġbroadcast": 4461,
      "Ġreceive": 4462,
      "hester": 4463,
      "Ġdefin": 4464,
      "fl": 4465,
      "embly": 4466,
      "more": 4467,
      "Ġdress": 4468,
      "ĠMem": 4469,
      "ĠTheir": 4470,
      "Ġdead": 4471,
      "zil": 4472,
      "onic": 4473,
      "ĠTor": 4474,
      "ette": 4475,
      "2000": 4476,
      "ĠClass": 4477,
      "\":": 4478,
      "Ġdiet": 4479,
      "term": 4480,
      "Ġacademic": 4481,
      "Ġobjects": 4482,
      "ĠResearch": 4483,
      "encies": 4484,
      "fully": 4485,
      "IN": 4486,
      "ĠWhite": 4487,
      "verse": 4488,
      "Ġlabel": 4489,
      "itable": 4490,
      "Ġbound": 4491,
      "Ġtri": 4492,
      "Ġconstit": 4493,
      "igr": 4494,
      "ĠGra": 4495,
      "ĠKn": 4496,
      "Ġpresence": 4497,
      "Ġreplaced": 4498,
      "asion": 4499,
      "ĠSqu": 4500,
      "ĠLeg": 4501,
      "Ġdom": 4502,
      "ĠBrown": 4503,
      "Ġ(\"": 4504,
      "Ġfocused": 4505,
      "Ġfinish": 4506,
      "Ġsquare": 4507,
      "ĠColumbia": 4508,
      "ipped": 4509,
      "ello": 4510,
      "Ġturned": 4511,
      "Ġdi": 4512,
      "imb": 4513,
      "Ġpressure": 4514,
      "Ġju": 4515,
      "place": 4516,
      "Ġexcell": 4517,
      "ders": 4518,
      "atur": 4519,
      "ĠBus": 4520,
      "Ġtherap": 4521,
      "ĠRichard": 4522,
      "Ġrecommendations": 4523,
      "ĠFlor": 4524,
      "isp": 4525,
      "Ġanxiety": 4526,
      "ĠSol": 4527,
      "Ġintelligence": 4528,
      "Ġphil": 4529,
      "Ġdemand": 4530,
      "Ġstorage": 4531,
      "Ġstatus": 4532,
      "ĠEach": 4533,
      "ĠHam": 4534,
      "ĠFore": 4535,
      "Ġproperties": 4536,
      "Ġpassed": 4537,
      "Ġpurs": 4538,
      "Ġcouldn": 4539,
      "Ġarchitecture": 4540,
      "Ġremaining": 4541,
      "Â°": 4542,
      "Ġnorm": 4543,
      "bre": 4544,
      "ĠMass": 4545,
      "Ġefficiency": 4546,
      "Ġdevice": 4547,
      "rastructure": 4548,
      "Ġcars": 4549,
      "Ġbelieve": 4550,
      "SE": 4551,
      "Ġhappy": 4552,
      "onom": 4553,
      "Ġchallenge": 4554,
      "Ġplays": 4555,
      "Ġmilk": 4556,
      "inger": 4557,
      "Ġfilled": 4558,
      "Ġcases": 4559,
      "Ġang": 4560,
      "Ġpict": 4561,
      "Ġshap": 4562,
      "ĠStar": 4563,
      "36": 4564,
      "ĠCam": 4565,
      "Ġsituation": 4566,
      "Ġroute": 4567,
      "Ind": 4568,
      "Ġpersonalized": 4569,
      "ĠDef": 4570,
      "och": 4571,
      "Ġshape": 4572,
      "All": 4573,
      "bl": 4574,
      "Ġoccup": 4575,
      "Ġpal": 4576,
      "ĠSir": 4577,
      "bur": 4578,
      "ĠSarah": 4579,
      "itc": 4580,
      "Ġheavy": 4581,
      "Ge": 4582,
      "mark": 4583,
      "Ġcourt": 4584,
      "SS": 4585,
      "Ġmedium": 4586,
      "Ġhour": 4587,
      "Ġreve": 4588,
      "Ġenter": 4589,
      "Ġattended": 4590,
      "wide": 4591,
      "ĠVol": 4592,
      "Ġinstructions": 4593,
      "ĠLove": 4594,
      "Ġphr": 4595,
      "ifications": 4596,
      "ano": 4597,
      "Ġappropriate": 4598,
      "Ġmuseum": 4599,
      "Ġbread": 4600,
      "Ġfear": 4601,
      "ĠAre": 4602,
      "Ġanimal": 4603,
      "ĠCamp": 4604,
      "ĠAccording": 4605,
      "icks": 4606,
      "ĠRh": 4607,
      "ani": 4608,
      "othing": 4609,
      "ĠKore": 4610,
      "irection": 4611,
      "Ġdepending": 4612,
      "live": 4613,
      "RO": 4614,
      "Ġspirit": 4615,
      "Ġcoffee": 4616,
      "ĠLet": 4617,
      "rep": 4618,
      "Ġrelax": 4619,
      "From": 4620,
      "Ġwinning": 4621,
      "ky": 4622,
      "Ġseasons": 4623,
      "ML": 4624,
      "ĠMr": 4625,
      "Ġgrowing": 4626,
      "Ġpaint": 4627,
      "Ġremove": 4628,
      "Ġtail": 4629,
      "erved": 4630,
      "ube": 4631,
      "Ġsecret": 4632,
      "Ġbattle": 4633,
      "Ġfavorite": 4634,
      "ĠPress": 4635,
      "Ġdirectly": 4636,
      "overy": 4637,
      "iling": 4638,
      "ĠSur": 4639,
      "Ġpreviously": 4640,
      "Ġfaced": 4641,
      "Ġcomprehensive": 4642,
      "ĠDen": 4643,
      "Ġrecords": 4644,
      "Ġattend": 4645,
      "Ġsky": 4646,
      "ĠAtl": 4647,
      "Mus": 4648,
      "Ġdecor": 4649,
      "Ġtheory": 4650,
      "oute": 4651,
      "During": 4652,
      "Ġwanted": 4653,
      "uge": 4654,
      "Ġcrucial": 4655,
      "Ġeval": 4656,
      ".)": 4657,
      "Ġprem": 4658,
      "Ġreported": 4659,
      "Ġsinger": 4660,
      "Ġnearby": 4661,
      "ĠEr": 4662,
      "Ġseat": 4663,
      "70": 4664,
      "works": 4665,
      "itors": 4666,
      "Ġbrief": 4667,
      "ĠBC": 4668,
      "Ġresol": 4669,
      "Ġrequires": 4670,
      "Ġmeeting": 4671,
      "Ġcompos": 4672,
      "Ġemissions": 4673,
      "Ġdelicious": 4674,
      "ican": 4675,
      "uan": 4676,
      "Ġyet": 4677,
      "Ġsmart": 4678,
      "Ġsolar": 4679,
      "ideos": 4680,
      "Ġbelong": 4681,
      "ga": 4682,
      "abase": 4683,
      "ĠSet": 4684,
      "Ġactions": 4685,
      "dis": 4686,
      "Ġhockey": 4687,
      "Ġran": 4688,
      "Ġfamilies": 4689,
      "Ġmountain": 4690,
      "ĠHenry": 4691,
      "Ġclasses": 4692,
      "ĠRussian": 4693,
      "Ġseparate": 4694,
      "Ġslic": 4695,
      "ĠUp": 4696,
      "Ġprocesses": 4697,
      "Ġscene": 4698,
      "Ġpet": 4699,
      "aged": 4700,
      "Ġexplain": 4701,
      "Ġimproved": 4702,
      "ĠHum": 4703,
      "ĠMarket": 4704,
      "ificial": 4705,
      "arsh": 4706,
      "Ġdoing": 4707,
      "Ġscen": 4708,
      "Ġ1984": 4709,
      "Ġuns": 4710,
      "Ġdia": 4711,
      "Ġfully": 4712,
      "rol": 4713,
      "ĠScience": 4714,
      "ingu": 4715,
      "ON": 4716,
      "itt": 4717,
      "Ġinitial": 4718,
      "Ġstop": 4719,
      "++": 4720,
      "ĠOld": 4721,
      "Ġconnection": 4722,
      "Ġrates": 4723,
      "Ġanything": 4724,
      "Ġcit": 4725,
      "ID": 4726,
      "ria": 4727,
      "Ġmoving": 4728,
      "}<|": 4729,
      "Ġ1986": 4730,
      "Ġearlier": 4731,
      "rey": 4732,
      "Ġfigure": 4733,
      "Ġdesp": 4734,
      "Ġterrit": 4735,
      "Ġpsych": 4736,
      "Ġstudio": 4737,
      "Ġexpect": 4738,
      "Ġpolitician": 4739,
      "\"<|": 4740,
      "Ġlaun": 4741,
      "ĠMexico": 4742,
      "text": 4743,
      "eria": 4744,
      "Ġstructures": 4745,
      "ki": 4746,
      "Ġsecure": 4747,
      "Ġsafe": 4748,
      "Ġwidely": 4749,
      "Ġburn": 4750,
      "Ġfields": 4751,
      "Ġstock": 4752,
      "ĠSoviet": 4753,
      "Ġatmosphere": 4754,
      "Ġsouthern": 4755,
      "Ġcarry": 4756,
      "Ġ1987": 4757,
      "ĠCast": 4758,
      "Ġdishes": 4759,
      "Ġowned": 4760,
      "Ġinterview": 4761,
      "Ġlimit": 4762,
      "Ġinteresting": 4763,
      "Ġfourth": 4764,
      "hire": 4765,
      "ĠDis": 4766,
      "Ġbasic": 4767,
      "ĠInt": 4768,
      "Ġinterested": 4769,
      "ĠKar": 4770,
      "Ġbelieved": 4771,
      "Ġoffered": 4772,
      "Ġpair": 4773,
      "Ġcells": 4774,
      "Ġ1985": 4775,
      "Ġtal": 4776,
      "ĠGoogle": 4777,
      "ita": 4778,
      "Ġ185": 4779,
      "ĠChampionships": 4780,
      "Ġrap": 4781,
      "Ġvaluable": 4782,
      "iant": 4783,
      "ĠProvince": 4784,
      "Ġbridge": 4785,
      "Ġrow": 4786,
      "Ġpowers": 4787,
      "Ġbecomes": 4788,
      "Ġengage": 4789,
      "Ġfootballer": 4790,
      "Ġcy": 4791,
      "Ġresulting": 4792,
      "ault": 4793,
      "Ġshowc": 4794,
      "ady": 4795,
      "Ġalgorithms": 4796,
      "Ġrise": 4797,
      "ager": 4798,
      "Ġven": 4799,
      "Ġreason": 4800,
      "ĠUnder": 4801,
      "ĠValley": 4802,
      "Ġcandid": 4803,
      "igan": 4804,
      "Ġinh": 4805,
      "Ġopening": 4806,
      "emporary": 4807,
      "Ġsides": 4808,
      "Ġactress": 4809,
      "Ġu": 4810,
      "ĠSpr": 4811,
      "Ġearth": 4812,
      "Ġpolicies": 4813,
      "Ġbatter": 4814,
      "ĠBur": 4815,
      "Ġplanet": 4816,
      "Ġcontinues": 4817,
      "ĠCreate": 4818,
      "ĠHot": 4819,
      "ĠFe": 4820,
      "areer": 4821,
      "Ġcolumn": 4822,
      "ĠÂ": 4823,
      "ĠJersey": 4824,
      "Ġwear": 4825,
      "Ġhelping": 4826,
      "ĠEducation": 4827,
      "Ġinsights": 4828,
      "Ġplanning": 4829,
      "Ġdouble": 4830,
      "Ġdescript": 4831,
      "ĠStr": 4832,
      "azing": 4833,
      "Ġequal": 4834,
      "Ġarran": 4835,
      "Ġawarded": 4836,
      "ĠMur": 4837,
      "Ġathlet": 4838,
      "aks": 4839,
      "Ġinfrastructure": 4840,
      "cel": 4841,
      "Ġreligious": 4842,
      "ĠMax": 4843,
      "ĠGood": 4844,
      "Ġonto": 4845,
      "ĠNorthern": 4846,
      "Ġhandle": 4847,
      "icians": 4848,
      "Col": 4849,
      "Ġnorthern": 4850,
      "Ġsets": 4851,
      "Ġschol": 4852,
      "ĠAp": 4853,
      "Ġcontrast": 4854,
      "ĠJo": 4855,
      "Is": 4856,
      "Ġ2022": 4857,
      "Ġmur": 4858,
      "FA": 4859,
      "erem": 4860,
      "ĠPac": 4861,
      "va": 4862,
      "Ġgiving": 4863,
      "Ġwonder": 4864,
      "Or": 4865,
      "gent": 4866,
      "Ġexcept": 4867,
      "Ġappearance": 4868,
      "oons": 4869,
      "uis": 4870,
      "Ġpromoting": 4871,
      "acity": 4872,
      "inder": 4873,
      "Ġeth": 4874,
      "ĠFilm": 4875,
      "Ġ31": 4876,
      "itle": 4877,
      "Ġvideos": 4878,
      "icine": 4879,
      "Ġunits": 4880,
      "Ġbey": 4881,
      "Ġfemale": 4882,
      "ĠOff": 4883,
      "500": 4884,
      "being": 4885,
      "Ġborder": 4886,
      "Ġeffort": 4887,
      "Ġpainting": 4888,
      "Ã¸": 4889,
      "Ġgain": 4890,
      "Ġwriters": 4891,
      "ĠHistor": 4892,
      "eries": 4893,
      "class": 4894,
      "Ġpatient": 4895,
      "ĠPublic": 4896,
      "Ġtried": 4897,
      "ĠExp": 4898,
      ":**": 4899,
      "Ġhair": 4900,
      "ĠYear": 4901,
      "Ġbeyond": 4902,
      "dule": 4903,
      "ĠParliament": 4904,
      "Ġcombination": 4905,
      "Se": 4906,
      "vis": 4907,
      "Ġsuggestions": 4908,
      "Ġcampaigns": 4909,
      "Ġcompared": 4910,
      "Ġglass": 4911,
      "Ġworkers": 4912,
      "Ġanalyze": 4913,
      "ying": 4914,
      "Ġvalid": 4915,
      "('": 4916,
      "well": 4917,
      "alities": 4918,
      "Ġ1982": 4919,
      "eck": 4920,
      "Ġexpected": 4921,
      "Ġpartner": 4922,
      "Ġguid": 4923,
      "ĠSwed": 4924,
      "Ġadult": 4925,
      "comes": 4926,
      "Ġregions": 4927,
      "ĠScotland": 4928,
      "ipl": 4929,
      "ĠOur": 4930,
      "Ġrestaurant": 4931,
      "ĠCat": 4932,
      "ĠCho": 4933,
      "Ġinvestment": 4934,
      "Ġregularly": 4935,
      "://": 4936,
      "Ġblog": 4937,
      "ban": 4938,
      "Ġscript": 4939,
      "ĠIll": 4940,
      "Ġcombined": 4941,
      "Ġreferred": 4942,
      "Ġlon": 4943,
      "Am": 4944,
      "Ġurban": 4945,
      "level": 4946,
      "rees": 4947,
      "ĠHaw": 4948,
      "ĠMa": 4949,
      "Ġbright": 4950,
      "Ġtournament": 4951,
      "resp": 4952,
      "Ġ1983": 4953,
      "ifying": 4954,
      "Ġdestroy": 4955,
      "uilding": 4956,
      "Ġencourage": 4957,
      "Ġfollows": 4958,
      "ĠAsia": 4959,
      "Ġdamage": 4960,
      "Ġreturns": 4961,
      "Ġmeditation": 4962,
      "48": 4963,
      "tics": 4964,
      "Ġfruit": 4965,
      "Ġalumni": 4966,
      "ĠArts": 4967,
      "Ġfashion": 4968,
      "ensity": 4969,
      "Ġlegal": 4970,
      "Ġprocessing": 4971,
      "Ġmetal": 4972,
      "ĠCD": 4973,
      "ĠTer": 4974,
      "ĠTime": 4975,
      "Ġvary": 4976,
      "ylvan": 4977,
      "Ġdifferences": 4978,
      "words": 4979,
      "Ġbed": 4980,
      "Ġec": 4981,
      "Ġ1976": 4982,
      "Ġhumans": 4983,
      "ĠFlorida": 4984,
      "Ġden": 4985,
      "Ġtheme": 4986,
      "ĠSaint": 4987,
      "iday": 4988,
      "Ġdescription": 4989,
      "hemat": 4990,
      "Ġreduced": 4991,
      "Ġpages": 4992,
      "nes": 4993,
      "Ġmusc": 4994,
      "where": 4995,
      "ella": 4996,
      "Ġpolice": 4997,
      "Ġrice": 4998,
      "Ġcondition": 4999,
      "Ġ1950": 5000,
      "Ġdecre": 5001,
      "Ġ1979": 5002,
      "Ġflex": 5003,
      "Ġbass": 5004,
      "efore": 5005,
      "gl": 5006,
      "Ġdistinct": 5007,
      "anguage": 5008,
      "Ġsignificantly": 5009,
      "chest": 5010,
      "Ġappeal": 5011,
      "Ġthemes": 5012,
      "Ġvehicles": 5013,
      "ĠDet": 5014,
      "abilities": 5015,
      "lude": 5016,
      "Ġfinding": 5017,
      "Of": 5018,
      "Ġinterp": 5019,
      "idden": 5020,
      "Ġrepe": 5021,
      "ĠBre": 5022,
      "ĠJim": 5023,
      "arp": 5024,
      "ĠPet": 5025,
      "apers": 5026,
      "Ġprofession": 5027,
      "ship": 5028,
      "Ġliterature": 5029,
      "Ġinvent": 5030,
      "ĠĠĠĠĠĠĠĠĠĠĠĠĠĠĠ": 5031,
      "ĠWater": 5032,
      "Ġeggs": 5033,
      "ĠCr": 5034,
      "Ġutil": 5035,
      "Ġincome": 5036,
      "Ġtesting": 5037,
      "Ġpreferences": 5038,
      "ĠWood": 5039,
      "ĠOh": 5040,
      "ÅŁ": 5041,
      "osen": 5042,
      "Ġstreet": 5043,
      "ĠDirect": 5044,
      "Ġmagazine": 5045,
      "ĠTake": 5046,
      "Ġselected": 5047,
      "Ġunit": 5048,
      "iano": 5049,
      "Ġcommunicate": 5050,
      "gia": 5051,
      "Ġrefers": 5052,
      "Ġthick": 5053,
      "Ġidentity": 5054,
      "Ã¤": 5055,
      "erb": 5056,
      "ĠSil": 5057,
      "Ġdivision": 5058,
      "Ġhop": 5059,
      "enty": 5060,
      "ourses": 5061,
      "Ġreality": 5062,
      "Ġrules": 5063,
      "ĠOlympic": 5064,
      "Ġstars": 5065,
      "ST": 5066,
      "ĠAnn": 5067,
      "fit": 5068,
      "Ġalternative": 5069,
      "char": 5070,
      "Ġcolon": 5071,
      "unte": 5072,
      "alse": 5073,
      "Ġhabit": 5074,
      "Ġpassage": 5075,
      "elled": 5076,
      "Ġhighlight": 5077,
      "enses": 5078,
      "ĠBrazil": 5079,
      "Ġdirection": 5080,
      "ĠLife": 5081,
      "Ġloyal": 5082,
      "ĠWind": 5083,
      "osaur": 5084,
      "ĠTim": 5085,
      "Ġlandsc": 5086,
      "33": 5087,
      "ĠElect": 5088,
      "uten": 5089,
      "...": 5090,
      "ĠService": 5091,
      "rows": 5092,
      "Ġroutine": 5093,
      "Ġquant": 5094,
      "ĠBig": 5095,
      "roduction": 5096,
      "uing": 5097,
      "Ġobtain": 5098,
      "ura": 5099,
      "ĠOl": 5100,
      "Ġtracks": 5101,
      "Ġoffering": 5102,
      "Ġfair": 5103,
      "ĠPan": 5104,
      "Ġfro": 5105,
      "Ġpatients": 5106,
      "ĠBob": 5107,
      "ocal": 5108,
      "iable": 5109,
      "water": 5110,
      "Ġcannot": 5111,
      "Ġclients": 5112,
      "Ġfif": 5113,
      "Ġscore": 5114,
      "Ġvan": 5115,
      "2006": 5116,
      "Ġsnow": 5117,
      "Ġ80": 5118,
      "=<<": 5119,
      "Ġindustries": 5120,
      "Ġcovered": 5121,
      "Ġscientific": 5122,
      "|-": 5123,
      "ocolate": 5124,
      "orough": 5125,
      "ĠAwards": 5126,
      "bridge": 5127,
      "ĠTwo": 5128,
      "Ġbul": 5129,
      "ĠTour": 5130,
      "Ġconv": 5131,
      "Ġrequirements": 5132,
      "ĠWales": 5133,
      "ĠFound": 5134,
      "Ġloop": 5135,
      "Ġmyst": 5136,
      "Ġ1972": 5137,
      "ĠAP": 5138,
      "Ġmaster": 5139,
      "aked": 5140,
      "Ġast": 5141,
      "Ġcrick": 5142,
      "Ġrecognition": 5143,
      "Eng": 5144,
      "inated": 5145,
      "ĠSince": 5146,
      "Ġstra": 5147,
      "Ġcamer": 5148,
      "rael": 5149,
      "Ġfeat": 5150,
      "Ġoven": 5151,
      "Ġ1981": 5152,
      "oration": 5153,
      "ĠRailway": 5154,
      "Ġnarr": 5155,
      "Ġcreation": 5156,
      "Ġchallenging": 5157,
      "Ġentered": 5158,
      "Ġroles": 5159,
      "osoph": 5160,
      "Ġrequest": 5161,
      "Ġrepresented": 5162,
      "oes": 5163,
      "Ġyog": 5164,
      "ylvania": 5165,
      "Ġsimply": 5166,
      "Ġmorning": 5167,
      "fficial": 5168,
      "Ġaircraft": 5169,
      "Ġsister": 5170,
      "Ġconsequ": 5171,
      "Ġrespond": 5172,
      "Ġcoming": 5173,
      "ĠMain": 5174,
      "Ġinterests": 5175,
      "Ġconsists": 5176,
      "Ġrat": 5177,
      "Ġthing": 5178,
      "Ġvisitors": 5179,
      "Ġconcerns": 5180,
      "Ġdepend": 5181,
      "ibly": 5182,
      "ĠSpec": 5183,
      "Ġsupply": 5184,
      "rich": 5185,
      "Ġthoughts": 5186,
      "ĠDu": 5187,
      "Ġcoup": 5188,
      "Ġalone": 5189,
      "Ġbaking": 5190,
      "Ġlisted": 5191,
      "Ġheard": 5192,
      "Ġheav": 5193,
      "Ġworth": 5194,
      "ĠSub": 5195,
      "free": 5196,
      "ĠMartin": 5197,
      "Ġthus": 5198,
      "Ġclassic": 5199,
      "ĠMost": 5200,
      "wa": 5201,
      "ĠMore": 5202,
      "Ġexcellent": 5203,
      "Ġbrain": 5204,
      "Ġstudied": 5205,
      "kins": 5206,
      "Ġproducer": 5207,
      "Ġproductivity": 5208,
      "amily": 5209,
      "Ġdescribe": 5210,
      "Ġsuffer": 5211,
      "erman": 5212,
      "oma": 5213,
      "utely": 5214,
      "Ġpen": 5215,
      "Ġtwice": 5216,
      "ĠOver": 5217,
      "Ġuniversity": 5218,
      "ĠAnother": 5219,
      "Ġexpert": 5220,
      "Ġdesigns": 5221,
      "fficient": 5222,
      "ĠBattle": 5223,
      "ifically": 5224,
      "ĠBlue": 5225,
      "Ġmaximum": 5226,
      "Ġoperating": 5227,
      "Ġconnected": 5228,
      "ĠHistory": 5229,
      "ĠMiddle": 5230,
      "Ġrandom": 5231,
      "Ġcentre": 5232,
      "Ġexercises": 5233,
      "Ġconver": 5234,
      "Ġsport": 5235,
      "Ġinstance": 5236,
      "Ġentertain": 5237,
      "iately": 5238,
      "Ġmeal": 5239,
      "ĠPeople": 5240,
      "Ġafford": 5241,
      "gypt": 5242,
      "ĠPo": 5243,
      "ugby": 5244,
      "ocratic": 5245,
      "Ġremember": 5246,
      "Ġheight": 5247,
      "Ġgarden": 5248,
      "ĠMer": 5249,
      "Ġpowder": 5250,
      "ittle": 5251,
      "ĠHel": 5252,
      "aby": 5253,
      "ĠScottish": 5254,
      "Ġbaseball": 5255,
      "Ġexpression": 5256,
      "ĠLand": 5257,
      "Ġestim": 5258,
      "Ġarm": 5259,
      "AC": 5260,
      "Ġshopping": 5261,
      "Ġannual": 5262,
      "ta": 5263,
      "eech": 5264,
      "Ġoutcomes": 5265,
      "Ġassess": 5266,
      "AN": 5267,
      "Ġprimarily": 5268,
      "ĠProgram": 5269,
      "Ġadvertising": 5270,
      "olutely": 5271,
      "ĠMu": 5272,
      "Ġsoil": 5273,
      "Ġ1978": 5274,
      "dentify": 5275,
      "Em": 5276,
      "Ġcancer": 5277,
      "iography": 5278,
      "ĠAlthough": 5279,
      "ĠLab": 5280,
      "Ġinstrument": 5281,
      "unning": 5282,
      "Bl": 5283,
      "urance": 5284,
      "ĠArab": 5285,
      "Ġcold": 5286,
      "--------": 5287,
      "Ġtablesp": 5288,
      "ĠCongress": 5289,
      "roph": 5290,
      "Ġkilled": 5291,
      "ml": 5292,
      "Ġcommand": 5293,
      "mission": 5294,
      "ĠMah": 5295,
      "Ġdedicated": 5296,
      "ulpt": 5297,
      "Ġexperienced": 5298,
      "Ġeye": 5299,
      "Ġmissing": 5300,
      "iled": 5301,
      "Ġlayer": 5302,
      "Ã³n": 5303,
      "da": 5304,
      "Ġcollaboration": 5305,
      "state": 5306,
      "Ġ>": 5307,
      "Career": 5308,
      "Ġlibrary": 5309,
      "achel": 5310,
      "Ġcritic": 5311,
      "ambig": 5312,
      "ishes": 5313,
      "gment": 5314,
      "Ġengineering": 5315,
      "Ġdial": 5316,
      "190": 5317,
      "Ġfunctions": 5318,
      "Ġsuc": 5319,
      "Ġcolle": 5320,
      "Ġexisting": 5321,
      "asted": 5322,
      "Ġjump": 5323,
      "ollowing": 5324,
      "ĠVirginia": 5325,
      "urrent": 5326,
      "Ġris": 5327,
      "ĠJul": 5328,
      "Ġflour": 5329,
      "Ġ1974": 5330,
      "ĠFrancisco": 5331,
      "Ġresist": 5332,
      "ĠFestival": 5333,
      "ĠOrgan": 5334,
      "ourage": 5335,
      "Ġperspect": 5336,
      "Ġtechnique": 5337,
      "Ġmanaged": 5338,
      "ĠCommission": 5339,
      "\">": 5340,
      "ĠSpain": 5341,
      "Ġmagn": 5342,
      "ĠOpen": 5343,
      "Ġdrug": 5344,
      "Ġlaunched": 5345,
      "Ġoutd": 5346,
      "Rec": 5347,
      "Ġdetermined": 5348,
      "Ġextended": 5349,
      "Ġhy": 5350,
      "Ġended": 5351,
      "Ġfix": 5352,
      "Ġminor": 5353,
      "ĠGovernment": 5354,
      "ĠFort": 5355,
      "Describe": 5356,
      "ricts": 5357,
      "met": 5358,
      "Ġinternet": 5359,
      "Ġmeat": 5360,
      "Ġpoor": 5361,
      "ĠSouthern": 5362,
      "Ġalign": 5363,
      "oston": 5364,
      "ĠLine": 5365,
      "ias": 5366,
      "Ġdiss": 5367,
      "ĠLiber": 5368,
      "ĠBu": 5369,
      "Ġrh": 5370,
      "Ġappears": 5371,
      "Ġcourses": 5372,
      "oung": 5373,
      "oves": 5374,
      "ĠAnt": 5375,
      "with": 5376,
      "ĠBook": 5377,
      "Ġprison": 5378,
      "Ġfeelings": 5379,
      "Ġawareness": 5380,
      "ĠForm": 5381,
      "Ġgives": 5382,
      "sylvania": 5383,
      "ĠTurkey": 5384,
      "Ġraised": 5385,
      "Ġchanging": 5386,
      "ĠIrish": 5387,
      "Ġactor": 5388,
      "Ġindic": 5389,
      "Ġimplemented": 5390,
      "ĠSea": 5391,
      "Ġir": 5392,
      "key": 5393,
      "Ġ1975": 5394,
      "Ġcompletely": 5395,
      "burgh": 5396,
      "ĠAlbert": 5397,
      "Ġadministr": 5398,
      "anges": 5399,
      "ye": 5400,
      "Ġdesired": 5401,
      "Ġsalad": 5402,
      "Ġgun": 5403,
      "ambiguation": 5404,
      "ĠDou": 5405,
      "Ġcontribute": 5406,
      "Ġstores": 5407,
      "anted": 5408,
      "irus": 5409,
      "32": 5410,
      "Ġcontext": 5411,
      "Ġready": 5412,
      "Ġstyles": 5413,
      "Ġwestern": 5414,
      "ĠForce": 5415,
      "Ġerror": 5416,
      "Ġabilities": 5417,
      "Ġnotable": 5418,
      "aled": 5419,
      "Ġprefer": 5420,
      "ua": 5421,
      "ĠPak": 5422,
      "outs": 5423,
      "ycling": 5424,
      "ĠKent": 5425,
      "Ġsilver": 5426,
      "Ġretail": 5427,
      "Ġobst": 5428,
      "Ġreviews": 5429,
      "Ġteacher": 5430,
      "ĠProfess": 5431,
      "Ġdespite": 5432,
      "zy": 5433,
      "hedul": 5434,
      "found": 5435,
      "rik": 5436,
      "allery": 5437,
      "Ġmap": 5438,
      "length": 5439,
      "Ġwhom": 5440,
      "isms": 5441,
      "ĠBase": 5442,
      "eek": 5443,
      "Ġdriving": 5444,
      "Ġolive": 5445,
      "rix": 5446,
      "Ġdrink": 5447,
      "Ġhear": 5448,
      "ading": 5449,
      "Ġpractical": 5450,
      "Ġindex": 5451,
      "Ġic": 5452,
      "ensus": 5453,
      "Ġupdated": 5454,
      "Ġmist": 5455,
      "Ġscored": 5456,
      "eline": 5457,
      "Ġyoun": 5458,
      "Ġprompt": 5459,
      "Ġinitially": 5460,
      "Ġflowers": 5461,
      "Ġnuc": 5462,
      "Ġweap": 5463,
      "Ġovercome": 5464,
      "Ġdatabase": 5465,
      "SA": 5466,
      "ĠEastern": 5467,
      "Ġflav": 5468,
      "Ġforeign": 5469,
      "Ġsurrounding": 5470,
      "tra": 5471,
      "ĠMid": 5472,
      "Ġimmediately": 5473,
      "Ġplastic": 5474,
      "Ġorganized": 5475,
      "rance": 5476,
      "Ġultimately": 5477,
      "Ġencounter": 5478,
      "'d": 5479,
      "ĠApple": 5480,
      "ĠBul": 5481,
      "formation": 5482,
      "een": 5483,
      "Ġ500": 5484,
      "Ġlatest": 5485,
      "Ġearned": 5486,
      "ĠQueen": 5487,
      "ĠCook": 5488,
      "ĠLatin": 5489,
      "ĠBritain": 5490,
      "Ġserves": 5491,
      "Ġoperated": 5492,
      "Ġchart": 5493,
      "Ġinteractive": 5494,
      "anda": 5495,
      "ampion": 5496,
      "disambiguation": 5497,
      "under": 5498,
      "Ġresidents": 5499,
      "Ġvot": 5500,
      "adel": 5501,
      "Ġgather": 5502,
      "Ġbond": 5503,
      "ĠGre": 5504,
      "ĠUl": 5505,
      "ĠStart": 5506,
      "Ġrecording": 5507,
      "ĠBank": 5508,
      "ĠPacific": 5509,
      "ĠEgypt": 5510,
      "Ġcontroll": 5511,
      "Film": 5512,
      "bles": 5513,
      "Ġload": 5514,
      "Ġcapacity": 5515,
      "Ġmicro": 5516,
      "Ġshel": 5517,
      "Ġolder": 5518,
      "Ġdivided": 5519,
      "ĠPortug": 5520,
      "ogue": 5521,
      "coming": 5522,
      "emic": 5523,
      "plain": 5524,
      "tenance": 5525,
      "step": 5526,
      "ĠJourn": 5527,
      "Ġsharing": 5528,
      "ĠJoseph": 5529,
      "Ġmatches": 5530,
      "ĠRoute": 5531,
      "ĠLim": 5532,
      "Åį": 5533,
      "ĠWork": 5534,
      "Ġseemed": 5535,
      "ĠMen": 5536,
      "Ġ1968": 5537,
      "Ġmostly": 5538,
      "Ġinfluenced": 5539,
      "ĠCarolina": 5540,
      "ora": 5541,
      "Ġ1977": 5542,
      "Ġpasseng": 5543,
      "ĠBal": 5544,
      "ĠIII": 5545,
      "Ġbought": 5546,
      "Ġdu": 5547,
      "ĠDutch": 5548,
      "Ġ1973": 5549,
      "Ġeducational": 5550,
      "Ġtechnical": 5551,
      "Ġclubs": 5552,
      "ĠPennsylvania": 5553,
      "99": 5554,
      "roc": 5555,
      "acement": 5556,
      "angle": 5557,
      "Ġcreatures": 5558,
      "oday": 5559,
      "Ġsucceed": 5560,
      "Ġwealth": 5561,
      "Ġschedule": 5562,
      "Ġdiverse": 5563,
      "ĠBas": 5564,
      "Ġeat": 5565,
      "Ġbelief": 5566,
      "Ġneighbor": 5567,
      "Le": 5568,
      "rors": 5569,
      "Ġlic": 5570,
      "Ġasked": 5571,
      "asy": 5572,
      "Ġshot": 5573,
      "Ġfloor": 5574,
      "Ġwine": 5575,
      "Ġforced": 5576,
      "Ġtrends": 5577,
      "Ġexpand": 5578,
      "Ġslightly": 5579,
      "Ġfirm": 5580,
      "Ġleadership": 5581,
      "Ġmill": 5582,
      "Ġdoll": 5583,
      "Ġloved": 5584,
      "ĠTen": 5585,
      "Ġsculpt": 5586,
      "Ġsplit": 5587,
      "ĠMat": 5588,
      "ĠVis": 5589,
      "ĠCould": 5590,
      "ĠGal": 5591,
      "Ġdistribution": 5592,
      "Ġrevenue": 5593,
      "Ġstret": 5594,
      "Ġ1964": 5595,
      "Ġ<|": 5596,
      "Ġfort": 5597,
      "ĠHon": 5598,
      "orporation": 5599,
      "Ġamazing": 5600,
      "EO": 5601,
      "Us": 5602,
      "ĠSeries": 5603,
      "Ġspend": 5604,
      "Ġ1971": 5605,
      "ĠEmily": 5606,
      "Ġcatch": 5607,
      "Ġlaunch": 5608,
      "ancy": 5609,
      "Ġbreath": 5610,
      "2005": 5611,
      "ĠCommit": 5612,
      "Ġfacilities": 5613,
      "host": 5614,
      "Ġfitness": 5615,
      "lar": 5616,
      "tr": 5617,
      "Ġ1969": 5618,
      "Ġaffected": 5619,
      "ĠNorway": 5620,
      "aming": 5621,
      "Other": 5622,
      "Ġchair": 5623,
      "ĠConsider": 5624,
      "Ġroot": 5625,
      "faction": 5626,
      "Ġdefeated": 5627,
      "Ġconflict": 5628,
      "ographic": 5629,
      "vements": 5630,
      "Ġchopped": 5631,
      "Ġleads": 5632,
      "Ġeditor": 5633,
      "Ġpollution": 5634,
      "zing": 5635,
      "Ġsenior": 5636,
      "Äģ": 5637,
      "Ġtone": 5638,
      "ĠBoth": 5639,
      "ĠVer": 5640,
      "town": 5641,
      "gon": 5642,
      "ompl": 5643,
      "agement": 5644,
      "estyle": 5645,
      "orders": 5646,
      "Ġ35": 5647,
      "ĠEngine": 5648,
      "lines": 5649,
      "imize": 5650,
      "Ġtexture": 5651,
      "Ġspeech": 5652,
      "Ġbottom": 5653,
      "Ġoperation": 5654,
      "ĠKeep": 5655,
      "Ġpresented": 5656,
      "Ġmajority": 5657,
      "uations": 5658,
      "Ġdepartment": 5659,
      "Ġjoin": 5660,
      "ĠDespite": 5661,
      "Ġflu": 5662,
      "Ġocean": 5663,
      "Ġwinter": 5664,
      "Ġmis": 5665,
      "Ġpaid": 5666,
      "Ġrapid": 5667,
      "edom": 5668,
      "orter": 5669,
      "Ġspr": 5670,
      "Ġchemical": 5671,
      "apter": 5672,
      "Ġtopic": 5673,
      "Ġnation": 5674,
      "Ġspot": 5675,
      "anging": 5676,
      "Ġquery": 5677,
      "Ġfruits": 5678,
      "ipe": 5679,
      "ĠFace": 5680,
      "ati": 5681,
      "ĠTheatre": 5682,
      "Ġwall": 5683,
      "Ġfuel": 5684,
      "Ġthinking": 5685,
      "Ġbirds": 5686,
      "My": 5687,
      "||": 5688,
      "ipping": 5689,
      "ansas": 5690,
      "Ġbegins": 5691,
      "ĠIsrael": 5692,
      "Ġbeat": 5693,
      "ighter": 5694,
      "Ġsingles": 5695,
      "outheast": 5696,
      "Ġcomponents": 5697,
      "usive": 5698,
      "Ġmixed": 5699,
      "cher": 5700,
      "Ġaf": 5701,
      "Ġcitiz": 5702,
      "Ġfeaturing": 5703,
      "shire": 5704,
      "Ġcausing": 5705,
      "Ġpush": 5706,
      "ĠCarl": 5707,
      "Ġimpress": 5708,
      "ĠBroad": 5709,
      "Ġitem": 5710,
      "rial": 5711,
      "Ã¨": 5712,
      "cont": 5713,
      "Ġ</": 5714,
      "Ġswim": 5715,
      "Ġremind": 5716,
      "Ġimpacts": 5717,
      "Ġaccessible": 5718,
      "ĠRadio": 5719,
      "Ġbenefit": 5720,
      "encing": 5721,
      "Ġtaught": 5722,
      "Ġfle": 5723,
      "illy": 5724,
      "ĠNavy": 5725,
      "Ġpossess": 5726,
      "Ġedition": 5727,
      "rid": 5728,
      "Ġcalculate": 5729,
      "Ġactors": 5730,
      "inating": 5731,
      "Ġgoes": 5732,
      "AM": 5733,
      "ype": 5734,
      "arry": 5735,
      "Ġera": 5736,
      "ront": 5737,
      "ira": 5738,
      "Ġschedul": 5739,
      "Ġletters": 5740,
      "Ġox": 5741,
      "heim": 5742,
      "Ġmut": 5743,
      "track": 5744,
      "ĠWal": 5745,
      "ials": 5746,
      "ĠShow": 5747,
      "ĠBoston": 5748,
      "Ġmurder": 5749,
      "isters": 5750,
      "Ġstir": 5751,
      "Ġrule": 5752,
      "odies": 5753,
      "ĠBet": 5754,
      "Ġincorporate": 5755,
      "ila": 5756,
      "ĠLord": 5757,
      "Ġproposed": 5758,
      "Ġinspired": 5759,
      "ĠSecret": 5760,
      "Ġaccompl": 5761,
      "rical": 5762,
      "ĠTest": 5763,
      "iage": 5764,
      "Ġconcent": 5765,
      "Ġbillion": 5766,
      "ĠRussia": 5767,
      "zen": 5768,
      "unct": 5769,
      "Ġreasons": 5770,
      "onym": 5771,
      "Ġdelivery": 5772,
      "Ġchain": 5773,
      "Ġcoord": 5774,
      "ĠRome": 5775,
      "Ġlies": 5776,
      "ĠLong": 5777,
      "Ġanswer": 5778,
      "No": 5779,
      "Ġapart": 5780,
      "aya": 5781,
      "Pop": 5782,
      "inals": 5783,
      "ĠSom": 5784,
      "ether": 5785,
      "Ġchampionship": 5786,
      "Pr": 5787,
      "ĠSa": 5788,
      "ĠCO": 5789,
      "ĠLuc": 5790,
      "Ġextract": 5791,
      "Mar": 5792,
      "exp": 5793,
      "Ġchat": 5794,
      "Ġchannels": 5795,
      "Ġinstitutions": 5796,
      "stein": 5797,
      "stab": 5798,
      "Ġnative": 5799,
      "iana": 5800,
      "Ġretired": 5801,
      "bra": 5802,
      "Ġcrop": 5803,
      "Ġlabor": 5804,
      "Ġpassion": 5805,
      "agonist": 5806,
      "inois": 5807,
      "ĠRet": 5808,
      "Ġincred": 5809,
      "ĠMot": 5810,
      "Ġemployee": 5811,
      "Ġtea": 5812,
      "ĠBridge": 5813,
      "rypt": 5814,
      "Ġillustr": 5815,
      "itter": 5816,
      "body": 5817,
      "SP": 5818,
      "Ġhospital": 5819,
      "Ġsector": 5820,
      "ously": 5821,
      "ĠChild": 5822,
      "flow": 5823,
      "Ġtherapy": 5824,
      "Ġtold": 5825,
      "ĠBoard": 5826,
      "ĠMedia": 5827,
      "Ġrecently": 5828,
      "Ġsubst": 5829,
      "44": 5830,
      "Ġtick": 5831,
      "ĠPakistan": 5832,
      "Ġwalls": 5833,
      "othes": 5834,
      "SC": 5835,
      "input": 5836,
      "ributed": 5837,
      "Ġconducted": 5838,
      "ĠOper": 5839,
      "Ġ1965": 5840,
      "respond": 5841,
      "Ġlooks": 5842,
      "iro": 5843,
      "isher": 5844,
      "Ġhus": 5845,
      "Ġsites": 5846,
      "ĠTeam": 5847,
      "ucky": 5848,
      "Ġeastern": 5849,
      "Ġtopics": 5850,
      "Ġinnovative": 5851,
      "ĠCivil": 5852,
      "ĠIsl": 5853,
      "bed": 5854,
      "hol": 5855,
      "inate": 5856,
      "Add": 5857,
      "Ġactually": 5858,
      "Ġmindfulness": 5859,
      "Ġuseful": 5860,
      "ĠJohnson": 5861,
      "len": 5862,
      "una": 5863,
      "ĠTechnology": 5864,
      "Ġdomin": 5865,
      "ĠNight": 5866,
      "grad": 5867,
      "':": 5868,
      "asure": 5869,
      "oster": 5870,
      "Ġremote": 5871,
      "Ġaspects": 5872,
      "Ġimpl": 5873,
      "ĠCommittee": 5874,
      "kin": 5875,
      "Ġensuring": 5876,
      "inem": 5877,
      "ctors": 5878,
      "Ġcontemporary": 5879,
      "ĠMicro": 5880,
      "unc": 5881,
      "Ġfrequently": 5882,
      "Ġstre": 5883,
      "Ġvariable": 5884,
      "ĠHT": 5885,
      "andon": 5886,
      "ĠAssembly": 5887,
      "Ġdetect": 5888,
      "ĠDi": 5889,
      "Ġinterface": 5890,
      "Ġanti": 5891,
      "tario": 5892,
      "Ġple": 5893,
      "Ġobstac": 5894,
      "ĠTre": 5895,
      "Ġ1967": 5896,
      "Ġwalking": 5897,
      "Don": 5898,
      "resents": 5899,
      "arent": 5900,
      "etts": 5901,
      "Ġanyone": 5902,
      "Ġchance": 5903,
      "Ġteaching": 5904,
      "standing": 5905,
      "Ġcomfortable": 5906,
      "ĠProt": 5907,
      "Ġ90": 5908,
      "ĠPrize": 5909,
      "Wow": 5910,
      "38": 5911,
      "Ġnavigate": 5912,
      "Another": 5913,
      "Ġvast": 5914,
      "achus": 5915,
      "Ġphotos": 5916,
      "orus": 5917,
      "Ġlocations": 5918,
      "gu": 5919,
      "atitude": 5920,
      "ograp": 5921,
      "Ġmainly": 5922,
      "Ġdim": 5923,
      "QL": 5924,
      "iration": 5925,
      "Ġexact": 5926,
      "ulf": 5927,
      "Ġconvey": 5928,
      "count": 5929,
      "Ġbeach": 5930,
      "ĠBir": 5931,
      "mitted": 5932,
      "sole": 5933,
      "ĠOverall": 5934,
      "Ġbranch": 5935,
      "Ġrevolution": 5936,
      "ĠStep": 5937,
      "dr": 5938,
      "ĠHockey": 5939,
      "Ġamb": 5940,
      "ennis": 5941,
      "rier": 5942,
      "Ġchannel": 5943,
      "ĠTop": 5944,
      "String": 5945,
      "Ġâ": 5946,
      "Ġgod": 5947,
      "ĠGeorgia": 5948,
      "Ġphrase": 5949,
      "ĠNews": 5950,
      "ĠSand": 5951,
      "Ġimplementing": 5952,
      "Ġhomes": 5953,
      "ĠThrough": 5954,
      "Ġgoods": 5955,
      "Ġnotes": 5956,
      "Ġacquired": 5957,
      "55": 5958,
      "igen": 5959,
      "ĠCommon": 5960,
      "ais": 5961,
      "Ġvac": 5962,
      "Ġprotection": 5963,
      "Ġtele": 5964,
      "Ġrepresents": 5965,
      "Ġrisks": 5966,
      "Ġcerem": 5967,
      "ĠEv": 5968,
      "rene": 5969,
      "Ġleaders": 5970,
      "part": 5971,
      "thes": 5972,
      "Ġarmy": 5973,
      "Ġrural": 5974,
      "Ġjuice": 5975,
      "ydney": 5976,
      "ĠFinally": 5977,
      "ĠDev": 5978,
      "inations": 5979,
      "Ġstarts": 5980,
      "Ġdro": 5981,
      "uts": 5982,
      "ĠMichigan": 5983,
      "2004": 5984,
      "Ġdepth": 5985,
      "Ġcomposed": 5986,
      "Ġcounty": 5987,
      "Ġfederal": 5988,
      "Ġsusp": 5989,
      "Ġ1966": 5990,
      "Ġarms": 5991,
      "Ġaccurate": 5992,
      "otic": 5993,
      "Ġelev": 5994,
      "ĠLee": 5995,
      "Ġnewspaper": 5996,
      "point": 5997,
      "Ġsupported": 5998,
      "Ġintended": 5999,
      "Ġdoor": 6000,
      "Ġowner": 6001,
      "Ġsex": 6002,
      "Ġunivers": 6003,
      "phone": 6004,
      "abeth": 6005,
      "aka": 6006,
      "Ġsuccessfully": 6007,
      "Ġnutrit": 6008,
      "Ġwasn": 6009,
      "ĠPrem": 6010,
      "Ġartificial": 6011,
      "ĠJunior": 6012,
      "ĠOtt": 6013,
      "Ġcampus": 6014,
      "Ġspecifically": 6015,
      "Ġpartners": 6016,
      "Ġhouses": 6017,
      "ĠPower": 6018,
      "Ġbasis": 6019,
      "Ġsatisf": 6020,
      "34": 6021,
      "Your": 6022,
      "Ġauthen": 6023,
      "Not": 6024,
      "real": 6025,
      "Ġarts": 6026,
      "azon": 6027,
      "yan": 6028,
      "Ġachieved": 6029,
      "37": 6030,
      "ĠEnter": 6031,
      "Ġ1945": 6032,
      "Char": 6033,
      "yo": 6034,
      "Ġfunding": 6035,
      "wegian": 6036,
      "HL": 6037,
      "stone": 6038,
      "ĠOx": 6039,
      "Ġsignificance": 6040,
      "ĠUSA": 6041,
      "nic": 6042,
      "Ġdrama": 6043,
      "According": 6044,
      "han": 6045,
      "Ġcomment": 6046,
      "Ġkept": 6047,
      "Ġrom": 6048,
      "Ġ45": 6049,
      "Ġpriorit": 6050,
      "Ed": 6051,
      "Ġ)": 6052,
      "Ġyellow": 6053,
      "achusetts": 6054,
      "ras": 6055,
      "erts": 6056,
      "Ġfa": 6057,
      "agues": 6058,
      "ĠCoast": 6059,
      "asty": 6060,
      "Inst": 6061,
      "Ġlooked": 6062,
      "Ġpul": 6063,
      "weight": 6064,
      "arrow": 6065,
      "bec": 6066,
      "ĠMos": 6067,
      "oving": 6068,
      "ĠIllinois": 6069,
      "Ġnothing": 6070,
      "osis": 6071,
      ".\"<|": 6072,
      "Ġnearly": 6073,
      "Ġmaintaining": 6074,
      "Ġlaws": 6075,
      "Ġfaster": 6076,
      "Ġends": 6077,
      "Ġtrained": 6078,
      "zech": 6079,
      "Ġprepar": 6080,
      "Ġ1940": 6081,
      "Ġtruly": 6082,
      "Ġcrew": 6083,
      "ded": 6084,
      "Ġsac": 6085,
      "Ġstorm": 6086,
      "inet": 6087,
      "Ġprices": 6088,
      "Ġparties": 6089,
      "Ġcommission": 6090,
      "div": 6091,
      "power": 6092,
      "Ġnine": 6093,
      "Ġchocolate": 6094,
      "ĠBusiness": 6095,
      "Ġusage": 6096,
      "bury": 6097,
      "Ġcounter": 6098,
      "ĠWall": 6099,
      "Ġarrived": 6100,
      "Med": 6101,
      "Ġrot": 6102,
      "Ġban": 6103,
      "Ġmo": 6104,
      "Ġisol": 6105,
      "kl": 6106,
      "ĠTimes": 6107,
      "ĠMach": 6108,
      "Ġexcl": 6109,
      "Ġgained": 6110,
      "lick": 6111,
      "CC": 6112,
      "gs": 6113,
      "hew": 6114,
      "ibilities": 6115,
      "icing": 6116,
      "Ġchief": 6117,
      "Ġcenturies": 6118,
      "Ġedge": 6119,
      "ĠPlan": 6120,
      "Ġvolunte": 6121,
      "Ġsatisfaction": 6122,
      "English": 6123,
      "Ġsoup": 6124,
      "ĠBang": 6125,
      "ĠHome": 6126,
      "ĠColl": 6127,
      "Ġetc": 6128,
      "date": 6129,
      "Ġteasp": 6130,
      "Ġmaintenance": 6131,
      "Ġ1930": 6132,
      "Ġmit": 6133,
      "ĠConf": 6134,
      "ĠOhio": 6135,
      "Ġreput": 6136,
      "Ġseeds": 6137,
      "agram": 6138,
      "Ġjoint": 6139,
      "ĠYoung": 6140,
      "ĠHead": 6141,
      "ĠOntario": 6142,
      "going": 6143,
      "adelph": 6144,
      "Ġstadium": 6145,
      "Script": 6146,
      "Å¡": 6147,
      "IT": 6148,
      "Ġdrop": 6149,
      "ĠThen": 6150,
      "Ġcups": 6151,
      "Ġstrings": 6152,
      "Ġvictory": 6153,
      "Ġcards": 6154,
      "omer": 6155,
      "people": 6156,
      "ĠCard": 6157,
      "Ġtitles": 6158,
      "Ġbegin": 6159,
      "peed": 6160,
      "ongs": 6161,
      "undred": 6162,
      "ĠIslands": 6163,
      "Ġtall": 6164,
      "Ġsell": 6165,
      "ĠEdward": 6166,
      "Ġcorrespond": 6167,
      "wise": 6168,
      "adelphia": 6169,
      "Ġfab": 6170,
      "ental": 6171,
      "amin": 6172,
      "ĠFour": 6173,
      "ĠChoose": 6174,
      "ĠLight": 6175,
      "raction": 6176,
      "ĠWay": 6177,
      "ĠRel": 6178,
      "ĠLear": 6179,
      "ĠAtt": 6180,
      "BS": 6181,
      "ĠHa": 6182,
      "Ġsolve": 6183,
      "ĠJones": 6184,
      "Ġcloud": 6185,
      "ĠData": 6186,
      "Ġreaders": 6187,
      "ĠCross": 6188,
      "Ġflight": 6189,
      "ĠJewish": 6190,
      "ackson": 6191,
      "ĠDevelopment": 6192,
      "Car": 6193,
      "ocated": 6194,
      "39": 6195,
      "ĠEvery": 6196,
      "Ġly": 6197,
      "ĠCro": 6198,
      "Ġkingdom": 6199,
      "sen": 6200,
      "asters": 6201,
      "Ġconsequences": 6202,
      "ĠMatt": 6203,
      "Ġdur": 6204,
      "ayer": 6205,
      "umes": 6206,
      "Ġdiseases": 6207,
      "Ġstraight": 6208,
      "ĠInf": 6209,
      "Ġempt": 6210,
      "umin": 6211,
      "Ġfoods": 6212,
      "Ġjoy": 6213,
      "wan": 6214,
      "Form": 6215,
      "unting": 6216,
      "isation": 6217,
      "Ġshoot": 6218,
      "ĠJac": 6219,
      "Ġgeneration": 6220,
      "Ġadvantage": 6221,
      "win": 6222,
      "Ġdispl": 6223,
      "Ġpurchased": 6224,
      "bsolutely": 6225,
      "Ġmusicians": 6226,
      "Ġmathemat": 6227,
      "Ġhotel": 6228,
      "Ġelectricity": 6229,
      "First": 6230,
      "ĠTem": 6231,
      "agraph": 6232,
      "Ġclassical": 6233,
      "Ġincorporating": 6234,
      "Ġhusband": 6235,
      "cho": 6236,
      "Ġcharge": 6237,
      "icy": 6238,
      "ĠBow": 6239,
      "Ġexchange": 6240,
      "awa": 6241,
      "Ġdisapp": 6242,
      "Ġemerg": 6243,
      "ĠCustom": 6244,
      "ĠDesign": 6245,
      "Ġtowns": 6246,
      "Ġtracking": 6247,
      "Class": 6248,
      "Ġadopt": 6249,
      "marize": 6250,
      "Ġdegrees": 6251,
      "Ġahead": 6252,
      "Ġcontinuous": 6253,
      "Ġcab": 6254,
      "Ġopin": 6255,
      "Ġsympt": 6256,
      "ansion": 6257,
      "Ġsolo": 6258,
      "ĠEll": 6259,
      "aph": 6260,
      "His": 6261,
      "Ġcert": 6262,
      "Ġprotagonist": 6263,
      "Rail": 6264,
      "2003": 6265,
      "ĠConference": 6266,
      "ba": 6267,
      "Ġconstructed": 6268,
      "orph": 6269,
      "no": 6270,
      "ĠPost": 6271,
      "46": 6272,
      "Ġquite": 6273,
      "Ġmedalists": 6274,
      "itchen": 6275,
      "Ġclothing": 6276,
      "Ġsequence": 6277,
      "Ġawards": 6278,
      "Ġscale": 6279,
      "ĠWomen": 6280,
      "ĠOf": 6281,
      "Ġfasc": 6282,
      "Ġoptimize": 6283,
      "Ġquarter": 6284,
      "Ġ70": 6285,
      "ĠMassachusetts": 6286,
      "Ġjobs": 6287,
      "itness": 6288,
      "Ġapplied": 6289,
      "Ġrecognized": 6290,
      "ca": 6291,
      "Mem": 6292,
      "Ġcultures": 6293,
      "atest": 6294,
      "Ġadventure": 6295,
      "ups": 6296,
      "Ġbatt": 6297,
      "rome": 6298,
      "Ġmulti": 6299,
      "Ġengaged": 6300,
      "Ġcauses": 6301,
      "42": 6302,
      "eless": 6303,
      "oli": 6304,
      "Ġboy": 6305,
      "ĠRos": 6306,
      "Ġfell": 6307,
      "Ġhidden": 6308,
      "Ġwr": 6309,
      "Ġcomedy": 6310,
      "Ġcoc": 6311,
      "Ġcarried": 6312,
      "wo": 6313,
      "roduct": 6314,
      "Ġupper": 6315,
      "Ġneighborhood": 6316,
      "chestra": 6317,
      "Ġindustrial": 6318,
      "Ġhero": 6319,
      "Ġplot": 6320,
      "Ġenab": 6321,
      "Ġadvice": 6322,
      "era": 6323,
      "Ġhar": 6324,
      "Ġtend": 6325,
      "estic": 6326,
      "Ġcrow": 6327,
      "They": 6328,
      "Ġhonor": 6329,
      "Ġlandscape": 6330,
      "ÄŁ": 6331,
      "Ġinfluenc": 6332,
      "Ġcapture": 6333,
      "ĠSydney": 6334,
      "ĠHighway": 6335,
      "ĠDub": 6336,
      "Ġlisting": 6337,
      "Ġdisp": 6338,
      "Ġcreates": 6339,
      "amples": 6340,
      "Ġspending": 6341,
      "Ġbird": 6342,
      "lets": 6343,
      "ĠCorn": 6344,
      "ogether": 6345,
      "Ġdraft": 6346,
      "enth": 6347,
      "urer": 6348,
      "Ġserious": 6349,
      "annel": 6350,
      "ĠAlexander": 6351,
      "ĠCub": 6352,
      "ĠEnd": 6353,
      "ĠPrince": 6354,
      "Ġcovers": 6355,
      "import": 6356,
      "ĠKe": 6357,
      "prise": 6358,
      "95": 6359,
      "inch": 6360,
      "Ġbad": 6361,
      "ĠBern": 6362,
      "fast": 6363,
      "ĠGirl": 6364,
      "Ġimplementation": 6365,
      "Ġflo": 6366,
      "Explain": 6367,
      "Ġacid": 6368,
      "Ġreports": 6369,
      "ĠEns": 6370,
      "iga": 6371,
      "Ġperforming": 6372,
      "Ġseconds": 6373,
      "ĠBeach": 6374,
      "Ġproperly": 6375,
      "iors": 6376,
      "ĠJr": 6377,
      "Ġ36": 6378,
      "ĠSports": 6379,
      "ĠBerlin": 6380,
      "ja": 6381,
      "2007": 6382,
      "Ġrenamed": 6383,
      "Ġ32": 6384,
      "47": 6385,
      "abel": 6386,
      "Ġviews": 6387,
      "data": 6388,
      "Ġprofessor": 6389,
      "Ġepisodes": 6390,
      "Ġpu": 6391,
      "Ġ1920": 6392,
      "Ġparticipate": 6393,
      "Ġsettlement": 6394,
      "Ġnomin": 6395,
      "ĠPlace": 6396,
      "lies": 6397,
      "Ġrare": 6398,
      "Ġdefined": 6399,
      "Ġkil": 6400,
      "Ġsubsequently": 6401,
      "PS": 6402,
      "ulty": 6403,
      "rence": 6404,
      "Ġmanufacturing": 6405,
      "ĠAri": 6406,
      "Ġvehicle": 6407,
      "ĠEnc": 6408,
      "Ġsupporting": 6409,
      "ĠPerson": 6410,
      "Ġ2023": 6411,
      "Ġconven": 6412,
      "Ġretire": 6413,
      "ĠKong": 6414,
      "Ġboost": 6415,
      "Olymp": 6416,
      "RE": 6417,
      "ĠAk": 6418,
      "adow": 6419,
      "Ġnoted": 6420,
      "unn": 6421,
      "arriage": 6422,
      "Ġconsult": 6423,
      "Ġeffectiveness": 6424,
      "uted": 6425,
      "Ġstick": 6426,
      "Ġkeeping": 6427,
      "];": 6428,
      "Ġcouncil": 6429,
      "iking": 6430,
      "AA": 6431,
      "Ġtro": 6432,
      "Ġarticles": 6433,
      "ĠConnect": 6434,
      "Sports": 6435,
      "Ġmole": 6436,
      "teen": 6437,
      "Ġassign": 6438,
      "Ġorganic": 6439,
      "Trans": 6440,
      "itely": 6441,
      "ĠChief": 6442,
      "Ġapply": 6443,
      "Ġdiscount": 6444,
      "Ġstandards": 6445,
      "Aust": 6446,
      "athy": 6447,
      "Ġnetworks": 6448,
      "athe": 6449,
      "ĠGree": 6450,
      "related": 6451,
      "mas": 6452,
      "Ġ1963": 6453,
      "Ġcalls": 6454,
      "ela": 6455,
      "ĠFer": 6456,
      "ĠJud": 6457,
      "peror": 6458,
      "ĠLittle": 6459,
      "Ġspaces": 6460,
      "Ġdepart": 6461,
      "Ġstatistics": 6462,
      "ĠPop": 6463,
      "ĠJoe": 6464,
      "Ġofficer": 6465,
      "Ġwins": 6466,
      "Ġcompar": 6467,
      "ads": 6468,
      "arters": 6469,
      "ognitive": 6470,
      "Could": 6471,
      "war": 6472,
      "Ġmeant": 6473,
      "orporate": 6474,
      "Ġgraduated": 6475,
      "ĠMajor": 6476,
      "ĠColor": 6477,
      "Ġprominent": 6478,
      "Ġhousing": 6479,
      "fall": 6480,
      "osure": 6481,
      "Ġpoetry": 6482,
      "Ġexploring": 6483,
      "Ġunion": 6484,
      "ĠCentre": 6485,
      "ĠStand": 6486,
      "ommod": 6487,
      "Ġvivid": 6488,
      "ocation": 6489,
      "ĠFacebook": 6490,
      "West": 6491,
      "from": 6492,
      "ĠWilliams": 6493,
      "Ġagriculture": 6494,
      "Ġmanaging": 6495,
      "Ġfestival": 6496,
      "Ġinternal": 6497,
      "Ġ1962": 6498,
      "bourne": 6499,
      "Ġcuis": 6500,
      "ko": 6501,
      "Ġalongside": 6502,
      "Ġid": 6503,
      "Ġcore": 6504,
      "Absolutely": 6505,
      "Ġcoaches": 6506,
      "Ġcooked": 6507,
      "ĠHuman": 6508,
      "Thank": 6509,
      "ĠVan": 6510,
      "ĠRevolution": 6511,
      "Ġmood": 6512,
      "Ġestate": 6513,
      "Ġsituations": 6514,
      "Ġdoesn": 6515,
      "Prov": 6516,
      "ĠNetwork": 6517,
      "ilit": 6518,
      "abet": 6519,
      "Ġgreatest": 6520,
      "Ġund": 6521,
      "Ġparish": 6522,
      "rooms": 6523,
      "iÄ": 6524,
      "2002": 6525,
      "ttps": 6526,
      "Ġhydro": 6527,
      "Track": 6528,
      "Ġscholars": 6529,
      "Ġversions": 6530,
      "ĠMix": 6531,
      "ĠSunday": 6532,
      "Ġlemon": 6533,
      "Ġastron": 6534,
      "Ġequation": 6535,
      "Ġdiagn": 6536,
      "ĠAvenue": 6537,
      "ĠEliz": 6538,
      "Since": 6539,
      "ĠPoland": 6540,
      "Be": 6541,
      "ĠJan": 6542,
      "atically": 6543,
      "entle": 6544,
      "2001": 6545,
      "Ġcart": 6546,
      "Ġcontributed": 6547,
      "org": 6548,
      "ĠGame": 6549,
      "Ġconsumption": 6550,
      "ih": 6551,
      "Ġfat": 6552,
      "Fin": 6553,
      "Men": 6554,
      "Ġselection": 6555,
      "Ġenem": 6556,
      "Ġunknown": 6557,
      "Ġholds": 6558,
      "Ġstone": 6559,
      "ĠStan": 6560,
      "Ġmanner": 6561,
      "Ġprime": 6562,
      "ĠCreek": 6563,
      "Ġreader": 6564,
      "Ġvolume": 6565,
      "ĠFire": 6566,
      "lishing": 6567,
      "olitan": 6568,
      "Ġestimated": 6569,
      "Ġsymptoms": 6570,
      "Ġregional": 6571,
      "Ġcreativity": 6572,
      "ali": 6573,
      "ĠHistoric": 6574,
      "ĠCorporation": 6575,
      "While": 6576,
      "Ġgenus": 6577,
      "ĠPhiladelphia": 6578,
      "pass": 6579,
      "Ġeating": 6580,
      "ĠBol": 6581,
      "Ġvul": 6582,
      "ĠJournal": 6583,
      "Ġrecommended": 6584,
      "ederation": 6585,
      "Ġcastle": 6586,
      "Ġassistance": 6587,
      "ĠVictoria": 6588,
      "ĠProject": 6589,
      "ĠDie": 6590,
      "Ġsolid": 6591,
      "ĠMike": 6592,
      "Ġchosen": 6593,
      "Ġconsistent": 6594,
      "Ġ%": 6595,
      "ortheast": 6596,
      "ologist": 6597,
      "aska": 6598,
      "Ġreference": 6599,
      "ĠLu": 6600,
      "World": 6601,
      "Ġnote": 6602,
      "Once": 6603,
      "Ġmoments": 6604,
      "Ġfailed": 6605,
      "Ġworldwide": 6606,
      "Ġcompetitive": 6607,
      "Ġmotor": 6608,
      "ĠEconom": 6609,
      "Ġflat": 6610,
      "ĠĠĠĠčĊ": 6611,
      "Ġpand": 6612,
      "etime": 6613,
      "Ġthous": 6614,
      "ommun": 6615,
      "ĠÅ": 6616,
      "Ġhoney": 6617,
      "ĠDar": 6618,
      "Ġ180": 6619,
      "ĠConst": 6620,
      "wich": 6621,
      "Ġmys": 6622,
      "Ġsuitable": 6623,
      "ĠJackson": 6624,
      "Ġclient": 6625,
      "Ġcouple": 6626,
      "Ġpil": 6627,
      "Ġprofessionals": 6628,
      "ĠPot": 6629,
      "Res": 6630,
      "Ġfrequency": 6631,
      "Ġfiction": 6632,
      "Ġperformances": 6633,
      "ĠTok": 6634,
      "ivals": 6635,
      "31": 6636,
      "olis": 6637,
      "making": 6638,
      "Ġstated": 6639,
      "ĠPers": 6640,
      "Ġescape": 6641,
      "Ġcamera": 6642,
      "Ġdeeper": 6643,
      "Ġflavors": 6644,
      "Back": 6645,
      "1999": 6646,
      "sm": 6647,
      "ĠPract": 6648,
      "Ġvision": 6649,
      "adron": 6650,
      "ĠBa": 6651,
      "Ġsays": 6652,
      "ĠDes": 6653,
      "EN": 6654,
      "Ġhyp": 6655,
      "Ġgets": 6656,
      "Ġcontaining": 6657,
      "Ġidentified": 6658,
      "Ġstanding": 6659,
      "uty": 6660,
      "enna": 6661,
      "96": 6662,
      "ĠOffice": 6663,
      "Int": 6664,
      "Ġresulted": 6665,
      "Ġcake": 6666,
      "Ġinvolve": 6667,
      "Ġsuggests": 6668,
      "ĠFoundation": 6669,
      "!\"": 6670,
      "Ġexecutive": 6671,
      "ĠJavaScript": 6672,
      "Ġlake": 6673,
      "Ġinhabit": 6674,
      "Ġheavily": 6675,
      "adian": 6676,
      "ĠBoy": 6677,
      "Ġseems": 6678,
      "Ã±": 6679,
      "Ġmovements": 6680,
      "Ġaccuracy": 6681,
      "Ġcapable": 6682,
      "writer": 6683,
      "Ġphilosoph": 6684,
      "')": 6685,
      "mus": 6686,
      "Ġadap": 6687,
      "Ġdepression": 6688,
      "Ġvegan": 6689,
      "ĠHu": 6690,
      "Ġpassing": 6691,
      "Olympic": 6692,
      "ĠBell": 6693,
      "onto": 6694,
      "Ġparagraph": 6695,
      "Ġexpanded": 6696,
      "Ġadvanc": 6697,
      "Ġfilter": 6698,
      "Design": 6699,
      "Ġ1948": 6700,
      "pping": 6701,
      "aval": 6702,
      "Ġtrains": 6703,
      "ĠGet": 6704,
      "Ġprovince": 6705,
      "85": 6706,
      "Ġcycle": 6707,
      "ĠHor": 6708,
      "Ġstronger": 6709,
      "Ġspons": 6710,
      "ĠEnergy": 6711,
      "Ġteachers": 6712,
      "Ġappearances": 6713,
      "ĠDig": 6714,
      "Ġassociation": 6715,
      "Ġcredit": 6716,
      "Ġloyalty": 6717,
      "ilton": 6718,
      "izza": 6719,
      "ĠDown": 6720,
      "Ġresil": 6721,
      "Ġprepared": 6722,
      "Ġdrums": 6723,
      "Ġengineer": 6724,
      "Ġaffordable": 6725,
      "Ġoutdoor": 6726,
      "Ġclick": 6727,
      "Ġportion": 6728,
      "Ġuniverse": 6729,
      "Ġformation": 6730,
      "Ġtalent": 6731,
      "ĠBudd": 6732,
      "Ġdistricts": 6733,
      "het": 6734,
      "Ġparam": 6735,
      "cious": 6736,
      "Ġod": 6737,
      "Ġlegisl": 6738,
      "Ġliqu": 6739,
      "Ġtransact": 6740,
      "Ġextensive": 6741,
      "ĠCheck": 6742,
      "OS": 6743,
      "oom": 6744,
      "Ġfans": 6745,
      "Ġdates": 6746,
      "Ġnormal": 6747,
      "Ġentertainment": 6748,
      "Ġresearc": 6749,
      "].": 6750,
      "Ġwinner": 6751,
      "Ġcompl": 6752,
      "whel": 6753,
      "Ġshop": 6754,
      "eler": 6755,
      "Ġcontest": 6756,
      "ĠManagement": 6757,
      "Cont": 6758,
      "urd": 6759,
      "Ġvent": 6760,
      "ĠCost": 6761,
      "Ġideal": 6762,
      "ĠCommunity": 6763,
      "?\"": 6764,
      "Ġteaspoon": 6765,
      "soft": 6766,
      "Ġinters": 6767,
      "align": 6768,
      "Ġvisually": 6769,
      "Ġinnovation": 6770,
      "ĠStat": 6771,
      "Ġmemories": 6772,
      "ĠPolish": 6773,
      "Ġimmers": 6774,
      "Ġtransition": 6775,
      "Ġ+=": 6776,
      "Ġ1961": 6777,
      "300": 6778,
      "Some": 6779,
      "ĠVe": 6780,
      "Ġprofile": 6781,
      "net": 6782,
      "yer": 6783,
      "ĠRay": 6784,
      "ĠMuslim": 6785,
      "ĠBBC": 6786,
      "Ġago": 6787,
      "Hello": 6788,
      "itzer": 6789,
      "Ġrecipes": 6790,
      "Gr": 6791,
      "Ġspring": 6792,
      "idential": 6793,
      "reprene": 6794,
      "ĠBaseball": 6795,
      "Ġsend": 6796,
      "ĠArgent": 6797,
      "Out": 6798,
      "Ġbron": 6799,
      "ĠGovernor": 6800,
      "Ġprepare": 6801,
      "Ġhosted": 6802,
      "Ġsurvey": 6803,
      "thur": 6804,
      "Ġguest": 6805,
      "oto": 6806,
      "ĠLater": 6807,
      "ĠKen": 6808,
      "Ġfill": 6809,
      "ador": 6810,
      "Ġmessages": 6811,
      "iy": 6812,
      "file": 6813,
      "Ġaid": 6814,
      "Ġlongest": 6815,
      "Ġsoldiers": 6816,
      "Ġrelatively": 6817,
      "ĠArm": 6818,
      "ĠAmazon": 6819,
      "Ġbreaks": 6820,
      "Ġhistoric": 6821,
      "Ġvulner": 6822,
      "ĠProm": 6823,
      "Ġmountains": 6824,
      "Ġoccasion": 6825,
      "Ġaccident": 6826,
      "ĠCharl": 6827,
      "ĠBon": 6828,
      "ĠStation": 6829,
      "Ġhousehold": 6830,
      "Ġterritory": 6831,
      "Ġfinds": 6832,
      "Ġ1958": 6833,
      "box": 6834,
      "Biography": 6835,
      "ĠPen": 6836,
      "ushed": 6837,
      "Ġabandon": 6838,
      "inity": 6839,
      "Ġengines": 6840,
      "ĠWeb": 6841,
      "49": 6842,
      "Ġparticipants": 6843,
      "Ġpayment": 6844,
      "Ġabsor": 6845,
      "rum": 6846,
      "gredients": 6847,
      "Ġadopted": 6848,
      "Ġyouth": 6849,
      "Ġwebsites": 6850,
      "Ġ1956": 6851,
      "Ã¡n": 6852,
      "Ġfant": 6853,
      "Ġsituated": 6854,
      "CD": 6855,
      "elly": 6856,
      "ĠCa": 6857,
      "Ġserver": 6858,
      "Ġconnections": 6859,
      "Ġappreciate": 6860,
      "ĠAz": 6861,
      "aylor": 6862,
      "gely": 6863,
      "Ġstruggle": 6864,
      "Ġscientists": 6865,
      "Ne": 6866,
      "Ġattacks": 6867,
      "ĠProduct": 6868,
      "Thanks": 6869,
      "Ġinitiatives": 6870,
      "onia": 6871,
      "Ġ1959": 6872,
      "Ġassigned": 6873,
      "MS": 6874,
      "then": 6875,
      "Ġempty": 6876,
      "ĠâĢĺ": 6877,
      "Ġfoss": 6878,
      "ĠJane": 6879,
      "Ġweak": 6880,
      "Ġmovies": 6881,
      "AI": 6882,
      "ĠAsian": 6883,
      "Ġreliable": 6884,
      "backs": 6885,
      "aze": 6886,
      "Ġclosely": 6887,
      "osystem": 6888,
      "ĠIndiana": 6889,
      "Ġsessions": 6890,
      "Ġcitizens": 6891,
      "Ġmyself": 6892,
      "omet": 6893,
      "Ġtherefore": 6894,
      "Ġflood": 6895,
      "Ġupdates": 6896,
      "mod": 6897,
      "Ġinformed": 6898,
      "Ġshowed": 6899,
      "ĠInstead": 6900,
      "ĠAndrew": 6901,
      "iner": 6902,
      "race": 6903,
      "Ġoverwhel": 6904,
      "Notes": 6905,
      "Par": 6906,
      "left": 6907,
      "ĠAthlet": 6908,
      "Ġtomatoes": 6909,
      "Ġbrands": 6910,
      "Ġmotion": 6911,
      "enny": 6912,
      "Ġvocal": 6913,
      "ĠSteve": 6914,
      "Ġpicture": 6915,
      "ilation": 6916,
      "Ġerrors": 6917,
      "ĠFar": 6918,
      "Ġremoved": 6919,
      "Ġfifth": 6920,
      "hus": 6921,
      "Ã£": 6922,
      "style": 6923,
      "see": 6924,
      "stitution": 6925,
      "idae": 6926,
      "Ġelectronic": 6927,
      "Ġelim": 6928,
      "Ġincreasingly": 6929,
      "Ġfigures": 6930,
      "Ġrough": 6931,
      "Ġaccommod": 6932,
      "Ġcharacteristics": 6933,
      "Ġlatter": 6934,
      "oven": 6935,
      "jo": 6936,
      "Ġincent": 6937,
      "Ġadds": 6938,
      "ĠRegion": 6939,
      "Ġcloser": 6940,
      "top": 6941,
      "vin": 6942,
      "Ġanalytics": 6943,
      "ĠGar": 6944,
      "Ġreplace": 6945,
      "Over": 6946,
      "PT": 6947,
      "Ġwaves": 6948,
      "Ġnode": 6949,
      "ĠRam": 6950,
      "innes": 6951,
      "Ġoldest": 6952,
      "Ġsurrounded": 6953,
      "Ġformula": 6954,
      "Ġonion": 6955,
      "Ġyounger": 6956,
      "Ġrepresenting": 6957,
      "Ġincorporated": 6958,
      "gement": 6959,
      "Ġhundred": 6960,
      "ĠJeff": 6961,
      "Despite": 6962,
      "Ġgrav": 6963,
      "();": 6964,
      "ĠMaria": 6965,
      "ĠMountain": 6966,
      "ĠSpecial": 6967,
      "Ġtrou": 6968,
      "65": 6969,
      "ione": 6970,
      "Ġbutton": 6971,
      "oken": 6972,
      "Ġhighway": 6973,
      "ĠWalk": 6974,
      "ishing": 6975,
      "Ġgift": 6976,
      "ighth": 6977,
      "bro": 6978,
      "Ġholding": 6979,
      "Ġsor": 6980,
      "ppers": 6981,
      "Ġbag": 6982,
      "ader": 6983,
      "ĠNFL": 6984,
      "Ġcrime": 6985,
      "Ġinjury": 6986,
      "bot": 6987,
      "ĠWild": 6988,
      "ĠRen": 6989,
      "ĠNether": 6990,
      "anes": 6991,
      "ĠForest": 6992,
      "ĠNorwegian": 6993,
      "Ġresistance": 6994,
      "Ġpotatoes": 6995,
      "Ġalive": 6996,
      "ĉĉ": 6997,
      "Ġwel": 6998,
      "Ġmarkets": 6999,
      "Ġnutri": 7000,
      "Ġlosing": 7001,
      "ĠMind": 7002,
      "ĠOs": 7003,
      "ĠDemocratic": 7004,
      "ĠOxford": 7005,
      "ictional": 7006,
      "Ġcorner": 7007,
      "Qu": 7008,
      "Ġreform": 7009,
      "Ġconvert": 7010,
      "innesota": 7011,
      "ĠCle": 7012,
      "izer": 7013,
      "iments": 7014,
      "sey": 7015,
      "Ġsustainability": 7016,
      "App": 7017,
      "Ġracing": 7018,
      "ĠGen": 7019,
      "ĠDirector": 7020,
      "Ġcuisine": 7021,
      "pool": 7022,
      "Ġgenerated": 7023,
      "Ġargument": 7024,
      "])": 7025,
      "ĠCur": 7026,
      "Ġinstruction": 7027,
      "Ġreaching": 7028,
      "ects": 7029,
      "Ġobstacles": 7030,
      "Ġlyrics": 7031,
      "ĠMunicip": 7032,
      "ĠBand": 7033,
      "Ġvibr": 7034,
      "Ġsud": 7035,
      "Ġacting": 7036,
      "Ġexpansion": 7037,
      "ĠÂ£": 7038,
      "Ġwat": 7039,
      "Ġperman": 7040,
      "Ġinteractions": 7041,
      "ĠBh": 7042,
      "ĠJon": 7043,
      "Ġ1957": 7044,
      "ĠElizabeth": 7045,
      "Ġpiano": 7046,
      "ova": 7047,
      "Ġstudying": 7048,
      "'.": 7049,
      "ropolitan": 7050,
      "Ġplanned": 7051,
      "78": 7052,
      "ji": 7053,
      "Ġcognitive": 7054,
      "Ġresponsibility": 7055,
      "IS": 7056,
      "OR": 7057,
      "Members": 7058,
      "Ġrestaurants": 7059,
      "ache": 7060,
      "ĠJes": 7061,
      "Ġmagic": 7062,
      "Ġdocuments": 7063,
      "Ġaccomp": 7064,
      "anning": 7065,
      "Ġfiles": 7066,
      "Ġunable": 7067,
      "Ġinteger": 7068,
      "Ġprobably": 7069,
      "Ġspiritual": 7070,
      "ateful": 7071,
      "Ġperspective": 7072,
      "ecause": 7073,
      "Ġsimpl": 7074,
      "nam": 7075,
      "Ġpromoted": 7076,
      "Ġbeans": 7077,
      "Ġsubsc": 7078,
      "Ġscr": 7079,
      "Ġposts": 7080,
      "Ġintroduction": 7081,
      "ĠBefore": 7082,
      "Ġcaught": 7083,
      "array": 7084,
      "Ġcollected": 7085,
      "Ġfighting": 7086,
      "ĠCzech": 7087,
      "Ġturns": 7088,
      "Ġofficially": 7089,
      "osal": 7090,
      "html": 7091,
      "Identify": 7092,
      "ensions": 7093,
      "Ġfacing": 7094,
      "FC": 7095,
      "Ġiron": 7096,
      "Ġselling": 7097,
      "icial": 7098,
      "Ġimprovement": 7099,
      "Ġfactor": 7100,
      "cest": 7101,
      "obe": 7102,
      "Ġguidance": 7103,
      "Ġhall": 7104,
      "can": 7105,
      "Ġvote": 7106,
      "Ġgreenhouse": 7107,
      "IC": 7108,
      "awn": 7109,
      "icted": 7110,
      "Ġarrest": 7111,
      "Ġcontributions": 7112,
      "otal": 7113,
      "ĠQueens": 7114,
      "Ġsight": 7115,
      "ĠNow": 7116,
      "Ġaudio": 7117,
      "Ġstruggles": 7118,
      "\"\"": 7119,
      "Ġstands": 7120,
      "ĠPu": 7121,
      "www": 7122,
      "ĠThree": 7123,
      "Ġexpenses": 7124,
      "berries": 7125,
      "gal": 7126,
      "ĠBi": 7127,
      "Ġcategory": 7128,
      "ĠKorea": 7129,
      "76": 7130,
      "Ġstood": 7131,
      "inson": 7132,
      "Ġlinked": 7133,
      "AD": 7134,
      "lights": 7135,
      "Ġships": 7136,
      "restling": 7137,
      "world": 7138,
      "Ġwire": 7139,
      "Ġeco": 7140,
      "ĠHTML": 7141,
      "May": 7142,
      "zona": 7143,
      "Ġwed": 7144,
      "merce": 7145,
      "Ġclaimed": 7146,
      "\".<|": 7147,
      "iated": 7148,
      "ĠHarr": 7149,
      "Ġtells": 7150,
      "Ġvirus": 7151,
      "Ġ1947": 7152,
      "active": 7153,
      "Ġrecon": 7154,
      "Ġpositions": 7155,
      "iture": 7156,
      "also": 7157,
      "iox": 7158,
      "Ġ1955": 7159,
      "Ġstreets": 7160,
      "ĠUr": 7161,
      "ĠTam": 7162,
      "1990": 7163,
      "ĠAff": 7164,
      "wealth": 7165,
      "Ġadministrative": 7166,
      "ĠRemember": 7167,
      "ĠReview": 7168,
      "sum": 7169,
      "ĠHong": 7170,
      "ĠMP": 7171,
      "Ġmeals": 7172,
      "Ġlisten": 7173,
      "Ġsudden": 7174,
      "ĠSanta": 7175,
      "Ġsignal": 7176,
      "Ġcandidate": 7177,
      "mm": 7178,
      "abits": 7179,
      "anchester": 7180,
      "ropical": 7181,
      "Ġmachines": 7182,
      "AP": 7183,
      "Ġorders": 7184,
      "ĠEp": 7185,
      "Ġecosystem": 7186,
      "Our": 7187,
      "Ġwants": 7188,
      "Ġrein": 7189,
      "Ġlargely": 7190,
      "Ġdangerous": 7191,
      "ĠTurn": 7192,
      "ĠNations": 7193,
      "ework": 7194,
      "Ġfine": 7195,
      "Ġshall": 7196,
      "Ġowners": 7197,
      "lers": 7198,
      "oir": 7199,
      "Ġformerly": 7200,
      "Ġbike": 7201,
      "Ġgrown": 7202,
      "Ġmedicine": 7203,
      "ĠGolden": 7204,
      "ĠPoint": 7205,
      "ĠFair": 7206,
      "ĠLive": 7207,
      "Ġfellow": 7208,
      "aug": 7209,
      "igenous": 7210,
      "Austral": 7211,
      "Ġsail": 7212,
      "Ġdough": 7213,
      "Ġdoctor": 7214,
      "equ": 7215,
      "amber": 7216,
      "ĠCountry": 7217,
      "Sum": 7218,
      "Ġ400": 7219,
      "ieties": 7220,
      "Ġpolitics": 7221,
      "Ġderived": 7222,
      "Ġcalm": 7223,
      "Ġslowly": 7224,
      "aturday": 7225,
      "Ġshowcase": 7226,
      "Rem": 7227,
      "Ġmeets": 7228,
      "Ġlists": 7229,
      "Ġmunicipalities": 7230,
      "worth": 7231,
      "bal": 7232,
      "ĠNetherlands": 7233,
      "Personal": 7234,
      "Life": 7235,
      "Ġapps": 7236,
      "Ġpersonality": 7237,
      "ester": 7238,
      "Ġfacility": 7239,
      "ĠAirport": 7240,
      "ĠImpro": 7241,
      "Ġsuggested": 7242,
      "Ġeld": 7243,
      "Ġclimb": 7244,
      "400": 7245,
      "bell": 7246,
      "Ġgentle": 7247,
      "Art": 7248,
      "Ġrespectively": 7249,
      "iat": 7250,
      "Ġwilling": 7251,
      "Ġpassword": 7252,
      "ographics": 7253,
      "force": 7254,
      "Ġretirement": 7255,
      "ĠFox": 7256,
      "Ġride": 7257,
      "ĠHarry": 7258,
      "However": 7259,
      "Ġpod": 7260,
      "Ġspect": 7261,
      "which": 7262,
      "Ġlen": 7263,
      "Ġgrass": 7264,
      "Ġfoundation": 7265,
      "Ġbronze": 7266,
      "Ingredients": 7267,
      "ĠAnton": 7268,
      "Ġillness": 7269,
      "Ġherbs": 7270,
      "Ġstretch": 7271,
      "Ġcra": 7272,
      "Ġlifestyle": 7273,
      "ĠMir": 7274,
      "Ġdogs": 7275,
      "ii": 7276,
      "43": 7277,
      "Further": 7278,
      "Ġpool": 7279,
      "ĠAcc": 7280,
      "ĠMarketing": 7281,
      "Ġcoaching": 7282,
      "oa": 7283,
      "Ġsurvive": 7284,
      "Ġdefeat": 7285,
      "Ġfulf": 7286,
      "ROM": 7287,
      "px": 7288,
      "Ġwal": 7289,
      "Ġsoul": 7290,
      "ĠAud": 7291,
      "iger": 7292,
      "Ġ1944": 7293,
      "1998": 7294,
      "ĠIran": 7295,
      "Ġformal": 7296,
      "Ġvisited": 7297,
      "Ġlighting": 7298,
      "Ġinstruments": 7299,
      "haps": 7300,
      "Ġblend": 7301,
      "anner": 7302,
      "Ġfriendly": 7303,
      "Ġgolden": 7304,
      "Ġinhabitants": 7305,
      "Ġoperate": 7306,
      "Will": 7307,
      "Ġexpensive": 7308,
      "ĠAsh": 7309,
      "while": 7310,
      "________": 7311,
      "oln": 7312,
      "Ġconcert": 7313,
      "Ġdestination": 7314,
      "Ġbill": 7315,
      "Ġraise": 7316,
      "ythm": 7317,
      "Ġchampion": 7318,
      "ĠMcC": 7319,
      "iot": 7320,
      "isa": 7321,
      "ĠBru": 7322,
      "Ġgratitude": 7323,
      "Ġpromotion": 7324,
      "Ġtemperatures": 7325,
      "izz": 7326,
      "Ġamounts": 7327,
      "Ġvegetable": 7328,
      "ÅĤ": 7329,
      "ĠLo": 7330,
      "Ġadvance": 7331,
      "Ġenable": 7332,
      "Ġlistening": 7333,
      "luding": 7334,
      "Ġachieving": 7335,
      "ĠHal": 7336,
      "ĠGi": 7337,
      "Ġconservation": 7338,
      "ĠJustice": 7339,
      "elines": 7340,
      "Ġmagical": 7341,
      "Ġaccepted": 7342,
      "Ġseeking": 7343,
      "ĠCirc": 7344,
      "ĠWhe": 7345,
      "Ġjazz": 7346,
      "ĠSQL": 7347,
      "Ġmyth": 7348,
      "ĠMaster": 7349,
      "struct": 7350,
      "Ġpersonnel": 7351,
      "Ġmarriage": 7352,
      "Ġpandemic": 7353,
      "yal": 7354,
      "Ġbinary": 7355,
      "1997": 7356,
      "Ġpurposes": 7357,
      "98": 7358,
      "ocese": 7359,
      "Ġ1953": 7360,
      "Ġswitch": 7361,
      "uls": 7362,
      "Ġdreams": 7363,
      "ĠPremier": 7364,
      "osh": 7365,
      "urp": 7366,
      "Ġdeploy": 7367,
      "Ġguests": 7368,
      ".âĢĿ": 7369,
      "Ġwalked": 7370,
      "Sub": 7371,
      "ĠCastle": 7372,
      "ĠCult": 7373,
      "Ġsettings": 7374,
      "Ġpoems": 7375,
      "Ġtransferred": 7376,
      "Ġclin": 7377,
      "Ġcomponent": 7378,
      "ivate": 7379,
      "Ġfounder": 7380,
      "ĠRom": 7381,
      "adesh": 7382,
      "\";": 7383,
      "lav": 7384,
      "Ġminimum": 7385,
      "Ġparks": 7386,
      "++)": 7387,
      "ĠSpace": 7388,
      "Ġbroken": 7389,
      "ĠSoph": 7390,
      "ĠRod": 7391,
      "antha": 7392,
      "ussion": 7393,
      "66": 7394,
      "Ġproced": 7395,
      "Ġaccounts": 7396,
      "Ġsliced": 7397,
      "Ġworksh": 7398,
      "41": 7399,
      "opher": 7400,
      "Ġtraditions": 7401,
      "ictionary": 7402,
      "ĠLike": 7403,
      "ctic": 7404,
      "ĠMoon": 7405,
      "Ġapples": 7406,
      "Ġ300": 7407,
      "yme": 7408,
      "apping": 7409,
      "lock": 7410,
      "mann": 7411,
      "National": 7412,
      "Ġdestroyed": 7413,
      "Ġcompr": 7414,
      "verty": 7415,
      "ĠOcean": 7416,
      "Ġcrim": 7417,
      "Ġcomputing": 7418,
      "Ġinterpret": 7419,
      "Ġcas": 7420,
      "ĠBuilding": 7421,
      "Ġkids": 7422,
      "Ġminer": 7423,
      "ET": 7424,
      "ĠLily": 7425,
      "Ġguard": 7426,
      "ĠProvincial": 7427,
      "ĠToronto": 7428,
      "Ġnuclear": 7429,
      "AL": 7430,
      "ima": 7431,
      "Ġvon": 7432,
      "Ġairport": 7433,
      "Ġconstitu": 7434,
      "ĠLibrary": 7435,
      "Ġ1939": 7436,
      "Ġadministration": 7437,
      "Ġtact": 7438,
      "Ġagricultural": 7439,
      "nership": 7440,
      "erly": 7441,
      "2008": 7442,
      "Ġsecondary": 7443,
      "ĠUsing": 7444,
      "Ġskill": 7445,
      "Ġperiods": 7446,
      "Ġwindow": 7447,
      "onut": 7448,
      "Ġfurn": 7449,
      "Ġentry": 7450,
      "Ġintegers": 7451,
      "Ã¼r": 7452,
      "Ġfacilit": 7453,
      "ĠSant": 7454,
      "ĠMinnesota": 7455,
      "Ġtrail": 7456,
      "ĠLabor": 7457,
      "Ġquiet": 7458,
      "Ġpoverty": 7459,
      "Ġdescent": 7460,
      "Brit": 7461,
      "ĠVen": 7462,
      "Ġfreedom": 7463,
      "Ġwait": 7464,
      "ĠLew": 7465,
      "ĠMarc": 7466,
      "Ġoccurs": 7467,
      "Ġweapons": 7468,
      "Ġfrag": 7469,
      "Ġnom": 7470,
      "Ġkitchen": 7471,
      "ĠBad": 7472,
      "Ġvine": 7473,
      "ĠJean": 7474,
      "Ġsegment": 7475,
      "aven": 7476,
      "comp": 7477,
      "rot": 7478,
      "ĠServices": 7479,
      "page": 7480,
      "Ġski": 7481,
      "Ġsaying": 7482,
      "Ġagreement": 7483,
      "Ġsession": 7484,
      "ĠMill": 7485,
      "Ġspin": 7486,
      "Ġcarefully": 7487,
      "boards": 7488,
      "rated": 7489,
      "ĠSym": 7490,
      "ĠAst": 7491,
      "oda": 7492,
      "Ġpoet": 7493,
      "Find": 7494,
      "Ġbiggest": 7495,
      "Ġliterary": 7496,
      "alled": 7497,
      "ĠComput": 7498,
      "Ġreputation": 7499,
      "ĠTony": 7500,
      "ĠIncre": 7501,
      "Ġconstantly": 7502,
      "Ġcomputers": 7503,
      "ĠTaylor": 7504,
      "ĠSus": 7505,
      "ĠChris": 7506,
      "Ġmonitoring": 7507,
      "Ġthin": 7508,
      "Ġelections": 7509,
      "88": 7510,
      "Ġcher": 7511,
      "Ġchildhood": 7512,
      "Ġhappened": 7513,
      "coh": 7514,
      "sub": 7515,
      "Ġwinners": 7516,
      "Ġfra": 7517,
      "Ġ1946": 7518,
      "Sw": 7519,
      "Ġorange": 7520,
      "Ġcombat": 7521,
      "Ġsemi": 7522,
      "ĠHung": 7523,
      "Ġinches": 7524,
      "mal": 7525,
      "ĠUk": 7526,
      "oured": 7527,
      "ĠMelbourne": 7528,
      "function": 7529,
      "mir": 7530,
      "Ġtut": 7531,
      "Ġtradition": 7532,
      "Ġinvestig": 7533,
      "Ġsensory": 7534,
      "Music": 7535,
      "ĠFame": 7536,
      "acter": 7537,
      "iÄĩ": 7538,
      "ĠRog": 7539,
      "Ġfest": 7540,
      "ĠFederal": 7541,
      "ED": 7542,
      "ĠEP": 7543,
      "Ġfunds": 7544,
      "car": 7545,
      "Ġbold": 7546,
      "phony": 7547,
      "iders": 7548,
      "ĠGreece": 7549,
      "omy": 7550,
      "eld": 7551,
      "eli": 7552,
      "incoln": 7553,
      "Ġfocuses": 7554,
      "expected": 7555,
      "ranches": 7556,
      "Ġcategories": 7557,
      "Ġtrib": 7558,
      "irk": 7559,
      "arring": 7560,
      "Ġwrong": 7561,
      "ĠManchester": 7562,
      "portation": 7563,
      "hand": 7564,
      "ĠSher": 7565,
      "owned": 7566,
      "Ġgranted": 7567,
      "Ġproducing": 7568,
      "Ġdesignated": 7569,
      "Ġ1954": 7570,
      "Ġnovels": 7571,
      "ĠKentucky": 7572,
      "97": 7573,
      "acher": 7574,
      "ĠExper": 7575,
      "Ġconversation": 7576,
      "ĠSenate": 7577,
      "Ġathletes": 7578,
      "Year": 7579,
      "Ġdipl": 7580,
      "Ġheadqu": 7581,
      "title": 7582,
      "Ġring": 7583,
      "Ġstunning": 7584,
      "ĠInstagram": 7585,
      "Ġcomposition": 7586,
      "ĠBowl": 7587,
      "Ġexternal": 7588,
      "Ġsurf": 7589,
      "Ġmusician": 7590,
      "Ġintern": 7591,
      "oding": 7592,
      "ĠEven": 7593,
      "Ġfarmers": 7594,
      "Ġprioritize": 7595,
      "Ġfabric": 7596,
      "ĠIndepend": 7597,
      "Ġfalse": 7598,
      "ĠAD": 7599,
      "Ġdescribes": 7600,
      "Ġce": 7601,
      "Ġteach": 7602,
      "oz": 7603,
      "igration": 7604,
      "Ġinfl": 7605,
      "eed": 7606,
      "ĠCy": 7607,
      "Ġord": 7608,
      "Ġraces": 7609,
      "ĠToday": 7610,
      "Ġ1952": 7611,
      "%.": 7612,
      "ĠSab": 7613,
      "iform": 7614,
      "Ġmarked": 7615,
      "Com": 7616,
      "Ġfolk": 7617,
      "Ġstrange": 7618,
      "language": 7619,
      "ĠCop": 7620,
      "Ġgard": 7621,
      "Ġpresentation": 7622,
      "Ġtourism": 7623,
      "Ġfly": 7624,
      "Ġphen": 7625,
      "ĠVill": 7626,
      "Ġdriver": 7627,
      "Instructions": 7628,
      "rete": 7629,
      "ĠSong": 7630,
      "umed": 7631,
      "ĠJoh": 7632,
      "Ġdiscovery": 7633,
      "Ġregarding": 7634,
      "ĠAtlantic": 7635,
      "ammar": 7636,
      "Ġ150": 7637,
      "Ġauth": 7638,
      "istered": 7639,
      "Ġmile": 7640,
      "Ġnarrative": 7641,
      "erving": 7642,
      "Ġsale": 7643,
      "1996": 7644,
      "Ġfilling": 7645,
      "Ġbell": 7646,
      "56": 7647,
      "Ġmanip": 7648,
      "Ġpump": 7649,
      "Ġshift": 7650,
      "Ġcomplement": 7651,
      "Ġexpertise": 7652,
      "Ġnewly": 7653,
      "Ġswe": 7654,
      "ĠWars": 7655,
      "Ġconcepts": 7656,
      "ĠEnsure": 7657,
      "UT": 7658,
      "ĠInternet": 7659,
      "Ġhorse": 7660,
      "stream": 7661,
      "ĠRepresent": 7662,
      "Ġherit": 7663,
      "ĠFamily": 7664,
      "perial": 7665,
      "LECT": 7666,
      "Ã©e": 7667,
      "Ġsteel": 7668,
      "Def": 7669,
      "east": 7670,
      "Ġfought": 7671,
      "athan": 7672,
      "ĠPrime": 7673,
      "night": 7674,
      "Ġconfidence": 7675,
      "Ġinner": 7676,
      "âĢ¢": 7677,
      "ygen": 7678,
      "Ġbags": 7679,
      "Ġmuscle": 7680,
      "IM": 7681,
      "ĠWilson": 7682,
      "Ã£o": 7683,
      "ĠAdv": 7684,
      "Ġconsumers": 7685,
      "Ġdatas": 7686,
      "organ": 7687,
      "ĠTry": 7688,
      "aki": 7689,
      "Ġvariables": 7690,
      "look": 7691,
      "Ġconference": 7692,
      "Ġnoise": 7693,
      "Ġprincipal": 7694,
      "Ġlights": 7695,
      "ĠOb": 7696,
      "Ġfailure": 7697,
      "Ġoccurred": 7698,
      "Br": 7699,
      "cers": 7700,
      "Ġtru": 7701,
      "ĠSaturday": 7702,
      "Ġintense": 7703,
      "Ġclar": 7704,
      "ĠSciences": 7705,
      "Ġcrisp": 7706,
      "Ġmassive": 7707,
      "ĠHay": 7708,
      "Ġentreprene": 7709,
      "Ġdram": 7710,
      "ĠFree": 7711,
      "Ġprinciples": 7712,
      "Ġwatching": 7713,
      "Ġnarrow": 7714,
      "Ġdescriptions": 7715,
      "itled": 7716,
      "Ġpounds": 7717,
      "ĠTa": 7718,
      "ĠTur": 7719,
      "ĠSupreme": 7720,
      "Ġappealing": 7721,
      "ĠBaron": 7722,
      "erate": 7723,
      "ĠRaj": 7724,
      "anna": 7725,
      "Polit": 7726,
      "amon": 7727,
      "Ġintric": 7728,
      "Ġtwist": 7729,
      "ĠLady": 7730,
      "Ġgrateful": 7731,
      "Ġdynamic": 7732,
      "Ġsample": 7733,
      "Ġ1949": 7734,
      "72": 7735,
      "Ġsettled": 7736,
      "ĠLearning": 7737,
      "ĠFood": 7738,
      "Ġteen": 7739,
      "ĠCambridge": 7740,
      "ĠAR": 7741,
      "Ġaccomplish": 7742,
      "emble": 7743,
      "ĠPass": 7744,
      "Ġlogo": 7745,
      "Ġefficiently": 7746,
      "Ġbeliefs": 7747,
      "Ġtrial": 7748,
      "2010": 7749,
      "Railway": 7750,
      "Ġcharts": 7751,
      "Man": 7752,
      "orge": 7753,
      "ĠLast": 7754,
      "ĠInn": 7755,
      "Ġdistingu": 7756,
      "ymn": 7757,
      "Ġresearchers": 7758,
      "64": 7759,
      "ĠReal": 7760,
      "Ġtension": 7761,
      "rac": 7762,
      "Ġ1941": 7763,
      "ĠPhys": 7764,
      "Ġliquid": 7765,
      "aped": 7766,
      "Ġindependence": 7767,
      "ĠDaniel": 7768,
      "Ġbeef": 7769,
      "pton": 7770,
      "Cal": 7771,
      "wing": 7772,
      "Ġexcess": 7773,
      "Ġsupplies": 7774,
      "Ġcraft": 7775,
      "Ġforg": 7776,
      "Ġstake": 7777,
      "mouth": 7778,
      "ĠStudies": 7779,
      "berry": 7780,
      "Ġ1942": 7781,
      "Ġphoto": 7782,
      "Ġheritage": 7783,
      "bar": 7784,
      "Ġpizza": 7785,
      "tery": 7786,
      "ĠEarl": 7787,
      "Ġyoga": 7788,
      "orrow": 7789,
      "ĠBack": 7790,
      "Ġstored": 7791,
      "ĠUnivers": 7792,
      "Ġscheme": 7793,
      "Ġclaims": 7794,
      "ĠLog": 7795,
      "uese": 7796,
      "Ġending": 7797,
      "Ġreduction": 7798,
      "Ġhardware": 7799,
      "allel": 7800,
      "ĠArizona": 7801,
      "uels": 7802,
      "ami": 7803,
      "ĠProfessor": 7804,
      "Ġpairs": 7805,
      "asting": 7806,
      "Ġbodies": 7807,
      "osite": 7808,
      "ules": 7809,
      "Ġseats": 7810,
      "Ġcontrovers": 7811,
      "ĠSalt": 7812,
      "Ġcompeted": 7813,
      "Ġlegs": 7814,
      "Ġtargeted": 7815,
      "Ġmenu": 7816,
      ";<|": 7817,
      "ĠLook": 7818,
      "ieval": 7819,
      "Ġtransp": 7820,
      "liest": 7821,
      "Based": 7822,
      "Ġpasses": 7823,
      "ĠMexican": 7824,
      "bound": 7825,
      "ims": 7826,
      "ĠFollowing": 7827,
      "Ġmixing": 7828,
      "ĠMov": 7829,
      "Ġwaiting": 7830,
      "Ġmouth": 7831,
      "Ġfollowers": 7832,
      "Ġgraphics": 7833,
      "greg": 7834,
      "alo": 7835,
      "illet": 7836,
      "Ġspices": 7837,
      "Ġjustice": 7838,
      "ker": 7839,
      "Ġmoon": 7840,
      "1995": 7841,
      "Ġwave": 7842,
      "ĠKey": 7843,
      "Ġreceiving": 7844,
      "Ġportray": 7845,
      "holders": 7846,
      "apore": 7847,
      "Ġspeak": 7848,
      "Ġcleaning": 7849,
      "ĠSpring": 7850,
      "ĠSn": 7851,
      "Ġemerged": 7852,
      "zzle": 7853,
      "ĠDuke": 7854,
      "EC": 7855,
      "Er": 7856,
      "Ġtheatre": 7857,
      "Ġminute": 7858,
      "Dist": 7859,
      "omot": 7860,
      "Ġ(;": 7861,
      "ĠRon": 7862,
      "ĠUt": 7863,
      "El": 7864,
      "urric": 7865,
      "ĠPay": 7866,
      "Ġalt": 7867,
      "ĠMicrosoft": 7868,
      "Let": 7869,
      "ĠAnth": 7870,
      "ĠBrother": 7871,
      "bi": 7872,
      "Ġvit": 7873,
      "Ġpricing": 7874,
      "Ġinspiration": 7875,
      "Ġfiber": 7876,
      "lyn": 7877,
      "Ġcomments": 7878,
      "Ġvital": 7879,
      "2009": 7880,
      "Ġpeak": 7881,
      "Enter": 7882,
      "Ġgall": 7883,
      "Ġchronic": 7884,
      "Ġdecades": 7885,
      "mers": 7886,
      "aints": 7887,
      "RL": 7888,
      "ĠHand": 7889,
      "Ġshowing": 7890,
      "ĠSweden": 7891,
      "54": 7892,
      "Ġpopularity": 7893,
      "92": 7894,
      "Ġongoing": 7895,
      "ĠStadium": 7896,
      "Ġresource": 7897,
      "ĠWrit": 7898,
      "ĠLes": 7899,
      "ĠOpt": 7900,
      "Ġminister": 7901,
      "Ġtroops": 7902,
      "Finally": 7903,
      "ateur": 7904,
      "ails": 7905,
      "ĠAustria": 7906,
      "Ġintegration": 7907,
      "aser": 7908,
      "ĠBab": 7909,
      "ĠBall": 7910,
      "Ġplate": 7911,
      "Ġrecover": 7912,
      "Ġmeters": 7913,
      "Disc": 7914,
      "Ġpra": 7915,
      "ĠAge": 7916,
      "ĠColorado": 7917,
      "aine": 7918,
      "pan": 7919,
      "Ġstruggling": 7920,
      "Ġcommitted": 7921,
      "iary": 7922,
      "ĠÄ": 7923,
      "Ġur": 7924,
      "Ġunexpected": 7925,
      "ĠMemorial": 7926,
      "venth": 7927,
      "Canadian": 7928,
      "clusion": 7929,
      "Ġanalyzing": 7930,
      "inth": 7931,
      "Ġdoub": 7932,
      "ĠInformation": 7933,
      "ĠUN": 7934,
      "ĠEmma": 7935,
      "Ġphotography": 7936,
      "United": 7937,
      "rets": 7938,
      "ĠFurther": 7939,
      "Ġextrem": 7940,
      "Ġissued": 7941,
      "Ġbranches": 7942,
      "ĠSel": 7943,
      "Ġjew": 7944,
      "western": 7945,
      "Ġagent": 7946,
      "Ġcapabilities": 7947,
      "Ġ1943": 7948,
      "ĠClark": 7949,
      "Ġdefinitely": 7950,
      "ĠTokyo": 7951,
      "ĠHave": 7952,
      "Ġtower": 7953,
      "gener": 7954,
      "stic": 7955,
      "leton": 7956,
      "Ġmotivated": 7957,
      "Ġvenues": 7958,
      "Ġhabits": 7959,
      "ĠNorm": 7960,
      "iliar": 7961,
      "Ġrecru": 7962,
      "Ġexplan": 7963,
      "Ġfishing": 7964,
      "Ġsavings": 7965,
      "86": 7966,
      "Ġtur": 7967,
      "Ġbreathing": 7968,
      "Ġnick": 7969,
      "hedral": 7970,
      "Ġpoly": 7971,
      "Ġevolution": 7972,
      "Ġadvantages": 7973,
      "Ġconverted": 7974,
      "Ġrevealed": 7975,
      "Ġspeaking": 7976,
      "uther": 7977,
      "EM": 7978,
      "Ġnortheast": 7979,
      "ĠLind": 7980,
      "acent": 7981,
      "Ġsentiment": 7982,
      "Ġcombine": 7983,
      "ĠChristmas": 7984,
      "Ġentirely": 7985,
      "Ġvibrant": 7986,
      "ĠLie": 7987,
      "Sec": 7988,
      "Reg": 7989,
      "Ġvillages": 7990,
      "Ġaims": 7991,
      "SELECT": 7992,
      "ĠAM": 7993,
      "ĠSupport": 7994,
      "ĠSecretary": 7995,
      "Ġconqu": 7996,
      "British": 7997,
      "do": 7998,
      "ashed": 7999,
      "ĠViet": 8000,
      "Ġexistence": 8001,
      "Ġadapted": 8002,
      "itzerland": 8003,
      "Ġalph": 8004,
      "ums": 8005,
      "ĠVi": 8006,
      ",âĢĿ": 8007,
      "Ġbands": 8008,
      "onsin": 8009,
      "Ġadvoc": 8010,
      "Ġvariations": 8011,
      "89": 8012,
      "kes": 8013,
      "ventions": 8014,
      "Ġcircum": 8015,
      "Ġupdate": 8016,
      "Ġfold": 8017,
      "Ġsigns": 8018,
      "Ġmetrics": 8019,
      "Ġnegot": 8020,
      "Mon": 8021,
      "South": 8022,
      "ecess": 8023,
      "ĠTherefore": 8024,
      "ĠRegister": 8025,
      "Ġauthority": 8026,
      "Ġemergency": 8027,
      "ĠMond": 8028,
      "isconsin": 8029,
      "gow": 8030,
      "Ġdinner": 8031,
      "Ġalmond": 8032,
      "number": 8033,
      "Ġtun": 8034,
      "oren": 8035,
      "Ġcompete": 8036,
      "Ġautomation": 8037,
      "ĠArea": 8038,
      "inus": 8039,
      "Ġham": 8040,
      "Ġblocks": 8041,
      "Ġfram": 8042,
      "ĠBah": 8043,
      "Ġhandling": 8044,
      "Ġpoliticians": 8045,
      "Ġovers": 8046,
      "ĠTal": 8047,
      "ĠProvide": 8048,
      "Ġidentifying": 8049,
      "Ġcommitment": 8050,
      "Ġinstalled": 8051,
      "ito": 8052,
      "Ġcomplexity": 8053,
      "rophy": 8054,
      "Ġfossil": 8055,
      "don": 8056,
      "aret": 8057,
      "Ġmemor": 8058,
      "Ġelectron": 8059,
      "Ġshapes": 8060,
      "lywood": 8061,
      "Ġbacking": 8062,
      "Ġemployed": 8063,
      "acon": 8064,
      "150": 8065,
      "Ġtheater": 8066,
      "ĠAlf": 8067,
      "Ġgradually": 8068,
      "120": 8069,
      "Ġincreases": 8070,
      "Ġevening": 8071,
      "Ġconsec": 8072,
      "Ġrooms": 8073,
      "Ġconfident": 8074,
      "OT": 8075,
      "ulating": 8076,
      "Ġcrust": 8077,
      "usc": 8078,
      "Ġsections": 8079,
      "ĠDNA": 8080,
      "Ġcharacterized": 8081,
      "ĠAh": 8082,
      "Ġnuts": 8083,
      "Ġexpectations": 8084,
      "Ġbattery": 8085,
      "aron": 8086,
      "Gu": 8087,
      "Ġkid": 8088,
      "Ġcryst": 8089,
      "Ġgirls": 8090,
      "Ġther": 8091,
      "ĠCorps": 8092,
      "emet": 8093,
      "Ġpercentage": 8094,
      "table": 8095,
      "abil": 8096,
      "Ġmanagers": 8097,
      "Ġroads": 8098,
      "Ġadults": 8099,
      "ĠHospital": 8100,
      "erse": 8101,
      "Ġdistract": 8102,
      "Ġfocusing": 8103,
      "ĠAPI": 8104,
      "Ġbath": 8105,
      "cons": 8106,
      "ogen": 8107,
      "Ġrecovery": 8108,
      "Ġconsumer": 8109,
      "sol": 8110,
      "incess": 8111,
      "eman": 8112,
      "ika": 8113,
      "Ġresolution": 8114,
      "Ġdescriptive": 8115,
      "Notable": 8116,
      "rots": 8117,
      "osm": 8118,
      "ĠRun": 8119,
      "rate": 8120,
      "Ġnob": 8121,
      "Ġbrothers": 8122,
      "Geography": 8123,
      "oming": 8124,
      "Sm": 8125,
      "ĠDun": 8126,
      "Ġresilience": 8127,
      "Ġabandoned": 8128,
      "US": 8129,
      "Phone": 8130,
      "Please": 8131,
      "Ġfont": 8132,
      "Ġturning": 8133,
      "Ġtablespoon": 8134,
      "Ġyards": 8135,
      "Ġfaith": 8136,
      "ĠLincoln": 8137,
      "Ġvess": 8138,
      "Ġbringing": 8139,
      "Ġreaction": 8140,
      "Co": 8141,
      "Ġimagery": 8142,
      "%)": 8143,
      "Ġsitting": 8144,
      "Plot": 8145,
      "Develop": 8146,
      "Ġpaintings": 8147,
      "Ac": 8148,
      "VD": 8149,
      "aud": 8150,
      "Ġdiam": 8151,
      "ĠPlease": 8152,
      "ĠStone": 8153,
      "Ġsorted": 8154,
      "ĠChildren": 8155,
      "67": 8156,
      "ĠDak": 8157,
      "oles": 8158,
      "Ġgovernor": 8159,
      "ĠCommonwealth": 8160,
      "Ġcomple": 8161,
      "Ġdetermination": 8162,
      "Ġenjoyed": 8163,
      "Ġattempts": 8164,
      "iti": 8165,
      "Ġmir": 8166,
      "ĠDiv": 8167,
      "hess": 8168,
      "ĠArthur": 8169,
      "Ġexciting": 8170,
      "ĠLabour": 8171,
      "Ġadvancements": 8172,
      "Ġdevelopers": 8173,
      "Ġgone": 8174,
      "utter": 8175,
      "Ġagency": 8176,
      "Ġclassification": 8177,
      "IA": 8178,
      "erg": 8179,
      "vironments": 8180,
      "ĠHoly": 8181,
      "LA": 8182,
      "uce": 8183,
      "orney": 8184,
      "Ġvert": 8185,
      "Ġunp": 8186,
      "ĠEnvironment": 8187,
      "Ġobjectives": 8188,
      "allest": 8189,
      "ĠKorean": 8190,
      "ĠKansas": 8191,
      "Ġsentences": 8192,
      "Ġbrush": 8193,
      "Act": 8194,
      "Ġwithd": 8195,
      "ĠLow": 8196,
      "Ġapproaches": 8197,
      "person": 8198,
      "Ġease": 8199,
      "Ġcompare": 8200,
      "Ġworkplace": 8201,
      "vard": 8202,
      "ĠNic": 8203,
      "azi": 8204,
      "Ġextreme": 8205,
      "Ġchoices": 8206,
      "ĠSecurity": 8207,
      "Ġcrops": 8208,
      "Ġtranslation": 8209,
      "Ġads": 8210,
      "forest": 8211,
      "ĠDisc": 8212,
      "ĠAlice": 8213,
      "Ġwarn": 8214,
      "ĠAnaly": 8215,
      "Ġobserv": 8216,
      "Background": 8217,
      "efficient": 8218,
      "Ġturb": 8219,
      "orous": 8220,
      "Ġwitness": 8221,
      "1994": 8222,
      "Ġspeaker": 8223,
      "Ġmerged": 8224,
      "Ġenroll": 8225,
      "Ġgenerations": 8226,
      "Ġvisiting": 8227,
      "Ġequival": 8228,
      "ĠStock": 8229,
      "Ġresc": 8230,
      "Ġsmok": 8231,
      "ĠPhilipp": 8232,
      "Ġpackage": 8233,
      "Dav": 8234,
      "arks": 8235,
      "ĠFinal": 8236,
      "ĠMachine": 8237,
      "Ġbaby": 8238,
      "Ġofficers": 8239,
      "aded": 8240,
      "luded": 8241,
      "nessee": 8242,
      "Her": 8243,
      "Ġfav": 8244,
      "Ġpopulations": 8245,
      "Ġobtained": 8246,
      "istical": 8247,
      "ĠCR": 8248,
      "mont": 8249,
      "oen": 8250,
      "Ġaer": 8251,
      "ĠFord": 8252,
      "Ġconversion": 8253,
      "Bo": 8254,
      "Ġcooper": 8255,
      "Ġexposure": 8256,
      "ĠTurkish": 8257,
      "ĠSat": 8258,
      "Ġcricket": 8259,
      "uz": 8260,
      "Ġfounding": 8261,
      "idges": 8262,
      "bums": 8263,
      "ĠAlb": 8264,
      "CAA": 8265,
      "Ġofficials": 8266,
      "ĠEth": 8267,
      "Ġ75": 8268,
      "Ġinteraction": 8269,
      "IP": 8270,
      "Ġcash": 8271,
      "180": 8272,
      "Ġboundaries": 8273,
      "ĠSwedish": 8274,
      "indu": 8275,
      "Ġenables": 8276,
      "Ġsharp": 8277,
      "ĠLegisl": 8278,
      "Ab": 8279,
      "Ġpure": 8280,
      "orship": 8281,
      "vens": 8282,
      "Ġign": 8283,
      "Ġliber": 8284,
      "ĠBishop": 8285,
      "Ġrugby": 8286,
      "1980": 8287,
      "Ġmoist": 8288,
      "ĠSound": 8289,
      "ĠHun": 8290,
      "ĠOfficial": 8291,
      "Ġrecognize": 8292,
      "Ġreligion": 8293,
      "ĠAvoid": 8294,
      "Ġreward": 8295,
      "Ġframe": 8296,
      "Ġauthorities": 8297,
      "Ġparticipated": 8298,
      "Ġsupports": 8299,
      "uating": 8300,
      "Ġreject": 8301,
      "ĠWindows": 8302,
      "Ġonions": 8303,
      "ĠNBA": 8304,
      "ĠWho": 8305,
      "Ġ1951": 8306,
      "amental": 8307,
      "har": 8308,
      "ĠBased": 8309,
      "agers": 8310,
      "Ġcookies": 8311,
      "emetery": 8312,
      "utenant": 8313,
      "Ġfixed": 8314,
      "ĠMiller": 8315,
      "ĠBrun": 8316,
      "Dem": 8317,
      "Ġwider": 8318,
      "Ġforget": 8319,
      "ĠGro": 8320,
      "Ġgreatly": 8321,
      "Ġopposite": 8322,
      "owa": 8323,
      "Ġenvironments": 8324,
      "issance": 8325,
      "à¤": 8326,
      "Ġroyal": 8327,
      "Ġlegend": 8328,
      "ĠBrook": 8329,
      "84": 8330,
      "Ġdistributed": 8331,
      "Ã¡s": 8332,
      "Best": 8333,
      "itement": 8334,
      "Ġreturning": 8335,
      "Ġwildlife": 8336,
      "Ġsuffered": 8337,
      "Ã¢": 8338,
      "elle": 8339,
      "ĠKenn": 8340,
      "Ġgrade": 8341,
      "Ġfaces": 8342,
      "Ġfrequent": 8343,
      "Ġlux": 8344,
      "Ġkick": 8345,
      "Ġcurious": 8346,
      "Ġcontainer": 8347,
      "father": 8348,
      "Ġdensity": 8349,
      "Ġperc": 8350,
      "Ġretrie": 8351,
      "Ġbreakfast": 8352,
      "ĠServe": 8353,
      "Ġwooden": 8354,
      "ĠWisconsin": 8355,
      "value": 8356,
      "ĠSwitzerland": 8357,
      "ĠAbb": 8358,
      "ouri": 8359,
      "âĢľ": 8360,
      "ributes": 8361,
      "Ġimpacted": 8362,
      "ĠOrigin": 8363,
      "Ġtender": 8364,
      "ĠHeart": 8365,
      "Ġcoal": 8366,
      "Ġintricate": 8367,
      "Give": 8368,
      "onent": 8369,
      "Ġwings": 8370,
      "Ġ1000": 8371,
      "Ġshif": 8372,
      "rank": 8373,
      "ordan": 8374,
      "Ġapple": 8375,
      "Ġtruth": 8376,
      "Ġactual": 8377,
      "edition": 8378,
      "Ġrapidly": 8379,
      "rons": 8380,
      "ĠHard": 8381,
      "Ġforests": 8382,
      "Ġfictional": 8383,
      "ĠExt": 8384,
      "Ġavailability": 8385,
      "ĠJacob": 8386,
      "ĠGer": 8387,
      "ogs": 8388,
      "Ġthorough": 8389,
      "Ġordered": 8390,
      "ĠEmploy": 8391,
      "such": 8392,
      "Ġtang": 8393,
      "ĠInvest": 8394,
      "Ġacts": 8395,
      "Ġcaptain": 8396,
      "Ġcreature": 8397,
      "law": 8398,
      "Ġbat": 8399,
      "Ġstim": 8400,
      "opt": 8401,
      "ĠVo": 8402,
      "Ġpeppers": 8403,
      "Ġearliest": 8404,
      "Ġpasta": 8405,
      "ĠÐ": 8406,
      "ounsel": 8407,
      "ĠEst": 8408,
      "Ġrub": 8409,
      "Ġrising": 8410,
      "Ġdocumentary": 8411,
      "Ġflexibility": 8412,
      "Ãº": 8413,
      "Ġoccas": 8414,
      "ĠMinistry": 8415,
      "Ġrelaxation": 8416,
      "ĠCas": 8417,
      "ĠCall": 8418,
      "Ġpartnership": 8419,
      "LP": 8420,
      "Äį": 8421,
      "Ġsoutheast": 8422,
      "Ġmac": 8423,
      "Ġcontrolled": 8424,
      "Ġfranch": 8425,
      "Ġdisput": 8426,
      "everal": 8427,
      "Ġcris": 8428,
      "Ġlessons": 8429,
      "ĠFreder": 8430,
      "antly": 8431,
      "oted": 8432,
      "ĠPub": 8433,
      "Ġsurvival": 8434,
      "Ġunf": 8435,
      "ĠString": 8436,
      "Ġcaptured": 8437,
      "Ġpictures": 8438,
      "chain": 8439,
      "endar": 8440,
      "Ġexcited": 8441,
      "Ġpassengers": 8442,
      "Ġswimming": 8443,
      "94": 8444,
      "Ġsy": 8445,
      "ĠCreat": 8446,
      "eller": 8447,
      "Ġtrig": 8448,
      "Ġlayers": 8449,
      "Ġagreed": 8450,
      "ĠHamilton": 8451,
      "77": 8452,
      "Ġcensus": 8453,
      "Ġincredible": 8454,
      "dam": 8455,
      "utional": 8456,
      "rike": 8457,
      "Ġpracticing": 8458,
      "Tr": 8459,
      "Ġshell": 8460,
      "Ġlock": 8461,
      "zer": 8462,
      "assion": 8463,
      "Ġboat": 8464,
      "tainment": 8465,
      "Ġphilosophy": 8466,
      "ĠField": 8467,
      "Ġsevere": 8468,
      "ĠConvention": 8469,
      "Ġintegrated": 8470,
      "Ġsizes": 8471,
      "ĠDream": 8472,
      "Ġtypical": 8473,
      "Ġrivers": 8474,
      "urches": 8475,
      "AF": 8476,
      "ovak": 8477,
      "Ġpubl": 8478,
      "ES": 8479,
      "fts": 8480,
      "Ġgal": 8481,
      "ĠBalt": 8482,
      "ĠTrust": 8483,
      "cow": 8484,
      "Ġrelief": 8485,
      "ervative": 8486,
      "Ġranked": 8487,
      "rell": 8488,
      "Ġstability": 8489,
      "mes": 8490,
      "ĠBurn": 8491,
      "Ġsucceeded": 8492,
      "ĠMand": 8493,
      "ĠRoss": 8494,
      "but": 8495,
      "Ġalter": 8496,
      "Ġemotion": 8497,
      "Ġtough": 8498,
      "dy": 8499,
      "Ġ(),": 8500,
      "ĠLeon": 8501,
      "Ġcenters": 8502,
      "Ġgenetic": 8503,
      "Ġdeclared": 8504,
      "heat": 8505,
      "asgow": 8506,
      "Ġdownload": 8507,
      "Ġfan": 8508,
      "Ġcoat": 8509,
      "achelor": 8510,
      "roit": 8511,
      "ĠDor": 8512,
      "ĠEs": 8513,
      "Ġknowing": 8514,
      "Im": 8515,
      "TP": 8516,
      "Ġtag": 8517,
      "Ġcopies": 8518,
      "Populated": 8519,
      "Ġworkout": 8520,
      "Ġmush": 8521,
      "Ġscoring": 8522,
      "Ġrepresentative": 8523,
      "Ġartistic": 8524,
      "1993": 8525,
      "Ġgenre": 8526,
      "Ġfootprint": 8527,
      "ĠSingapore": 8528,
      "Ġcomposer": 8529,
      "ĠTennessee": 8530,
      "Mod": 8531,
      "93": 8532,
      "Ġsuit": 8533,
      "Ġstatic": 8534,
      "Ġhappiness": 8535,
      "color": 8536,
      "uster": 8537,
      "Ġcurren": 8538,
      "ĠBarb": 8539,
      "Ġloan": 8540,
      "Ġuncertain": 8541,
      "ĠPersonal": 8542,
      "ĠAdam": 8543,
      "ĠAdminist": 8544,
      "Ġeducated": 8545,
      "lessly": 8546,
      "mad": 8547,
      "Ġsheet": 8548,
      "ĠSchools": 8549,
      "ĠÃĩ": 8550,
      "Ġdemonstrate": 8551,
      "Ġdollars": 8552,
      "ĠSud": 8553,
      "olished": 8554,
      "ĠMarsh": 8555,
      "Ġparliament": 8556,
      "Ġrepresentation": 8557,
      "Ġdefine": 8558,
      "][": 8559,
      "ĠSav": 8560,
      "Ġdecline": 8561,
      "Ġconfig": 8562,
      "iche": 8563,
      "ibl": 8564,
      "Ġroof": 8565,
      "NT": 8566,
      "Ġlose": 8567,
      "Ġcoconut": 8568,
      "imon": 8569,
      "Ġprofit": 8570,
      "ĠStephen": 8571,
      "lan": 8572,
      "Ġdepends": 8573,
      "Ġpercussion": 8574,
      "Ġdried": 8575,
      "antry": 8576,
      "ĠFederation": 8577,
      "Then": 8578,
      "International": 8579,
      "Ġfeels": 8580,
      "Ġtriangle": 8581,
      "Ġphysics": 8582,
      "ĠFC": 8583,
      "grade": 8584,
      "Ġprinting": 8585,
      "Ġconsisting": 8586,
      "Ġinfluencers": 8587,
      "ĠPractice": 8588,
      "ĠLewis": 8589,
      "aware": 8590,
      "Ġfaculty": 8591,
      "Ġcrisis": 8592,
      "fish": 8593,
      "Ġthrow": 8594,
      "riers": 8595,
      "agu": 8596,
      "Ġcompetitors": 8597,
      "ĠTwitter": 8598,
      "ĠBos": 8599,
      "ĠDark": 8600,
      "casting": 8601,
      "ographer": 8602,
      "ĠTri": 8603,
      "Ġbear": 8604,
      "Ġalcoh": 8605,
      "Ġotherwise": 8606,
      "Inter": 8607,
      "Ġrose": 8608,
      "ĠMedical": 8609,
      "ĠModern": 8610,
      "Ġcou": 8611,
      "amics": 8612,
      "Ġlect": 8613,
      "Ġexcitement": 8614,
      "Australian": 8615,
      "lem": 8616,
      "ĠFarm": 8617,
      "Ġsought": 8618,
      "urers": 8619,
      "inkle": 8620,
      "Ġmatrix": 8621,
      "Ġattractions": 8622,
      "ĠPortuguese": 8623,
      "Ġuniversities": 8624,
      "ĠRub": 8625,
      "Ġconflicts": 8626,
      "ilder": 8627,
      "Ġ1936": 8628,
      "\").": 8629,
      "Ġrear": 8630,
      "ĠCape": 8631,
      "Ġislands": 8632,
      "asts": 8633,
      "marks": 8634,
      "ĠRepublican": 8635,
      "Ġchips": 8636,
      "Ġsinging": 8637,
      "Ġemails": 8638,
      "long": 8639,
      "ĠBat": 8640,
      "ifies": 8641,
      "Ġtitled": 8642,
      "Ġceremony": 8643,
      "Ġsacr": 8644,
      "Ġphenomen": 8645,
      "afe": 8646,
      "Ġshares": 8647,
      "Ġevaluate": 8648,
      "ĠHy": 8649,
      "ĠConc": 8650,
      "Ġ1938": 8651,
      "dist": 8652,
      "Ġstruggled": 8653,
      "57": 8654,
      "Ġmort": 8655,
      "52": 8656,
      "ĠBulgar": 8657,
      "eding": 8658,
      "Ġhighlights": 8659,
      "Ġtests": 8660,
      "Ġhoriz": 8661,
      "Ġcolleagues": 8662,
      "inburgh": 8663,
      "Ġdisorders": 8664,
      "Ġproviders": 8665,
      "Ġinspire": 8666,
      "ĠMars": 8667,
      "Ġgovernments": 8668,
      "58": 8669,
      "Ġtheore": 8670,
      "itts": 8671,
      "Ġhuge": 8672,
      "Ġroots": 8673,
      "Ġunderst": 8674,
      "ttp": 8675,
      "Ġrhythm": 8676,
      "Ġromantic": 8677,
      "ĠCra": 8678,
      "Ġparallel": 8679,
      "**:": 8680,
      "ĠRa": 8681,
      "ĠJam": 8682,
      "ouston": 8683,
      "ĠTelevision": 8684,
      "ĠPerform": 8685,
      "icut": 8686,
      "ĠRegional": 8687,
      "Ġencountered": 8688,
      "ĠMun": 8689,
      "Ġexploration": 8690,
      "umbled": 8691,
      "Ġactresses": 8692,
      "DP": 8693,
      "Ġstages": 8694,
      "apes": 8695,
      "erto": 8696,
      "rior": 8697,
      "Ġroutes": 8698,
      "Ġconsole": 8699,
      "ospit": 8700,
      "Ġbanks": 8701,
      "Ġopera": 8702,
      "ĠMarg": 8703,
      "Ġdecrease": 8704,
      "Ġimpressive": 8705,
      "Ġsan": 8706,
      "ĠBrian": 8707,
      "uggest": 8708,
      "Hey": 8709,
      "hat": 8710,
      "Ġinsurance": 8711,
      "ĠGlasgow": 8712,
      "Play": 8713,
      "VID": 8714,
      "ĠCut": 8715,
      "Ġgene": 8716,
      "ĠKim": 8717,
      "Ġzero": 8718,
      "Ġstrik": 8719,
      "anger": 8720,
      "Ġ33": 8721,
      "Ġ48": 8722,
      "Ġshelter": 8723,
      "1992": 8724,
      "ĠMountains": 8725,
      "thesis": 8726,
      "CH": 8727,
      "ĠIns": 8728,
      "ĠOutput": 8729,
      "Ġneut": 8730,
      "Ġobserved": 8731,
      "ĠDigital": 8732,
      "cell": 8733,
      "Ġbroke": 8734,
      "600": 8735,
      "mates": 8736,
      "Ġpun": 8737,
      "omic": 8738,
      "Ġexperts": 8739,
      "\"),": 8740,
      "yard": 8741,
      "Ġclothes": 8742,
      "Ġrefused": 8743,
      "Ġchoosing": 8744,
      "Ġseparated": 8745,
      "eta": 8746,
      "irty": 8747,
      "68": 8748,
      "Rew": 8749,
      "size": 8750,
      "ĠDavis": 8751,
      "Ġpursue": 8752,
      "Ġscenes": 8753,
      "Born": 8754,
      "ĠNap": 8755,
      "ĠOak": 8756,
      "Govern": 8757,
      "ocado": 8758,
      "profit": 8759,
      "Ġevolved": 8760,
      "ĠHan": 8761,
      "Who": 8762,
      "Ġthousands": 8763,
      "mat": 8764,
      "Ġtack": 8765,
      "ori": 8766,
      "Ġda": 8767,
      "ults": 8768,
      "2012": 8769,
      "Ġaffil": 8770,
      "ĠBuddh": 8771,
      "Ġpermanent": 8772,
      "51": 8773,
      "sect": 8774,
      "ĠOnline": 8775,
      "Ġbreaking": 8776,
      "William": 8777,
      "Ġwaters": 8778,
      "azines": 8779,
      "ancer": 8780,
      "ossible": 8781,
      "Ġcoverage": 8782,
      "Ġregarded": 8783,
      "ĠEngineering": 8784,
      "elve": 8785,
      "Ġghost": 8786,
      "Ġ120": 8787,
      "ĠRoy": 8788,
      "Ġrepair": 8789,
      "Ġdiplom": 8790,
      "lon": 8791,
      "ĠKat": 8792,
      "Ġinsert": 8793,
      "Provide": 8794,
      "Ġsle": 8795,
      "ĠSimon": 8796,
      "igrants": 8797,
      "Ġlie": 8798,
      "imens": 8799,
      "Ġoxygen": 8800,
      ")\"": 8801,
      "01": 8802,
      "RA": 8803,
      "ĠDrag": 8804,
      "Ġprovincial": 8805,
      "Ġcutting": 8806,
      "Ġneighb": 8807,
      "urpose": 8808,
      "ĠArmen": 8809,
      "Ġmode": 8810,
      "Ġdefense": 8811,
      "Ġskillet": 8812,
      "ĠSon": 8813,
      "ĠIV": 8814,
      "ĠDer": 8815,
      "veys": 8816,
      "ĠNick": 8817,
      "Ġneural": 8818,
      "Ġproduces": 8819,
      "Ġphase": 8820,
      "Ġdefinition": 8821,
      "->": 8822,
      "Ġboys": 8823,
      "Ġmining": 8824,
      "ographical": 8825,
      "Ġtablespoons": 8826,
      "Ġfur": 8827,
      "Ġnotice": 8828,
      "Ġbrings": 8829,
      "Ġfurniture": 8830,
      "ĠLy": 8831,
      "Ġreson": 8832,
      "Ġsoccer": 8833,
      "Through": 8834,
      "Ġsummarize": 8835,
      "ĠCaptain": 8836,
      "Ġax": 8837,
      "Ġcomic": 8838,
      "Ġchest": 8839,
      "spec": 8840,
      "appy": 8841,
      "ĠStory": 8842,
      "Ġroasted": 8843,
      "Ġtemple": 8844,
      "Ġforever": 8845,
      "uration": 8846,
      "2011": 8847,
      "Ġrepeated": 8848,
      "Rep": 8849,
      "ĠJer": 8850,
      "ĠOttoman": 8851,
      "Ġtight": 8852,
      "ĠChannel": 8853,
      "ĠEnjoy": 8854,
      "ĠĠĠĠĠĠĠĠĠ": 8855,
      "Ġheads": 8856,
      "ĠSamantha": 8857,
      "Ġaimed": 8858,
      "Ġ;": 8859,
      "ĠHo": 8860,
      "ĠMaybe": 8861,
      "Ġmarine": 8862,
      "anth": 8863,
      "Per": 8864,
      "using": 8865,
      "ĠAdvent": 8866,
      "Ġinvestigation": 8867,
      "Ġweekly": 8868,
      "ĠModel": 8869,
      "ellect": 8870,
      "ĠABC": 8871,
      "Ġextremely": 8872,
      "icit": 8873,
      "Ġmodified": 8874,
      "Ġfinance": 8875,
      "Ġrust": 8876,
      "ĠGuard": 8877,
      "alog": 8878,
      "roke": 8879,
      "ĠRose": 8880,
      "Ġdisaster": 8881,
      "obb": 8882,
      "Ġinjuries": 8883,
      "ĠQueensland": 8884,
      "ĠBarn": 8885,
      "Ġdesire": 8886,
      "ĠSquare": 8887,
      "anas": 8888,
      "ĠBecause": 8889,
      "ĠRest": 8890,
      "ĠLink": 8891,
      "Ġthank": 8892,
      "Ġmoves": 8893,
      "Ġinfluential": 8894,
      "Ġlayout": 8895,
      "Ġdanger": 8896,
      "91": 8897,
      "ĠNatural": 8898,
      "Ġdialogue": 8899,
      "Ġmal": 8900,
      "Ġstraw": 8901,
      "ĠSix": 8902,
      "ln": 8903,
      "uilt": 8904,
      "Ġdiced": 8905,
      "antine": 8906,
      "abama": 8907,
      "Ġcalling": 8908,
      "Ġsymbols": 8909,
      "Ġaw": 8910,
      "ĠFind": 8911,
      "ĠMarine": 8912,
      "Ġmeaningful": 8913,
      "Ġoccupied": 8914,
      "Ġenabling": 8915,
      "Ġequivalent": 8916,
      "Ġcopy": 8917,
      "La": 8918,
      "Ġflying": 8919,
      "ibli": 8920,
      "ĠEdinburgh": 8921,
      "Ġjournalist": 8922,
      "Ġdisplays": 8923,
      "ni": 8924,
      "ĠPier": 8925,
      "Ġshoes": 8926,
      "Ġque": 8927,
      "ĠSy": 8928,
      "Ġfarming": 8929,
      "ĠChall": 8930,
      "1991": 8931,
      "Ġmeetings": 8932,
      "Ġadjacent": 8933,
      "iser": 8934,
      "Ġped": 8935,
      "Ġdess": 8936,
      "Ġcha": 8937,
      "wick": 8938,
      "Ġhired": 8939,
      "Ġalle": 8940,
      "Ġfunctionality": 8941,
      "ĠBrad": 8942,
      "Ġsubsequent": 8943,
      "Ġfuels": 8944,
      "Ġbrows": 8945,
      "Ġrely": 8946,
      "Ġsnack": 8947,
      "Ġreign": 8948,
      "Ġgiant": 8949,
      "Ġkm": 8950,
      "Ġadm": 8951,
      "Ġburied": 8952,
      "ĠBillboard": 8953,
      "leveland": 8954,
      "ĠEntertainment": 8955,
      "hr": 8956,
      "iÃ³n": 8957,
      "Ġpitch": 8958,
      "uses": 8959,
      "irts": 8960,
      "ĠEmperor": 8961,
      "Ġhits": 8962,
      "ĠBron": 8963,
      "Ġdecade": 8964,
      "Ġcoastal": 8965,
      "uma": 8966,
      "Ġru": 8967,
      "ĠAnna": 8968,
      "Ġvalley": 8969,
      "ĠPolice": 8970,
      "General": 8971,
      "Ġsubjects": 8972,
      "TA": 8973,
      "Ġcolorful": 8974,
      "Ġdressing": 8975,
      "burn": 8976,
      "Ġhes": 8977,
      "ĠFred": 8978,
      "ĠRegular": 8979,
      "Ġaccurately": 8980,
      "powered": 8981,
      "ĠHawai": 8982,
      "aria": 8983,
      "Ġbes": 8984,
      "Ġrestrict": 8985,
      "Ġgraduate": 8986,
      "Ġzone": 8987,
      "ĠWolf": 8988,
      "Ġmunicipal": 8989,
      "Ġdisestab": 8990,
      "Ġauthent": 8991,
      "ĠHold": 8992,
      "Ġspecialized": 8993,
      "ĠSerb": 8994,
      "ĠMaryland": 8995,
      "ĠSoft": 8996,
      "Ġbuying": 8997,
      "Ġperhaps": 8998,
      "ĠReport": 8999,
      "ĠDenmark": 9000,
      "omes": 9001,
      "olph": 9002,
      "Ġcater": 9003,
      "Ġglow": 9004,
      "emade": 9005,
      "Ġnewspapers": 9006,
      "rea": 9007,
      "Ġfalls": 9008,
      "raid": 9009,
      "Ġcompetitions": 9010,
      "path": 9011,
      "ĠShort": 9012,
      "Ġcircle": 9013,
      "oil": 9014,
      "Ġclearly": 9015,
      "Ġinventory": 9016,
      "Ġsomew": 9017,
      "Ġflexible": 9018,
      "fe": 9019,
      "Ġreverse": 9020,
      "Ġstable": 9021,
      "allas": 9022,
      "Ġsettle": 9023,
      "ĠMedal": 9024,
      "Ġrival": 9025,
      "Ġadoption": 9026,
      "tical": 9027,
      "Ġbon": 9028,
      "ĠGh": 9029,
      "Ġaffects": 9030,
      "Ġdrawing": 9031,
      "Ġjudge": 9032,
      "Ġethnic": 9033,
      "Ġ1918": 9034,
      "Ġinstallation": 9035,
      "Ġcul": 9036,
      "ĠFI": 9037,
      "agh": 9038,
      "Ġpotentially": 9039,
      "ĠQuebec": 9040,
      "Ġ(,": 9041,
      "Ġdrawn": 9042,
      "Ġphotograph": 9043,
      "nia": 9044,
      "new": 9045,
      "Ġfert": 9046,
      "raq": 9047,
      "Ġvenue": 9048,
      "ĠDakota": 9049,
      "osa": 9050,
      "Ġhill": 9051,
      "ĠĠĠĠĠĠ": 9052,
      "ĠOd": 9053,
      "amps": 9054,
      "Ġfinishing": 9055,
      "Me": 9056,
      "Ġinterior": 9057,
      "Ġelectrical": 9058,
      "hour": 9059,
      "ĠSem": 9060,
      "Ġpublication": 9061,
      "ichel": 9062,
      "Ġindicate": 9063,
      "center": 9064,
      "ĠDisney": 9065,
      "Ġpit": 9066,
      "Although": 9067,
      "sky": 9068,
      "ĠIce": 9069,
      "ĠDanish": 9070,
      "1970": 9071,
      "OM": 9072,
      "ĠMas": 9073,
      "Ġminimal": 9074,
      "ĠHoward": 9075,
      "Ġownership": 9076,
      "Ġclassified": 9077,
      "Ġwidth": 9078,
      "Ġprints": 9079,
      "Ġhorror": 9080,
      "Ġfascinating": 9081,
      "ĠCab": 9082,
      "ĠBan": 9083,
      "ĠJesus": 9084,
      "74": 9085,
      "struction": 9086,
      "Ġcrack": 9087,
      "Ġdesert": 9088,
      "ĠOrchestra": 9089,
      "ĠMoscow": 9090,
      "ĠAmericans": 9091,
      "ĠInclude": 9092,
      "Ġmonthly": 9093,
      "Ġchairman": 9094,
      "05": 9095,
      "atus": 9096,
      "Ġhun": 9097,
      "season": 9098,
      "Ġcelebrated": 9099,
      "ĠConnecticut": 9100,
      "`,": 9101,
      "`.": 9102,
      "died": 9103,
      "Ġber": 9104,
      "ĠSpe": 9105,
      "agen": 9106,
      "Ġcontained": 9107,
      "Ġinvesting": 9108,
      "ĠFrancis": 9109,
      "Ġdropped": 9110,
      "ĠDiego": 9111,
      "Ġstrip": 9112,
      "Ġcharged": 9113,
      "ĠIndust": 9114,
      "onies": 9115,
      "chant": 9116,
      "action": 9117,
      "ĠVar": 9118,
      "Ġdefend": 9119,
      "Ġtort": 9120,
      "ĠHills": 9121,
      "ĠDam": 9122,
      "ector": 9123,
      "ĠPrim": 9124,
      "Ġdomain": 9125,
      "Ġtropical": 9126,
      "istol": 9127,
      "Ġincident": 9128,
      "Ġvisible": 9129,
      "ĠSwiss": 9130,
      "ĠCare": 9131,
      "anton": 9132,
      "ĠThird": 9133,
      "Ġresponsibilities": 9134,
      "Ġtiss": 9135,
      "Ġabst": 9136,
      "Ġartwork": 9137,
      "Ġsubsid": 9138,
      "Ġcandidates": 9139,
      "David": 9140,
      "etch": 9141,
      "ĠKal": 9142,
      "Ġrecordings": 9143,
      "Ġ1933": 9144,
      "University": 9145,
      "Do": 9146,
      "Two": 9147,
      "ĠPict": 9148,
      "ĠHart": 9149,
      "cknow": 9150,
      "Ġinformative": 9151,
      "eland": 9152,
      "elsh": 9153,
      "Ġequipped": 9154,
      "Ġmessaging": 9155,
      "SO": 9156,
      "Ġ!": 9157,
      "agan": 9158,
      "Ġentrance": 9159,
      "Ġhappen": 9160,
      "forc": 9161,
      "ĠMalays": 9162,
      "var": 9163,
      "scale": 9164,
      "ref": 9165,
      "Ġsons": 9166,
      "Ġjoining": 9167,
      "ĠPortugal": 9168,
      "Ġemployment": 9169,
      "Ġnavigation": 9170,
      "ĠUlt": 9171,
      "FM": 9172,
      "storm": 9173,
      "rying": 9174,
      "Ġoffices": 9175,
      "aborate": 9176,
      "Ġstrategic": 9177,
      "Ġsensitive": 9178,
      "Ġdarkness": 9179,
      "Ġtennis": 9180,
      "Ġsoph": 9181,
      "auc": 9182,
      "Ġtwenty": 9183,
      "Ġsixth": 9184,
      "ĠAffairs": 9185,
      "Ġaired": 9186,
      "ĠMethod": 9187,
      "Ġlaid": 9188,
      "Ass": 9189,
      "enger": 9190,
      "ĠIslamic": 9191,
      "Ġcalories": 9192,
      "Ġnutrients": 9193,
      "53": 9194,
      "public": 9195,
      "Ġnoticed": 9196,
      "ĠSenior": 9197,
      "Ġyogurt": 9198,
      "[]": 9199,
      "ĠWeek": 9200,
      "Ġstaying": 9201,
      "pat": 9202,
      "adows": 9203,
      "ĠDomin": 9204,
      "akh": 9205,
      "ensed": 9206,
      "ĠExpl": 9207,
      "Ġgolf": 9208,
      "lementary": 9209,
      "Ġopposition": 9210,
      "Ġpeaceful": 9211,
      "HER": 9212,
      "ls": 9213,
      "Ġwet": 9214,
      "ĠFM": 9215,
      "Ġ1929": 9216,
      "vas": 9217,
      "Ġspoken": 9218,
      "><|": 9219,
      "ranean": 9220,
      "ĠMissouri": 9221,
      "ruption": 9222,
      "agn": 9223,
      "Ġprotocol": 9224,
      "Ġbomb": 9225,
      "Ġimprovements": 9226,
      "ĠPlaces": 9227,
      "evin": 9228,
      "Ġconcentration": 9229,
      "Ġjunior": 9230,
      "iami": 9231,
      "Ġprivacy": 9232,
      "Ġholiday": 9233,
      "Ġfestivals": 9234,
      "ĠMess": 9235,
      "Ġpossibly": 9236,
      "ĠWed": 9237,
      "ĠLat": 9238,
      "acts": 9239,
      "Ġupcoming": 9240,
      "ĠAlabama": 9241,
      "Ġreduces": 9242,
      "ĠTrue": 9243,
      "Former": 9244,
      "Ġauthors": 9245,
      "fol": 9246,
      "sort": 9247,
      "Ġrobot": 9248,
      "Ġvinegar": 9249,
      "bul": 9250,
      "ĠÎ": 9251,
      "Ġ1928": 9252,
      "ĠEle": 9253,
      "Ġ1932": 9254,
      "Ġlabels": 9255,
      "pir": 9256,
      "star": 9257,
      "ĠRef": 9258,
      "ints": 9259,
      "Ġorganize": 9260,
      "append": 9261,
      "elry": 9262,
      "Ġnerv": 9263,
      "Ġstarring": 9264,
      "Ġaddressing": 9265,
      "esh": 9266,
      "ĠIndones": 9267,
      "Ġcommittee": 9268,
      "ĠCEO": 9269,
      "ulum": 9270,
[...]
