{
  "version": "1.0",
  "truncation": null,
  "padding": null,
  "added_tokens": [
    {
      "id": 0,
      "content": "<|bos|>",
      "single_word": false,
      "lstrip": false,
      "rstrip": false,
      "normalized": false,
      "special": true
    },
    {
      "id": 1,
      "content": "<|eos|>",
      "single_word": false,
      "lstrip": false,
      "rstrip": false,
      "normalized": false,
      "special": true
    },
    {
      "id": 2,
      "content": "<|pad|>",
      "single_word": false,
      "lstrip": false,
      "rstrip": false,
      "normalized": false,
      "special": true
    },
    {
      "id": 3,
      "content": "<|system|>",
      "single_word": false,
      "lstrip": false,
      "rstrip": false,
      "normalized": false,
      "special": true
    },
    {
      "id": 4,
      "content": "<|user|>",
      "single_word": false,
      "lstrip": false,
      "rstrip": false,
      "normalized": false,
      "special": true
    },
    {
      "id": 5,
      "content": "<|assistant|>",
      "single_word": false,
      "lstrip": false,
      "rstrip": false,
      "normalized": false,
      "special": true
    }
  ],
  "normalizer": null,
  "pre_tokenizer": {
    "type": "ByteLevel",
    "add_prefix_space": false,
    "trim_offsets": true,
    "use_regex": true
  },
  "post_processor": null,
  "decoder": {
    "type": "ByteLevel",
    "add_prefix_space": true,
    "trim_offsets": true,
    "use_regex": true
  },
  "model": {
    "type": "BPE",
    "dropout": null,
    "unk_token": null,
    "continuing_subword_prefix": null,
    "end_of_word_suffix": null,
    "fuse_unk": false,
    "byte_fallback": false,
    "ignore_merges": false,
    "vocab": {
      "<|bos|>": 0,
      "<|eos|>": 1,
      "<|pad|>": 2,
      "<|system|>": 3,
      "<|user|>": 4,
      "<|assistant|>": 5,
      "!": 6,
      "\"": 7,
      "#": 8,
      "$": 9,
      "%": 10,
      "&": 11,
      "'": 12,
      "(": 13,
      ")": 14,
      "*": 15,
      "+": 16,
      ",": 17,
      "-": 18,
      ".": 19,
      "/": 20,
      "0": 21,
      "1": 22,
      "2": 23,
      "3": 24,
      "4": 25,
      "5": 26,
      "6": 27,
      "7": 28,
      "8": 29,
      "9": 30,
      ":": 31,
      ";": 32,
      "<": 33,
      "=": 34,
      ">": 35,
      "?": 36,
      "@": 37,
      "A": 38,
      "B": 39,
      "C": 40,
      "D": 41,
      "E": 42,
      "F": 43,
      "G": 44,
      "H": 45,
      "I": 46,
      "J": 47,
      "K": 48,
      "L": 49,
      "M": 50,
      "N": 51,
      "O": 52,
      "P": 53,
      "Q": 54,
      "R": 55,
      "S": 56,
      "T": 57,
      "U": 58,
      "V": 59,
      "W": 60,
      "X": 61,
      "Y": 62,
      "Z": 63,
      "[": 64,
      "\\": 65,
      "]": 66,
      "^": 67,
      "_": 68,
      "`": 69,
      "a": 70,
      "b": 71,
      "c": 72,
      "d": 73,
      "e": 74,
      "f": 75,
      "g": 76,
      "h": 77,
      "i": 78,
      "j": 79,
      "k": 80,
      "l": 81,
      "m": 82,
      "n": 83,
      "o": 84,
      "p": 85,
      "q": 86,
      "r": 87,
      "s": 88,
      "t": 89,
      "u": 90,
      "v": 91,
      "w": 92,
      "x": 93,
      "y": 94,
      "z": 95,
      "{": 96,
      "|": 97,
      "}": 98,
      "~": 99,
      "¡": 100,
      "¢": 101,
      "£": 102,
      "¤": 103,
      "¥": 104,
      "¦": 105,
      "§": 106,
      "¨": 107,
      "©": 108,
      "ª": 109,
      "«": 110,
      "¬": 111,
      "®": 112,
      "¯": 113,
      "°": 114,
      "±": 115,
      "²": 116,
      "³": 117,
      "´": 118,
      "µ": 119,
      "¶": 120,
      "·": 121,
      "¸": 122,
      "¹": 123,
      "º": 124,
      "»": 125,
      "¼": 126,
      "½": 127,
      "¾": 128,
      "¿": 129,
      "À": 130,
      "Á": 131,
      "Â": 132,
      "Ã": 133,
      "Ä": 134,
      "Å": 135,
      "Æ": 136,
      "Ç": 137,
      "È": 138,
      "É": 139,
      "Ê": 140,
      "Ë": 141,
      "Ì": 142,
      "Í": 143,
      "Î": 144,
      "Ï": 145,
      "Ð": 146,
      "Ñ": 147,
      "Ò": 148,
      "Ó": 149,
      "Ô": 150,
      "Õ": 151,
      "Ö": 152,
      "×": 153,
      "Ø": 154,
      "Ù": 155,
      "Ú": 156,
      "Û": 157,
      "Ü": 158,
      "Ý": 159,
      "Þ": 160,
      "ß": 161,
      "à": 162,
      "á": 163,
      "â": 164,
      "ã": 165,
      "ä": 166,
      "å": 167,
      "æ": 168,
      "ç": 169,
      "è": 170,
      "é": 171,
      "ê": 172,
      "ë": 173,
      "ì": 174,
      "í": 175,
      "î": 176,
      "ï": 177,
      "ð": 178,
      "ñ": 179,
      "ò": 180,
      "ó": 181,
      "ô": 182,
      "õ": 183,
      "ö": 184,
      "÷": 185,
      "ø": 186,
      "ù": 187,
      "ú": 188,
      "û": 189,
      "ü": 190,
      "ý": 191,
      "þ": 192,
      "ÿ": 193,
      "Ā": 194,
      "ā": 195,
      "Ă": 196,
      "ă": 197,
      "Ą": 198,
      "ą": 199,
      "Ć": 200,
      "ć": 201,
      "Ĉ": 202,
      "ĉ": 203,
      "Ċ": 204,
      "ċ": 205,
      "Č": 206,
      "č": 207,
      "Ď": 208,
      "ď": 209,
      "Đ": 210,
      "đ": 211,
      "Ē": 212,
      "ē": 213,
      "Ĕ": 214,
      "ĕ": 215,
      "Ė": 216,
      "ė": 217,
      "Ę": 218,
      "ę": 219,
      "Ě": 220,
      "ě": 221,
      "Ĝ": 222,
      "ĝ": 223,
      "Ğ": 224,
      "ğ": 225,
      "Ġ": 226,
      "ġ": 227,
      "Ģ": 228,
      "ģ": 229,
      "Ĥ": 230,
      "ĥ": 231,
      "Ħ": 232,
      "ħ": 233,
      "Ĩ": 234,
      "ĩ": 235,
      "Ī": 236,
      "ī": 237,
      "Ĭ": 238,
      "ĭ": 239,
      "Į": 240,
      "į": 241,
      "İ": 242,
      "ı": 243,
      "Ĳ": 244,
      "ĳ": 245,
      "Ĵ": 246,
      "ĵ": 247,
      "Ķ": 248,
      "ķ": 249,
      "ĸ": 250,
      "Ĺ": 251,
      "ĺ": 252,
      "Ļ": 253,
      "ļ": 254,
      "Ľ": 255,
      "ľ": 256,
      "Ŀ": 257,
      "ŀ": 258,
      "Ł": 259,
      "ł": 260,
      "Ń": 261,
      "ĠĠ": 262,
      "čĊ": 263,
      "Ġt": 264,
      "er": 265,
      "Ġa": 266,
      "Ġi": 267,
      "ĠĠĠĠ": 268,
      "on": 269,
      "or": 270,
      "Ġs": 271,
      "Ġf": 272,
      "ou": 273,
      "in": 274,
      "Ġth": 275,
      "Ġc": 276,
      "at": 277,
      "st": 278,
      "re": 279,
      "Ġw": 280,
      "<|": 281,
      "|>": 282,
      "Ġm": 283,
      "nt": 284,
      "le": 285,
      "Ġthe": 286,
      "ĠĠĠ": 287,
      "me": 288,
      "os": 289,
      "nd": 290,
      "it": 291,
      "Ġb": 292,
      "Ġd": 293,
      "you": 294,
      "ing": 295,
      "Ġn": 296,
      "Ġyou": 297,
      "Ġp": 298,
      "Ġl": 299,
      "ut": 300,
      "et": 301,
      "ke": 302,
      "Ġit": 303,
      "Ġto": 304,
      "us": 305,
      "al": 306,
      "'s": 307,
      "Ġ=": 308,
      "``": 309,
      "eos": 310,
      "|><|": 311,
      "ot": 312,
      "ĠĠĠĠĠĠĠ": 313,
      "he": 314,
      "Ġe": 315,
      "Ġand": 316,
      "an": 317,
      "Ġin": 318,
      "ss": 319,
      "ri": 320,
      "ĠI": 321,
      "om": 322,
      "Ġre": 323,
      "ow": 324,
      "ed": 325,
      "es": 326,
      "ist": 327,
      "op": 328,
      "Ġon": 329,
      "Ġfor": 330,
      "ion": 331,
      "ac": 332,
      "ant": 333,
      "ile": 334,
      "ll": 335,
      "Ġ'": 336,
      "ic": 337,
      "ve": 338,
      ".<|": 339,
      "Ġg": 340,
      "ord": 341,
      "ime": 342,
      "mp": 343,
      "ol": 344,
      "Ġh": 345,
      "Ġif": 346,
      "Ġst": 347,
      "Ġthat": 348,
      "ith": 349,
      "ar": 350,
      "ame": 351,
      "ly": 352,
      "th": 353,
      "ĠĠĠĠĠĠĠĠĠĠĠ": 354,
      "Ġr": 355,
      "user": 356,
      "um": 357,
      "ass": 358,
      "```": 359,
      "hat": 360,
      "istant": 361,
      "assistant": 362,
      "ount": 363,
      "Ġbut": 364,
      "ad": 365,
      "pt": 366,
      "Ġne": 367,
      "ver": 368,
      "de": 369,
      "ike": 370,
      "of": 371,
      "up": 372,
      "Ġus": 373,
      "',": 374,
      "ent": 375,
      "ĠC": 376,
      "Ġis": 377,
      "Ġwith": 378,
      "name": 379,
      "ec": 380,
      "Ġ1": 381,
      "ere": 382,
      "ht": 383,
      "ub": 384,
      "ur": 385,
      "ĠH": 386,
      "one": 387,
      "')": 388,
      "if": 389,
      "ls": 390,
      "ĠT": 391,
      "Ġdo": 392,
      "Ġlike": 393,
      "ig": 394,
      "ost": 395,
      "Ġ(": 396,
      "Ġ`": 397,
      "Ġfile": 398,
      "Ġword": 399,
      "old": 400,
      "()": 401,
      "Ġor": 402,
      "Ġma": 403,
      "ce": 404,
      "ort": 405,
      "Ġcan": 406,
      "Ġyour": 407,
      "Ġha": 408,
      "ck": 409,
      "is": 410,
      "ust": 411,
      "yth": 412,
      "ine": 413,
      "ath": 414,
      "ounter": 415,
      "?<|": 416,
      "est": 417,
      "ers": 418,
      "Ġas": 419,
      "Ġcon": 420,
      "ĠIf": 421,
      "en": 422,
      "rom": 423,
      "ĠA": 424,
      "ĠF": 425,
      "out": 426,
      "Ġuse": 427,
      "ython": 428,
      "lt": 429,
      "un": 430,
      "Ġnot": 431,
      "Ġex": 432,
      "Ġneed": 433,
      "older": 434,
      "'t": 435,
      "('": 436,
      "ay": 437,
      "imp": 438,
      "jo": 439,
      "od": 440,
      "se": 441,
      "Ġof": 442,
      "Ġso": 443,
      "Ġfi": 444,
      "omm": 445,
      "=\"": 446,
      "lo": 447,
      "put": 448,
      "ĠB": 449,
      "Ġfiles": 450,
      "qu": 451,
      "ro": 452,
      "Ġ0": 453,
      "ĠP": 454,
      "ĠS": 455,
      "ate": 456,
      "Ġme": 457,
      "ĠHere": 458,
      "ab": 459,
      "ct": 460,
      "cri": 461,
      "file": 462,
      "ge": 463,
      "pe": 464,
      "path": 465,
      "ure": 466,
      "Ġ<": 467,
      "Ġos": 468,
      "ore": 469,
      "Ġmy": 470,
      "Ġmost": 471,
      "Ġph": 472,
      "ommon": 473,
      "cript": 474,
      "IM": 475,
      "ip": 476,
      "time": 477,
      "tur": 478,
      "Ġ6": 479,
      "Ġtr": 480,
      "Ġtime": 481,
      "ind": 482,
      "ite": 483,
      "Ġdat": 484,
      "hen": 485,
      "Ġretur": 486,
      "Ġreturn": 487,
      "ch": 488,
      "ks": 489,
      "ml": 490,
      "Ġ\"": 491,
      "Ġ/": 492,
      "int": 493,
      "Ġche": 494,
      "ree": 495,
      "Ġget": 496,
      "Ġ10": 497,
      "Ġwords": 498,
      "Ġhave": 499,
      "'m": 500,
      "'re": 501,
      "99": 502,
      "You": 503,
      "and": 504,
      "id": 505,
      "just": 506,
      "li": 507,
      "ms": 508,
      "word": 509,
      "ĠU": 510,
      "Ġop": 511,
      "ation": 512,
      "Ġwant": 513,
      "Ġmore": 514,
      "Ġgi": 515,
      "lso": 516,
      "joke": 517,
      "bos": 518,
      "ir": 519,
      "ill": 520,
      "ld": 521,
      "Ġup": 522,
      "Ġjust": 523,
      "Ġall": 524,
      "Ġint": 525,
      "Ġsub": 526,
      "Ġcop": 527,
      "Ġwhat": 528,
      "Ġnum": 529,
      "Ġline": 530,
      "ows": 531,
      "Ġone": 532,
      "ions": 533,
      "ĠFor": 534,
      "Ġcheck": 535,
      "Ġnumb": 536,
      "That": 537,
      "common": 538,
      "dd": 539,
      "for": 540,
      "iss": 541,
      "python": 542,
      "ring": 543,
      "ue": 544,
      "ĠD": 545,
      "ĠG": 546,
      "ĠN": 547,
      "Ġv": 548,
      "Ġ{": 549,
      "Ġan": 550,
      "Ġser": 551,
      "Ġfa": 552,
      "Ġfrom": 553,
      "Ġch": 554,
      "Ġlo": 555,
      "ack": 556,
      "Ġstop": 557,
      "Ġnew": 558,
      "Ġsome": 559,
      "loat": 560,
      "'ll": 561,
      "):": 562,
      "</": 563,
      "CIM": 564,
      "ma": 565,
      "pa": 566,
      "Ġ+": 567,
      "Ġare": 568,
      "ĠĠĠĠĠĠĠĠĠĠĠĠĠĠĠ": 569,
      "Ġsimp": 570,
      "Ġthis": 571,
      "etime": 572,
      "key": 573,
      "html": 574,
      "Ġmake": 575,
      "ĠBut": 576,
      "Ġphone": 577,
      "Ġtry": 578,
      "Ġdatetime": 579,
      "lient": 580,
      "as": 581,
      "amp": 582,
      "apt": 583,
      "ep": 584,
      "folder": 585,
      "get": 586,
      "il": 587,
      "im": 588,
      "low": 589,
      "sv": 590,
      "ult": 591,
      "ĠO": 592,
      "Ġtest": 593,
      "Ġset": 594,
      "Ġfree": 595,
      "Ġfloat": 596,
      "Ġwh": 597,
      "Ġwr": 598,
      "Ġbe": 599,
      "Ġdri": 600,
      "Ġeac": 601,
      "Ġonly": 602,
      "Ġstring": 603,
      "ard": 604,
      "Ġrout": 605,
      "ĠAlso": 606,
      "Ġsimple": 607,
      "Ġeach": 608,
      "gh": 609,
      "lic": 610,
      "ode": 611,
      "pri": 612,
      "rint": 613,
      "te": 614,
      "Ġ2": 615,
      "Ġ3": 616,
      "ĠW": 617,
      "ĠYou": 618,
      "Ġadd": 619,
      "Ġsh": 620,
      "Ġscript": 621,
      "Ġfolder": 622,
      "ould": 623,
      "ough": 624,
      "Ġcom": 625,
      "Ġclient": 626,
      "Ġwe": 627,
      "Ġwor": 628,
      "Ġlist": 629,
      "oth": 630,
      "hey": 631,
      "art": 632,
      "off": 633,
      "ect": 634,
      "ight": 635,
      "root": 636,
      "filename": 637,
      "words": 638,
      "Ġgive": 639,
      "Ġsubm": 640,
      "Ġnumbers": 641,
      "Ġfast": 642,
      "\">": 643,
      "`.": 644,
      "counter": 645,
      "from": 646,
      "ire": 647,
      "pl": 648,
      "ror": 649,
      "ter": 650,
      "xt": 651,
      "ĠL": 652,
      "Ġsum": 653,
      "oup": 654,
      "Ġwif": 655,
      "Ġthen": 656,
      "ment": 657,
      "Ġby": 658,
      "Ġde": 659,
      "Ġdon": 660,
      "ally": 661,
      "alue": 662,
      "Ġres": 663,
      "Ġform": 664,
      "ace": 665,
      "act": 666,
      "Ġrun": 667,
      "ĠCounter": 668,
      "ĠThat": 669,
      "Ġopen": 670,
      "Ġwifi": 671,
      ").": 672,
      "//": 673,
      "ap": 674,
      "end": 675,
      "ges": 676,
      "jp": 677,
      "ps": 678,
      "ug": 679,
      "with": 680,
      "ype": 681,
      "Ġ5": 682,
      "Ġhe": 683,
      "Ġal": 684,
      "Ġimp": 685,
      "ont": 686,
      "input": 687,
      "Ġthing": 688,
      "Ġcol": 689,
      "Ġcsv": 690,
      "Ġcode": 691,
      "Ġmult": 692,
      "itle": 693,
      "Ġpa": 694,
      "Ġprint": 695,
      "Ġ==": 696,
      "umn": 697,
      "vers": 698,
      "ĠHT": 699,
      "import": 700,
      "Ġcopy": 701,
      "issions": 702,
      "ĠGo": 703,
      "Ġserver": 704,
      "Ġchan": 705,
      "ackup": 706,
      "ample": 707,
      "Ġdrive": 708,
      "jpg": 709,
      "Ġimport": 710,
      "Ġmultip": 711,
      "%%": 712,
      "']": 713,
      "))": 714,
      "00": 715,
      ":\\": 716,
      "Just": 717,
      "ML": 718,
      "['": 719,
      "ea": 720,
      "ead": 721,
      "ger": 722,
      "oc": 723,
      "ok": 724,
      "ome": 725,
      "ves": 726,
      "vic": 727,
      "ĠM": 728,
      "Ġsp": 729,
      "Ġslow": 730,
      "ound": 731,
      "Ġthan": 732,
      "Ġcount": 733,
      "Ġcent": 734,
      "Ġmet": 735,
      "les": 736,
      "Ġlapt": 737,
      "utoff": 738,
      "etc": 739,
      "alk": 740,
      "all": 741,
      "Ġever": 742,
      "ans": 743,
      "rip": 744,
      "Ġread": 745,
      "acation": 746,
      "ick": 747,
      "ĠCS": 748,
      "ublic": 749,
      "Ġdoes": 750,
      "Ġexample": 751,
      "Ġfix": 752,
      "ĠPython": 753,
      "9999": 754,
      "mail": 755,
      "Ġ+=": 756,
      "Ġrouter": 757,
      "price": 758,
      "Ġsubmissions": 759,
      "version": 760,
      "Ġlaptop": 761,
      "10": 762,
      "://": 763,
      "DCIM": 764,
      "Ph": 765,
      "Sure": 766,
      "el": 767,
      "ey": 768,
      "fer": 769,
      "gu": 770,
      "io": 771,
      "iz": 772,
      "kip": 773,
      "nc": 774,
      "rst": 775,
      "swith": 776,
      "to": 777,
      "tps": 778,
      "ul": 779,
      "uck": 780,
      "Ġer": 781,
      "Ġqu": 782,
      "Ġkey": 783,
      "ern": 784,
      "Ġat": 785,
      "Ġsite": 786,
      "Ġfine": 787,
      "Ġfind": 788,
      "Ġcounter": 789,
      "atch": 790,
      "strip": 791,
      "Ġway": 792,
      "Ġmod": 793,
      "Ġmtime": 794,
      "Ġmight": 795,
      "Ġthey": 796,
      "ndle": 797,
      "iter": 798,
      "Ġbig": 799,
      "Ġname": 800,
      "Ġpl": 801,
      "Ġpri": 802,
      "Ġtoo": 803,
      "use": 804,
      "oto": 805,
      "otos": 806,
      "otal": 807,
      "Ġinst": 808,
      "opy": 809,
      "Ġgo": 810,
      "ars": 811,
      "thing": 812,
      "Ġro": 813,
      "def": 814,
      "delt": 815,
      "Ġusing": 816,
      "urls": 817,
      "())": 818,
      "cept": 819,
      "Ġhandle": 820,
      "join": 821,
      "Ġfirst": 822,
      "Ġtimedelt": 823,
      "indows": 824,
      "Ġopt": 825,
      "Ġcopi": 826,
      "ĠDCIM": 827,
      "ĠNone": 828,
      "Ġtrying": 829,
      "other": 830,
      "vice": 831,
      "Ġmeta": 832,
      "Ġerror": 833,
      "Ġtimedelta": 834,
      "Backup": 835,
      "IP": 836,
      "RL": 837,
      "TP": 838,
      "be": 839,
      "bod": 840,
      "boc": 841,
      "count": 842,
      "equ": 843,
      "gle": 844,
      "line": 845,
      "now": 846,
      "oint": 847,
      "ogle": 848,
      "rough": 849,
      "sum": 850,
      "ually": 851,
      "vate": 852,
      "vacation": 853,
      "ync": 854,
      "ybe": 855,
      "âĢ": 856,
      "Ġ*": 857,
      "Ġ-": 858,
      "Ġ.": 859,
      "Ġ>": 860,
      "ĠR": 861,
      "Ġ[": 862,
      "Ġ}": 863,
      "Ġle": 864,
      "Ġke": 865,
      "ĠJust": 866,
      "Ġversion": 867,
      "Ġtype": 868,
      "erf": 869,
      "ĠĠĠĠĠ": 870,
      "Ġsup": 871,
      "Ġsoup": 872,
      "Ġskip": 873,
      "Ġfont": 874,
      "Ġthrough": 875,
      "Ġcard": 876,
      "start": 877,
      "read": 878,
      "Ġwhen": 879,
      "Ġwill": 880,
      "Ġman": 881,
      "Ġthem": 882,
      "its": 883,
      "your": 884,
      "ings": 885,
      "Ġno": 886,
      "Ġpath": 887,
      "Ġpro": 888,
      "Ġ=>": 889,
      "ĠIP": 890,
      "ĠIt": 891,
      "Ġrequ": 892,
      "owed": 893,
      "llowed": 894,
      "mpt": 895,
      "Ġht": 896,
      "Ġround": 897,
      "ech": 898,
      "https": 899,
      "ĠThe": 900,
      "ĠThen": 901,
      "Ġmax": 902,
      "Ġmaybe": 903,
      "Ġconf": 904,
      "output": 905,
      "ays": 906,
      "ĠSa": 907,
      "Ġphotos": 908,
      "IMG": 909,
      "times": 910,
      "ĠUse": 911,
      "Ġinte": 912,
      "Ġsomething": 913,
      "imal": 914,
      "ĠOn": 915,
      "Ġwork": 916,
      "Ġalread": 917,
      "Ġcolumn": 918,
      "Ġpage": 919,
      "ĠGoogle": 920,
      "Ġmultiply": 921,
      "Ġcounts": 922,
      "Ġevery": 923,
      "Photo": 924,
      "Ġquick": 925,
      "Ġcopies": 926,
      "IPs": 927,
      "body": 928,
      "bocopy": 929,
      "Ġkeep": 930,
      "llowedIPs": 931,
      "Ġalready": 932,
      "PhotoBackup": 933,
      "'d": 934,
      "),": 935,
      "18": 936,
      "20": 937,
      "Jo": 938,
      "Key": 939,
      "Pe": 940,
      "XO": 941,
      "__": 942,
      "am": 943,
      "ain": 944,
      "ake": 945,
      "ase": 946,
      "ages": 947,
      "bs": 948,
      "but": 949,
      "col": 950,
      "cent": 951,
      "ext": 952,
      "ff": 953,
      "find": 954,
      "his": 955,
      "ial": 956,
      "lab": 957,
      "mb": 958,
      "nough": 959,
      "ple": 960,
      "pree": 961,
      "si": 962,
      "ser": 963,
      "script": 964,
      "then": 965,
      "ud": 966,
      "ui": 967,
      "ule": 968,
      "ues": 969,
      "value": 970,
      "wg": 971,
      "wor": 972,
      "walk": 973,
      "yle": 974,
      "Ġ#": 975,
      "Ġ%": 976,
      "ĠE": 977,
      "Ġk": 978,
      "Ġord": 979,
      "Ġold": 980,
      "Ġjoke": 981,
      "Ġetc": 982,
      "Ġurls": 983,
      "Ġother": 984,
      "Ġtw": 985,
      "Ġtitle": 986,
      "Ġtext": 987,
      "Ġalso": 988,
      "ory": 989,
      "orre": 990,
      "Ġspe": 991,
      "Ġfe": 992,
      "Ġfun": 993,
      "our": 994,
      "inal": 995,
      "Ġcommon": 996,
      "Ġcould": 997,
      "Ġcutoff": 998,
      "Ġcorre": 999,
      "res": 1000,
      "reate": 1001,
      "Ġmiss": 1002,
      "len": 1003,
      "lect": 1004,
      "Ġbot": 1005,
      "Ġblo": 1006,
      "Ġback": 1007,
      "Ġboth": 1008,
      "Ġdes": 1009,
      "Ġnon": 1010,
      "Ġper": 1011,
      "Ġpoint": 1012,
      "Ġlin": 1013,
      "Ġlim": 1014,
      "utif": 1015,
      "alse": 1016,
      "head": 1017,
      "Ġels": 1018,
      "Ġenough": 1019,
      "anks": 1020,
      "Ġrename": 1021,
      "own": 1022,
      "Ġforms": 1023,
      "ict": 1024,
      "ical": 1025,
      "Ġhost": 1026,
      "Ġstill": 1027,
      "that": 1028,
      "vert": 1029,
      "url": 1030,
      "ify": 1031,
      "Ġhas": 1032,
      "ests": 1033,
      "Ġcons": 1034,
      "Ġconvert": 1035,
      "ĠFalse": 1036,
      "Ġexcept": 1037,
      "ĠSo": 1038,
      "able": 1039,
      "ction": 1040,
      "cription": 1041,
      "Ġ\"%%": 1042,
      "andom": 1043,
      "ĠURL": 1044,
      "Ġgives": 1045,
      "Ġallow": 1046,
      "Ġinto": 1047,
      "Ġintern": 1048,
      "Ġchecks": 1049,
      "Ġnumber": 1050,
      "form": 1051,
      "Ġval": 1052,
      "Ġvalue": 1053,
      "Ġany": 1054,
      "Ġloop": 1055,
      "Ġload": 1056,
      "Ġsometimes": 1057,
      "lower": 1058,
      "Ġwhere": 1059,
      "Ġworks": 1060,
      "Ġfaster": 1061,
      "Ġresp": 1062,
      "Ġ50": 1063,
      "Ġhead": 1064,
      "ĠHTML": 1065,
      "ĠHTTP": 1066,
      "ĠCSS": 1067,
      "ize": 1068,
      "Ġmodule": 1069,
      "Ġbigger": 1070,
      "Ġinstead": 1071,
      "Ġskips": 1072,
      "mpty": 1073,
      "Ġhtml": 1074,
      "echo": 1075,
      "Ġconfig": 1076,
      "1820": 1077,
      "Joke": 1078,
      "Peer": 1079,
      "bsite": 1080,
      "cents": 1081,
      "label": 1082,
      "work": 1083,
      "Ġorder": 1084,
      "Ġspeed": 1085,
      "Ġcorrect": 1086,
      "Ġmissing": 1087,
      "Ġblock": 1088,
      "Ġelse": 1089,
      "'\\": 1090,
      "(['": 1091,
      "+\\": 1092,
      "07": 1093,
      "32": 1094,
      "='": 1095,
      "?')": 1096,
      "Add": 1097,
      "By": 1098,
      "Cam": 1099,
      "Ele": 1100,
      "For": 1101,
      "HT": 1102,
      "Hub": 1103,
      "Id": 1104,
      "If": 1105,
      "SD": 1106,
      "Total": 1107,
      "This": 1108,
      "Use": 1109,
      "USD": 1110,
      "Yes": 1111,
      "_')": 1112,
      "ause": 1113,
      "co": 1114,
      "cu": 1115,
      "cre": 1116,
      "com": 1117,
      "csv": 1118,
      "cont": 1119,
      "cutoff": 1120,
      "dat": 1121,
      "dit": 1122,
      "dis": 1123,
      "date": 1124,
      "days": 1125,
      "email": 1126,
      "fter": 1127,
      "ght": 1128,
      "gest": 1129,
      "gers": 1130,
      "ix": 1131,
      "ier": 1132,
      "lp": 1133,
      "like": 1134,
      "mit": 1135,
      "most": 1136,
      "mtime": 1137,
      "ner": 1138,
      "nect": 1139,
      "over": 1140,
      "ph": 1141,
      "pos": 1142,
      "ping": 1143,
      "pot": 1144,
      "port": 1145,
      "riter": 1146,
      "random": 1147,
      "son": 1148,
      "tal": 1149,
      "the": 1150,
      "title": 1151,
      "total": 1152,
      "ull": 1153,
      "writer": 1154,
      "Ġ8": 1155,
      "Ġu": 1156,
      "Ġun": 1157,
      "Ġok": 1158,
      "Ġown": 1159,
      "Ġover": 1160,
      "Ġter": 1161,
      "Ġtin": 1162,
      "Ġtup": 1163,
      "Ġtier": 1164,
      "era": 1165,
      "ered": 1166,
      "eric": 1167,
      "Ġab": 1168,
      "Ġad": 1169,
      "Ġap": 1170,
      "Ġafter": 1171,
      "Ġiss": 1172,
      "ĠĠĠĠĠĠĠĠĠĠĠĠĠĠĠĠĠĠĠ": 1173,
      "ĠĠĠĠĠĠĠĠĠ": 1174,
      "Ġse": 1175,
      "Ġsame": 1176,
      "Ġsure": 1177,
      "Ġsend": 1178,
      "Ġsour": 1179,
      "inde": 1180,
      "ination": 1181,
      "inner": 1182,
      "Ġthere": 1183,
      "Ġcl": 1184,
      "Ġcreate": 1185,
      "atic": 1186,
      "atter": 1187,
      "stamp": 1188,
      "reat": 1189,
      "ress": 1190,
      "rename": 1191,
      "Ġtheir": 1192,
      "ose": 1193,
      "itt": 1194,
      "itHub": 1195,
      "Ġbr": 1196,
      "Ġbas": 1197,
      "Ġbui": 1198,
      "Ġdest": 1199,
      "Ġdid": 1200,
      "Ġdire": 1201,
      "Ġnet": 1202,
      "Ġport": 1203,
      "Ġpython": 1204,
      "Ġpure": 1205,
      "Ġpublic": 1206,
      "Ġits": 1207,
      "Ġtool": 1208,
      "Ġtotal": 1209,
      "hell": 1210,
      "Ġeve": 1211,
      "Ġeas": 1212,
      "Ġemail": 1213,
      "Ġempty": 1214,
      "Ġinput": 1215,
      "right": 1216,
      "ower": 1217,
      "llars": 1218,
      "Ġ'/": 1219,
      "Ġgen": 1220,
      "Ġhome": 1221,
      "ary": 1222,
      "Ġrow": 1223,
      "Ġrows": 1224,
      "umeric": 1225,
      "Ġuses": 1226,
      "ĠCan": 1227,
      "ecause": 1228,
      "').": 1229,
      "'):": 1230,
      "ific": 1231,
      "ĠTr": 1232,
      "Ġdocu": 1233,
      "Ġdollars": 1234,
      "igh": 1235,
      "ign": 1236,
      "():": 1237,
      "cess": 1238,
      "Ġcont": 1239,
      "Ġconnect": 1240,
      "ĠAnd": 1241,
      "ĠAllowedIPs": 1242,
      "ltered": 1243,
      "Ġexist": 1244,
      "Ġexact": 1245,
      "('.": 1246,
      "ommand": 1247,
      "load": 1248,
      "ĠPages": 1249,
      "ĠSD": 1250,
      "timestamp": 1251,
      "Ġtra": 1252,
      "Ġtimes": 1253,
      "Ġdata": 1254,
      "Ġ100": 1255,
      "ird": 1256,
      "ĠForms": 1257,
      "ĠGitHub": 1258,
      "ĠNo": 1259,
      "Ġservice": 1260,
      "pare": 1261,
      "Ġmakes": 1262,
      "getEle": 1263,
      "getmtime": 1264,
      "ĠOr": 1265,
      "Ġwhy": 1266,
      "Ġwrite": 1267,
      "Ġwriter": 1268,
      "Ġdrives": 1269,
      "text": 1270,
      "ĠWhat": 1271,
      "ĠWindows": 1272,
      "ĠYour": 1273,
      "Ġshow": 1274,
      "Ġshows": 1275,
      "Ġshould": 1276,
      "Ġcomput": 1277,
      "Ġcomple": 1278,
      "Ġclients": 1279,
      "fromtimestamp": 1280,
      "ired": 1281,
      "iregu": 1282,
      "ĠLet": 1283,
      "mentBy": 1284,
      "Ġdevice": 1285,
      "api": 1286,
      "endswith": 1287,
      "Ġ51820": 1288,
      "Ġhelp": 1289,
      "Ġcollect": 1290,
      "'])": 1291,
      "'].": 1292,
      "001": 1293,
      "002": 1294,
      "eah": 1295,
      "eautif": 1296,
      "Ġspec": 1297,
      "Ġcents": 1298,
      "Ġcenter": 1299,
      "ansfer": 1300,
      "Ġreader": 1301,
      "ĠCSV": 1302,
      "Ġdoesn": 1303,
      "99999999": 1304,
      "Ġplug": 1305,
      "Ġprime": 1306,
      "Ġgood": 1307,
      "Ġrobocopy": 1308,
      "Ġoption": 1309,
      "Ġerrors": 1310,
      "equal": 1311,
      "âĢĶ": 1312,
      "Ġ})": 1313,
      "Ġlet": 1314,
      "startswith": 1315,
      "Ġmanually": 1316,
      "Ġprob": 1317,
      "Ġrequests": 1318,
      "Ġrounding": 1319,
      "ĠSales": 1320,
      "Ġintegers": 1321,
      "Ġmultiplying": 1322,
      "column": 1323,
      "ffic": 1324,
      "findall": 1325,
      "Ġtwo": 1326,
      "Ġfew": 1327,
      "Ġfunction": 1328,
      "Ġhosting": 1329,
      "Ġvalues": 1330,
      "ĠHTTPS": 1331,
      "Ġconfigs": 1332,
      "Camera": 1333,
      "HTML": 1334,
      "content": 1335,
      "Ġokay": 1336,
      "Ġtiny": 1337,
      "Ġsource": 1338,
      "index": 1339,
      "innerHTML": 1340,
      "Ġbased": 1341,
      "Ġdestination": 1342,
      "Ġdirect": 1343,
      "Ġnetwork": 1344,
      "Ġeven": 1345,
      "Ġeasi": 1346,
      "Ġdocument": 1347,
      "getElementBy": 1348,
      "ireguard": 1349,
      "Ġcollections": 1350,
      "getElementById": 1351,
      "\")": 1352,
      "\"')": 1353,
      "':": 1354,
      "'ve": 1355,
      "01": 1356,
      "02": 1357,
      "24": 1358,
      ":]": 1359,
      ":</": 1360,
      ":\"')": 1361,
      "<!": 1362,
      "AllowedIPs": 1363,
      "But": 1364,
      "CT": 1365,
      "DO": 1366,
      "Er": 1367,
      "Fa": 1368,
      "File": 1369,
      "Here": 1370,
      "Hey": 1371,
      "IR": 1372,
      "Int": 1373,
      "MIR": 1374,
      "NS": 1375,
      "No": 1376,
      "None": 1377,
      "OS": 1378,
      "PE": 1379,
      "PI": 1380,
      "Pri": 1381,
      "Port": 1382,
      "Public": 1383,
      "POS": 1384,
      "Read": 1385,
      "SB": 1386,
      "Soup": 1387,
      "Shell": 1388,
      "The": 1389,
      "Yeah": 1390,
      "YPE": 1391,
      "^|": 1392,
      "_'": 1393,
      "ah": 1394,
      "are": 1395,
      "ari": 1396,
      "ave": 1397,
      "age": 1398,
      "bon": 1399,
      "bpa": 1400,
      "cy": 1401,
      "con": 1402,
      "css": 1403,
      "client": 1404,
      "ds": 1405,
      "dri": 1406,
      "ex": 1407,
      "ever": 1408,
      "eld": 1409,
      "ebsite": 1410,
      "fold": 1411,
      "float": 1412,
      "gith": 1413,
      "gical": 1414,
      "hanks": 1415,
      "ils": 1416,
      "json": 1417,
      "list": 1418,
      "lify": 1419,
      "my": 1420,
      "mic": 1421,
      "mory": 1422,
      "minal": 1423,
      "ny": 1424,
      "nce": 1425,
      "nel": 1426,
      "numeric": 1427,
      "oh": 1428,
      "oid": 1429,
      "pn": 1430,
      "pen": 1431,
      "print": 1432,
      "public": 1433,
      "ra": 1434,
      "row": 1435,
      "ract": 1436,
      "ses": 1437,
      "sec": 1438,
      "sync": 1439,
      "sud": 1440,
      "size": 1441,
      "tr": 1442,
      "ton": 1443,
      "txt": 1444,
      "tings": 1445,
      "tlen": 1446,
      "ux": 1447,
      "uls": 1448,
      "uch": 1449,
      "uation": 1450,
      "ving": 1451,
      "vet": 1452,
      "void": 1453,
      "wid": 1454,
      "ward": 1455,
      "wall": 1456,
      "wireguard": 1457,
      "website": 1458,
      "wmic": 1459,
      "}\")": 1460,
      "Ġ)": 1461,
      "Ġ_": 1462,
      "Ġuser": 1463,
      "Ġout": 1464,
      "Ġ%%": 1465,
      "ĠâĢ": 1466,
      "Ġright": 1467,
      "Ġ^|": 1468,
      "Ġton": 1469,
      "Ġtri": 1470,
      "Ġten": 1471,
      "Ġtalk": 1472,
      "Ġtake": 1473,
      "Ġac": 1474,
      "Ġaut": 1475,
      "Ġavoid": 1476,
      "Ġid": 1477,
      "Ġide": 1478,
      "ong": 1479,
      "onth": 1480,
      "onds": 1481,
      "oring": 1482,
      "orri": 1483,
      "orks": 1484,
      "Ġsile": 1485,
      "Ġsec": 1486,
      "Ġsen": 1487,
      "Ġspa": 1488,
      "Ġsep": 1489,
      "Ġspl": 1490,
      "Ġsug": 1491,
      "Ġsequ": 1492,
      "Ġsync": 1493,
      "Ġfet": 1494,
      "Ġfull": 1495,
      "oud": 1496,
      "ini": 1497,
      "ince": 1498,
      "inimal": 1499,
      "inary": 1500,
      "Ġthose": 1501,
      "Ġcur": 1502,
      "Ġcod": 1503,
      "Ġcable": 1504,
      "Ġcommand": 1505,
      "string": 1506,
      "style": 1507,
      "rem": 1508,
      "rent": 1509,
      "rewall": 1510,
      "Ġwg": 1511,
      "Ġwon": 1512,
      "Ġwindows": 1513,
      "Ġmath": 1514,
      "Ġmill": 1515,
      "Ġmode": 1516,
      "Ġmuch": 1517,
      "Ġmonth": 1518,
      "Ġminimal": 1519,
      "ntly": 1520,
      "led": 1521,
      "memb": 1522,
      "nder": 1523,
      "ites": 1524,
      "Ġbit": 1525,
      "Ġbad": 1526,
      "Ġbug": 1527,
      "Ġbackup": 1528,
      "Ġbatch": 1529,
      "Ġbecause": 1530,
      "Ġbinary": 1531,
      "Ġdi": 1532,
      "Ġdet": 1533,
      "Ġdif": 1534,
      "Ġday": 1535,
      "Ġdate": 1536,
      "Ġdir": 1537,
      "Ġdict": 1538,
      "Ġnow": 1539,
      "Ġpre": 1540,
      "Ġping": 1541,
      "Ġput": 1542,
      "Ġpand": 1543,
      "Ġpart": 1544,
      "Ġpatter": 1545,
      "Ġlat": 1546,
      "Ġlot": 1547,
      "Ġlan": 1548,
      "Ġlar": 1549,
      "Ġluck": 1550,
      "etings": 1551,
      "etlify": 1552,
      "ked": 1553,
      "Ġtop": 1554,
      "allen": 1555,
      "Ġeith": 1556,
      "Ġema": 1557,
      "Ġemb": 1558,
      "Ġedit": 1559,
      "ange": 1560,
      "Ġincre": 1561,
      "ĠIn": 1562,
      "Ġref": 1563,
      "Ġrege": 1564,
      "Ġrepl": 1565,
      "Ġrestart": 1566,
      "Ġrememb": 1567,
      "escription": 1568,
      "istent": 1569,
      "isten": 1570,
      "Ġonload": 1571,
      "Ġforward": 1572,
      "aces": 1573,
      "iled": 1574,
      "Ġ''": 1575,
      "ich": 1576,
      "icial": 1577,
      "Ġgr": 1578,
      "Ġgu": 1579,
      "Ġgot": 1580,
      "Ġhow": 1581,
      "Ġhigh": 1582,
      "Ġstore": 1583,
      "Ġstart": 1584,
      "Ġstuck": 1585,
      "Ġstyle": 1586,
      "Ġstatic": 1587,
      "Ġstoring": 1588,
      "arate": 1589,
      "aract": 1590,
      "thern": 1591,
      "thanks": 1592,
      "Ġrsync": 1593,
      "Ġrange": 1594,
      "username": 1595,
      "```<|": 1596,
      "deli": 1597,
      "update": 1598,
      "Ġusually": 1599,
      "ĠCould": 1600,
      "Ġwithout": 1601,
      "eck": 1602,
      "ecimal": 1603,
      "erence": 1604,
      "ubmit": 1605,
      "ĠHow": 1606,
      "oney": 1607,
      "ĠTo": 1608,
      "ĠThanks": 1609,
      "Ġdoing": 1610,
      "Ġ('": 1611,
      "()\">": 1612,
      "()`.": 1613,
      "Ġmain": 1614,
      "ise": 1615,
      "ything": 1616,
      "Ġconversion": 1617,
      "ĠAPI": 1618,
      "ĠFir": 1619,
      "unch": 1620,
      "Ġexit": 1621,
      "Ġexpl": 1622,
      "Ġoff": 1623,
      "Ġfiltered": 1624,
      "Ġfield": 1625,
      "Ġfirewall": 1626,
      "ĠBot": 1627,
      "ĠBeautif": 1628,
      "roid": 1629,
      "robocopy": 1630,
      "ĠPut": 1631,
      "ĠPower": 1632,
      "ĠSome": 1633,
      "Ġmess": 1634,
      "Ġmemory": 1635,
      "Ġmeetings": 1636,
      "ably": 1637,
      "abase": 1638,
      "peat": 1639,
      "pend": 1640,
      "Ġ</": 1641,
      "Ġtransfer": 1642,
      "items": 1643,
      "Ġdatabase": 1644,
      "Ġreturns": 1645,
      "Ġ\":\"')": 1646,
      "Ġgets": 1647,
      "ĠgetJoke": 1648,
      "ider": 1649,
      "ĠUSB": 1650,
      "Ġsubfolder": 1651,
      "Ġsubfold": 1652,
      "ĠForm": 1653,
      "ĠNetlify": 1654,
      "Ġvacation": 1655,
      "Ġvpn": 1656,
      "Ġanother": 1657,
      "Ġfail": 1658,
      "Ġchallen": 1659,
      "Ġcharact": 1660,
      "Ġloc": 1661,
      "Ġlogical": 1662,
      "Ġnewline": 1663,
      "main": 1664,
      "pause": 1665,
      "getJoke": 1666,
      "ults": 1667,
      "ĠOpen": 1668,
      "Ġtests": 1669,
      "Ġfloating": 1670,
      "Ġwhile": 1671,
      "Ġwrong": 1672,
      "lick": 1673,
      "private": 1674,
      "ĠWhen": 1675,
      "Ġcompare": 1676,
      "Ġwebsite": 1677,
      "Ġweird": 1678,
      "Ġwebpa": 1679,
      "official": 1680,
      "\"></": 1681,
      "play": 1682,
      "ĠLike": 1683,
      "Ġdele": 1684,
      "Ġresults": 1685,
      "apps": 1686,
      "Ġprints": 1687,
      "Ġcopying": 1688,
      "ĠGood": 1689,
      "Ġchang": 1690,
      "Ġchange": 1691,
      "Ġchanges": 1692,
      "Ġchannel": 1693,
      "ĠMac": 1694,
      "ĠMake": 1695,
      "Ġspace": 1696,
      "Ġspaces": 1697,
      "Ġthanks": 1698,
      "Ġeverything": 1699,
      "Ġreads": 1700,
      "ferent": 1701,
      "guage": 1702,
      "ized": 1703,
      "ulSoup": 1704,
      "Ġfinds": 1705,
      "Ġplain": 1706,
      "Ġprice": 1707,
      "Ġroot": 1708,
      "Ġoptim": 1709,
      "vateKey": 1710,
      "ĠRun": 1711,
      "ĠRep": 1712,
      "erfect": 1713,
      "erface": 1714,
      "Ġsuper": 1715,
      "Ġsupport": 1716,
      "Ġmany": 1717,
      "Ġprocess": 1718,
      "Ġrequired": 1719,
      "ĠSave": 1720,
      "Ġinteger": 1721,
      "Ġkeeps": 1722,
      "button": 1723,
      "sive": 1724,
      "side": 1725,
      "server": 1726,
      "ĠEx": 1727,
      "ĠEthern": 1728,
      "Ġknow": 1729,
      "Ġbottlen": 1730,
      "Ġdesc": 1731,
      "Ġdescription": 1732,
      "Ġlink": 1733,
      "Ġlimit": 1734,
      "Ġlimits": 1735,
      "Ġformspree": 1736,
      "ictRead": 1737,
      "Ġconsistent": 1738,
      "Ġconsider": 1739,
      "Ġinternet": 1740,
      "Ġinternal": 1741,
      "Ġrespon": 1742,
      "Ġheader": 1743,
      "Ġcorrectly": 1744,
      "?'))": 1745,
      "Address": 1746,
      "cool": 1747,
      "data": 1748,
      "disk": 1749,
      "writerow": 1750,
      "Ġunder": 1751,
      "Ġterminal": 1752,
      "Ġtuples": 1753,
      "Ġabout": 1754,
      "Ġadapt": 1755,
      "Ġappe": 1756,
      "Ġissue": 1757,
      "Ġsee": 1758,
      "Ġbuild": 1759,
      "Ġdidn": 1760,
      "Ġgener": 1761,
      "ĠTrue": 1762,
      "Ġconnected": 1763,
      "ĠAndroid": 1764,
      "Ġtraffic": 1765,
      "Ġcomputer": 1766,
      "Ġcomplete": 1767,
      "Ġdeviceid": 1768,
      "Ġspecific": 1769,
      "Ġoptional": 1770,
      "Ġletter": 1771,
      "Ġeasiest": 1772,
      "CTYPE": 1773,
      "DOCTYPE": 1774,
      "Error": 1775,
      "Failed": 1776,
      "Interface": 1777,
      "PrivateKey": 1778,
      "PublicKey": 1779,
      "POST": 1780,
      "conf": 1781,
      "drivet": 1782,
      "github": 1783,
      "secure": 1784,
      "sudo": 1785,
      "ulsoup": 1786,
      "width": 1787,
      "ĠâĢĵ": 1788,
      "Ġtried": 1789,
      "Ġavoids": 1790,
      "Ġidea": 1791,
      "orris": 1792,
      "Ġsilently": 1793,
      "Ġseconds": 1794,
      "Ġsense": 1795,
      "Ġspam": 1796,
      "Ġseparate": 1797,
      "Ġsuggest": 1798,
      "Ġfetch": 1799,
      "Ġmillion": 1800,
      "Ġdetect": 1801,
      "Ġdifferent": 1802,
      "Ġdirs": 1803,
      "Ġpandas": 1804,
      "Ġpattern": 1805,
      "Ġlanguage": 1806,
      "Ġeither": 1807,
      "Ġemails": 1808,
      "Ġembed": 1809,
      "Ġincrement": 1810,
      "Ġregex": 1811,
      "istenPort": 1812,
      "delims": 1813,
      "ĠFirst": 1814,
      "Ġexplain": 1815,
      "ĠBeautifulSoup": 1816,
      "ĠPowerShell": 1817,
      "Ġsubfolders": 1818,
      "Ġchallenge": 1819,
      "Ġcharacters": 1820,
      "Ġlogicaldisk": 1821,
      "appspot": 1822,
      "ĠEthernet": 1823,
      "Ġbottleneck": 1824,
      "ictReader": 1825,
      "Ġconsistently": 1826,
      "drivetype": 1827
    },
    "merges": [
      [
        "Ġ",
        "Ġ"
      ],
      [
        "č",
        "Ċ"
      ],
      [
        "Ġ",
        "t"
      ],
      [
        "e",
        "r"
      ],
      [
        "Ġ",
        "a"
      ],
      [
        "Ġ",
        "i"
      ],
      [
        "ĠĠ",
        "ĠĠ"
      ],
      [
        "o",
        "n"
      ],
      [
        "o",
        "r"
      ],
      [
        "Ġ",
        "s"
      ],
      [
        "Ġ",
        "f"
      ],
      [
        "o",
        "u"
      ],
      [
        "i",
        "n"
      ],
      [
        "Ġt",
        "h"
      ],
      [
        "Ġ",
        "c"
      ],
      [
        "a",
        "t"
      ],
      [
        "s",
        "t"
      ],
      [
        "r",
        "e"
      ],
      [
        "Ġ",
        "w"
      ],
      [
        "<",
        "|"
      ],
      [
        "|",
        ">"
      ],
      [
        "Ġ",
        "m"
      ],
      [
        "n",
        "t"
      ],
      [
        "l",
        "e"
      ],
      [
        "Ġth",
        "e"
      ],
      [
        "ĠĠ",
        "Ġ"
      ],
      [
        "m",
        "e"
      ],
      [
        "o",
        "s"
      ],
      [
        "n",
        "d"
      ],
      [
        "i",
        "t"
      ],
      [
        "Ġ",
        "b"
      ],
      [
        "Ġ",
        "d"
      ],
      [
        "y",
        "ou"
      ],
      [
        "in",
        "g"
      ],
      [
        "Ġ",
        "n"
      ],
      [
        "Ġ",
        "you"
      ],
      [
        "Ġ",
        "p"
      ],
      [
        "Ġ",
        "l"
      ],
      [
        "u",
        "t"
      ],
      [
        "e",
        "t"
      ],
      [
        "k",
        "e"
      ],
      [
        "Ġi",
        "t"
      ],
      [
        "Ġt",
        "o"
      ],
      [
        "u",
        "s"
      ],
      [
        "a",
        "l"
      ],
      [
        "'",
        "s"
      ],
      [
        "Ġ",
        "="
      ],
      [
        "`",
        "`"
      ],
      [
        "e",
        "os"
      ],
      [
        "|>",
        "<|"
      ],
      [
        "o",
        "t"
      ],
      [
        "ĠĠĠĠ",
        "ĠĠĠ"
      ],
      [
        "h",
        "e"
      ],
      [
        "Ġ",
        "e"
      ],
      [
        "Ġa",
        "nd"
      ],
      [
        "a",
        "n"
      ],
      [
        "Ġi",
        "n"
      ],
      [
        "s",
        "s"
      ],
      [
        "r",
        "i"
      ],
      [
        "Ġ",
        "I"
      ],
      [
        "o",
        "m"
      ],
      [
        "Ġ",
        "re"
      ],
      [
        "o",
        "w"
      ],
      [
        "e",
        "d"
      ],
      [
        "e",
        "s"
      ],
      [
        "i",
        "st"
      ],
      [
        "o",
        "p"
      ],
      [
        "Ġ",
        "on"
      ],
      [
        "Ġf",
        "or"
      ],
      [
        "i",
        "on"
      ],
      [
        "a",
        "c"
      ],
      [
        "a",
        "nt"
      ],
      [
        "i",
        "le"
      ],
      [
        "l",
        "l"
      ],
      [
        "Ġ",
        "'"
      ],
      [
        "i",
        "c"
      ],
      [
        "v",
        "e"
      ],
      [
        ".",
        "<|"
      ],
      [
        "Ġ",
        "g"
      ],
      [
        "or",
        "d"
      ],
      [
        "i",
        "me"
      ],
      [
        "m",
        "p"
      ],
      [
        "o",
        "l"
      ],
      [
        "Ġ",
        "h"
      ],
      [
        "Ġi",
        "f"
      ],
      [
        "Ġs",
        "t"
      ],
      [
        "Ġth",
        "at"
      ],
      [
        "it",
        "h"
      ],
      [
        "a",
        "r"
      ],
      [
        "a",
        "me"
      ],
      [
        "l",
        "y"
      ],
      [
        "t",
        "h"
      ],
      [
        "ĠĠĠĠ",
        "ĠĠĠĠĠĠĠ"
      ],
      [
        "Ġ",
        "r"
      ],
      [
        "us",
        "er"
      ],
      [
        "u",
        "m"
      ],
      [
        "a",
        "ss"
      ],
      [
        "``",
        "`"
      ],
      [
        "h",
        "at"
      ],
      [
        "ist",
        "ant"
      ],
      [
        "ass",
        "istant"
      ],
      [
        "ou",
        "nt"
      ],
      [
        "Ġb",
        "ut"
      ],
      [
        "a",
        "d"
      ],
      [
        "p",
        "t"
      ],
      [
        "Ġn",
        "e"
      ],
      [
        "v",
        "er"
      ],
      [
        "d",
        "e"
      ],
      [
        "i",
        "ke"
      ],
      [
        "o",
        "f"
      ],
      [
        "u",
        "p"
      ],
      [
        "Ġ",
        "us"
      ],
      [
        "'",
        ","
      ],
      [
        "e",
        "nt"
      ],
      [
        "Ġ",
        "C"
      ],
      [
        "Ġi",
        "s"
      ],
      [
        "Ġw",
        "ith"
      ],
      [
        "n",
        "ame"
      ],
      [
        "e",
        "c"
      ],
      [
        "Ġ",
        "1"
      ],
      [
        "er",
        "e"
      ],
      [
        "h",
        "t"
      ],
      [
        "u",
        "b"
      ],
      [
        "u",
        "r"
      ],
      [
        "Ġ",
        "H"
      ],
      [
        "on",
        "e"
      ],
      [
        "'",
        ")"
      ],
      [
        "i",
        "f"
      ],
      [
        "l",
        "s"
      ],
      [
        "Ġ",
        "T"
      ],
      [
        "Ġd",
        "o"
      ],
      [
        "Ġl",
        "ike"
      ],
      [
        "i",
        "g"
      ],
      [
        "o",
        "st"
      ],
      [
        "Ġ",
        "("
      ],
      [
        "Ġ",
        "`"
      ],
      [
        "Ġf",
        "ile"
      ],
      [
        "Ġw",
        "ord"
      ],
      [
        "ol",
        "d"
      ],
      [
        "(",
        ")"
      ],
      [
        "Ġ",
        "or"
      ],
      [
        "Ġm",
        "a"
      ],
      [
        "c",
        "e"
      ],
      [
        "or",
        "t"
      ],
      [
        "Ġc",
        "an"
      ],
      [
        "Ġyou",
        "r"
      ],
      [
        "Ġh",
        "a"
      ],
      [
        "c",
        "k"
      ],
      [
        "i",
        "s"
      ],
      [
        "u",
        "st"
      ],
      [
        "y",
        "th"
      ],
      [
        "in",
        "e"
      ],
      [
        "at",
        "h"
      ],
      [
        "ount",
        "er"
      ],
      [
        "?",
        "<|"
      ],
      [
        "e",
        "st"
      ],
      [
        "er",
        "s"
      ],
      [
        "Ġa",
        "s"
      ],
      [
        "Ġc",
        "on"
      ],
      [
        "ĠI",
        "f"
      ],
      [
        "e",
        "n"
      ],
      [
        "r",
        "om"
      ],
      [
        "Ġ",
        "A"
      ],
      [
        "Ġ",
        "F"
      ],
      [
        "ou",
        "t"
      ],
      [
        "Ġus",
        "e"
      ],
      [
        "yth",
        "on"
      ],
      [
        "l",
        "t"
      ],
      [
        "u",
        "n"
      ],
      [
        "Ġn",
        "ot"
      ],
      [
        "Ġe",
        "x"
      ],
      [
        "Ġne",
        "ed"
      ],
      [
        "old",
        "er"
      ],
      [
        "'",
        "t"
      ],
      [
        "(",
        "'"
      ],
      [
        "a",
        "y"
      ],
      [
        "i",
        "mp"
      ],
      [
        "j",
        "o"
      ],
      [
        "o",
        "d"
      ],
      [
        "s",
        "e"
      ],
      [
        "Ġ",
        "of"
      ],
      [
        "Ġs",
        "o"
      ],
      [
        "Ġf",
        "i"
      ],
      [
        "om",
        "m"
      ],
      [
        "=",
        "\""
      ],
      [
        "l",
        "o"
      ],
      [
        "p",
        "ut"
      ],
      [
        "Ġ",
        "B"
      ],
      [
        "Ġfile",
        "s"
      ],
      [
        "q",
        "u"
      ],
      [
        "r",
        "o"
      ],
      [
        "Ġ",
        "0"
      ],
      [
        "Ġ",
        "P"
      ],
      [
        "Ġ",
        "S"
      ],
      [
        "at",
        "e"
      ],
      [
        "Ġm",
        "e"
      ],
      [
        "ĠH",
        "ere"
      ],
      [
        "a",
        "b"
      ],
      [
        "c",
        "t"
      ],
      [
        "c",
        "ri"
      ],
      [
        "f",
        "ile"
      ],
      [
        "g",
        "e"
      ],
      [
        "p",
        "e"
      ],
      [
        "p",
        "ath"
      ],
      [
        "u",
        "re"
      ],
      [
        "Ġ",
        "<"
      ],
      [
        "Ġ",
        "os"
      ],
      [
        "or",
        "e"
      ],
      [
        "Ġm",
        "y"
      ],
      [
        "Ġm",
        "ost"
      ],
      [
        "Ġp",
        "h"
      ],
      [
        "omm",
        "on"
      ],
      [
        "cri",
        "pt"
      ],
      [
        "I",
        "M"
      ],
      [
        "i",
        "p"
      ],
      [
        "t",
        "ime"
      ],
      [
        "t",
        "ur"
      ],
      [
        "Ġ",
        "6"
      ],
      [
        "Ġt",
        "r"
      ],
      [
        "Ġt",
        "ime"
      ],
      [
        "in",
        "d"
      ],
      [
        "it",
        "e"
      ],
      [
        "Ġd",
        "at"
      ],
      [
        "he",
        "n"
      ],
      [
        "Ġre",
        "tur"
      ],
      [
        "Ġretur",
        "n"
      ],
      [
        "c",
        "h"
      ],
      [
        "k",
        "s"
      ],
      [
        "m",
        "l"
      ],
      [
        "Ġ",
        "\""
      ],
      [
        "Ġ",
        "/"
      ],
      [
        "in",
        "t"
      ],
      [
        "Ġc",
        "he"
      ],
      [
        "re",
        "e"
      ],
      [
        "Ġg",
        "et"
      ],
      [
        "Ġ1",
        "0"
      ],
      [
        "Ġword",
        "s"
      ],
      [
        "Ġha",
        "ve"
      ],
      [
        "'",
        "m"
      ],
      [
        "'",
        "re"
      ],
      [
        "9",
        "9"
      ],
      [
        "Y",
        "ou"
      ],
      [
        "a",
        "nd"
      ],
      [
        "i",
        "d"
      ],
      [
        "j",
        "ust"
      ],
      [
        "l",
        "i"
      ],
      [
        "m",
        "s"
      ],
      [
        "w",
        "ord"
      ],
      [
        "Ġ",
        "U"
      ],
      [
        "Ġ",
        "op"
      ],
      [
        "at",
        "ion"
      ],
      [
        "Ġw",
        "ant"
      ],
      [
        "Ġm",
        "ore"
      ],
      [
        "Ġg",
        "i"
      ],
      [
        "ls",
        "o"
      ],
      [
        "jo",
        "ke"
      ],
      [
        "b",
        "os"
      ],
      [
        "i",
        "r"
      ],
      [
        "i",
        "ll"
      ],
      [
        "l",
        "d"
      ],
      [
        "Ġ",
        "up"
      ],
      [
        "Ġ",
        "just"
      ],
      [
        "Ġa",
        "ll"
      ],
      [
        "Ġi",
        "nt"
      ],
      [
        "Ġs",
        "ub"
      ],
      [
        "Ġc",
        "op"
      ],
      [
        "Ġw",
        "hat"
      ],
      [
        "Ġn",
        "um"
      ],
      [
        "Ġl",
        "ine"
      ],
      [
        "ow",
        "s"
      ],
      [
        "Ġon",
        "e"
      ],
      [
        "ion",
        "s"
      ],
      [
        "ĠF",
        "or"
      ],
      [
        "Ġche",
        "ck"
      ],
      [
        "Ġnum",
        "b"
      ],
      [
        "T",
        "hat"
      ],
      [
        "c",
        "ommon"
      ],
      [
        "d",
        "d"
      ],
      [
        "f",
        "or"
      ],
      [
        "i",
        "ss"
      ],
      [
        "p",
        "ython"
      ],
      [
        "r",
        "ing"
      ],
      [
        "u",
        "e"
      ],
      [
        "Ġ",
        "D"
      ],
      [
        "Ġ",
        "G"
      ],
      [
        "Ġ",
        "N"
      ],
      [
        "Ġ",
        "v"
      ],
      [
        "Ġ",
        "{"
      ],
      [
        "Ġa",
        "n"
      ],
      [
        "Ġs",
        "er"
      ],
      [
        "Ġf",
        "a"
      ],
      [
        "Ġf",
        "rom"
      ],
      [
        "Ġc",
        "h"
      ],
      [
        "Ġl",
        "o"
      ],
      [
        "ac",
        "k"
      ],
      [
        "Ġst",
        "op"
      ],
      [
        "Ġne",
        "w"
      ],
      [
        "Ġso",
        "me"
      ],
      [
        "lo",
        "at"
      ],
      [
        "'",
        "ll"
      ],
      [
        ")",
        ":"
      ],
      [
        "<",
        "/"
      ],
      [
        "C",
        "IM"
      ],
      [
        "m",
        "a"
      ],
      [
        "p",
        "a"
      ],
      [
        "Ġ",
        "+"
      ],
      [
        "Ġa",
        "re"
      ],
      [
        "ĠĠĠĠ",
        "ĠĠĠĠĠĠĠĠĠĠĠ"
      ],
      [
        "Ġs",
        "imp"
      ],
      [
        "Ġth",
        "is"
      ],
      [
        "et",
        "ime"
      ],
      [
        "ke",
        "y"
      ],
      [
        "ht",
        "ml"
      ],
      [
        "Ġma",
        "ke"
      ],
      [
        "ĠB",
        "ut"
      ],
      [
        "Ġph",
        "one"
      ],
      [
        "Ġtr",
        "y"
      ],
      [
        "Ġdat",
        "etime"
      ],
      [
        "li",
        "ent"
      ],
      [
        "a",
        "s"
      ],
      [
        "a",
        "mp"
      ],
      [
        "a",
        "pt"
      ],
      [
        "e",
        "p"
      ],
      [
        "f",
        "older"
      ],
      [
        "g",
        "et"
      ],
      [
        "i",
        "l"
      ],
      [
        "i",
        "m"
      ],
      [
        "l",
        "ow"
      ],
      [
        "s",
        "v"
      ],
      [
        "u",
        "lt"
      ],
      [
        "Ġ",
        "O"
      ],
      [
        "Ġt",
        "est"
      ],
      [
        "Ġs",
        "et"
      ],
      [
        "Ġf",
        "ree"
      ],
      [
        "Ġf",
        "loat"
      ],
      [
        "Ġw",
        "h"
      ],
      [
        "Ġw",
        "r"
      ],
      [
        "Ġb",
        "e"
      ],
      [
        "Ġd",
        "ri"
      ],
      [
        "Ġe",
        "ac"
      ],
      [
        "Ġon",
        "ly"
      ],
      [
        "Ġst",
        "ring"
      ],
      [
        "ar",
        "d"
      ],
      [
        "Ġr",
        "out"
      ],
      [
        "ĠA",
        "lso"
      ],
      [
        "Ġsimp",
        "le"
      ],
      [
        "Ġeac",
        "h"
      ],
      [
        "g",
        "h"
      ],
      [
        "l",
        "ic"
      ],
      [
        "o",
        "de"
      ],
      [
        "p",
        "ri"
      ],
      [
        "r",
        "int"
      ],
      [
        "t",
        "e"
      ],
      [
        "Ġ",
        "2"
      ],
      [
        "Ġ",
        "3"
      ],
      [
        "Ġ",
        "W"
      ],
      [
        "Ġ",
        "You"
      ],
      [
        "Ġa",
        "dd"
      ],
      [
        "Ġs",
        "h"
      ],
      [
        "Ġs",
        "cript"
      ],
      [
        "Ġf",
        "older"
      ],
      [
        "ou",
        "ld"
      ],
      [
        "ou",
        "gh"
      ],
      [
        "Ġc",
        "om"
      ],
      [
        "Ġc",
        "lient"
      ],
      [
        "Ġw",
        "e"
      ],
      [
        "Ġw",
        "or"
      ],
      [
        "Ġl",
        "ist"
      ],
      [
        "ot",
        "h"
      ],
      [
        "he",
        "y"
      ],
      [
        "ar",
        "t"
      ],
      [
        "of",
        "f"
      ],
      [
        "ec",
        "t"
      ],
      [
        "ig",
        "ht"
      ],
      [
        "ro",
        "ot"
      ],
      [
        "file",
        "name"
      ],
      [
        "word",
        "s"
      ],
      [
        "Ġgi",
        "ve"
      ],
      [
        "Ġsub",
        "m"
      ],
      [
        "Ġnumb",
        "ers"
      ],
      [
        "Ġfa",
        "st"
      ],
      [
        "\"",
        ">"
      ],
      [
        "`",
        "."
      ],
      [
        "c",
        "ounter"
      ],
      [
        "f",
        "rom"
      ],
      [
        "i",
        "re"
      ],
      [
        "p",
        "l"
      ],
      [
        "r",
        "or"
      ],
      [
        "t",
        "er"
      ],
      [
        "x",
        "t"
      ],
      [
        "Ġ",
        "L"
      ],
      [
        "Ġs",
        "um"
      ],
      [
        "ou",
        "p"
      ],
      [
        "Ġw",
        "if"
      ],
      [
        "Ġthe",
        "n"
      ],
      [
        "me",
        "nt"
      ],
      [
        "Ġb",
        "y"
      ],
      [
        "Ġd",
        "e"
      ],
      [
        "Ġd",
        "on"
      ],
      [
        "al",
        "ly"
      ],
      [
        "al",
        "ue"
      ],
      [
        "Ġre",
        "s"
      ],
      [
        "Ġfor",
        "m"
      ],
      [
        "ac",
        "e"
      ],
      [
        "ac",
        "t"
      ],
      [
        "Ġr",
        "un"
      ],
      [
        "ĠC",
        "ounter"
      ],
      [
        "ĠT",
        "hat"
      ],
      [
        "Ġop",
        "en"
      ],
      [
        "Ġwif",
        "i"
      ],
      [
        ")",
        "."
      ],
      [
        "/",
        "/"
      ],
      [
        "a",
        "p"
      ],
      [
        "e",
        "nd"
      ],
      [
        "g",
        "es"
      ],
      [
        "j",
        "p"
      ],
      [
        "p",
        "s"
      ],
      [
        "u",
        "g"
      ],
      [
        "w",
        "ith"
      ],
      [
        "y",
        "pe"
      ],
      [
        "Ġ",
        "5"
      ],
      [
        "Ġ",
        "he"
      ],
      [
        "Ġa",
        "l"
      ],
      [
        "Ġi",
        "mp"
      ],
      [
        "on",
        "t"
      ],
      [
        "in",
        "put"
      ],
      [
        "Ġth",
        "ing"
      ],
      [
        "Ġc",
        "ol"
      ],
      [
        "Ġc",
        "sv"
      ],
      [
        "Ġc",
        "ode"
      ],
      [
        "Ġm",
        "ult"
      ],
      [
        "it",
        "le"
      ],
      [
        "Ġp",
        "a"
      ],
      [
        "Ġp",
        "rint"
      ],
      [
        "Ġ=",
        "="
      ],
      [
        "um",
        "n"
      ],
      [
        "ver",
        "s"
      ],
      [
        "ĠH",
        "T"
      ],
      [
        "imp",
        "ort"
      ],
      [
        "Ġcop",
        "y"
      ],
      [
        "iss",
        "ions"
      ],
      [
        "ĠG",
        "o"
      ],
      [
        "Ġser",
        "ver"
      ],
      [
        "Ġch",
        "an"
      ],
      [
        "ack",
        "up"
      ],
      [
        "amp",
        "le"
      ],
      [
        "Ġdri",
        "ve"
      ],
      [
        "jp",
        "g"
      ],
      [
        "Ġimp",
        "ort"
      ],
      [
        "Ġmult",
        "ip"
      ],
      [
        "%",
        "%"
      ],
      [
        "'",
        "]"
      ],
      [
        ")",
        ")"
      ],
      [
        "0",
        "0"
      ],
      [
        ":",
        "\\"
      ],
      [
        "J",
        "ust"
      ],
      [
        "M",
        "L"
      ],
      [
        "[",
        "'"
      ],
      [
        "e",
        "a"
      ],
      [
        "e",
        "ad"
      ],
      [
        "g",
        "er"
      ],
      [
        "o",
        "c"
      ],
      [
        "o",
        "k"
      ],
      [
        "o",
        "me"
      ],
      [
        "v",
        "es"
      ],
      [
        "v",
        "ic"
      ],
      [
        "Ġ",
        "M"
      ],
      [
        "Ġs",
        "p"
      ],
      [
        "Ġs",
        "low"
      ],
      [
        "ou",
        "nd"
      ],
      [
        "Ġth",
        "an"
      ],
      [
        "Ġc",
        "ount"
      ],
      [
        "Ġc",
        "ent"
      ],
      [
        "Ġm",
        "et"
      ],
      [
        "le",
        "s"
      ],
      [
        "Ġl",
        "apt"
      ],
      [
        "ut",
        "off"
      ],
      [
        "et",
        "c"
      ],
      [
        "al",
        "k"
      ],
      [
        "al",
        "l"
      ],
      [
        "Ġe",
        "ver"
      ],
      [
        "an",
        "s"
      ],
      [
        "ri",
        "p"
      ],
      [
        "Ġre",
        "ad"
      ],
      [
        "ac",
        "ation"
      ],
      [
        "ic",
        "k"
      ],
      [
        "ĠC",
        "S"
      ],
      [
        "ub",
        "lic"
      ],
      [
        "Ġdo",
        "es"
      ],
      [
        "Ġex",
        "ample"
      ],
      [
        "Ġfi",
        "x"
      ],
      [
        "ĠP",
        "ython"
      ],
      [
        "99",
        "99"
      ],
      [
        "ma",
        "il"
      ],
      [
        "Ġ+",
        "="
      ],
      [
        "Ġrout",
        "er"
      ],
      [
        "pri",
        "ce"
      ],
      [
        "Ġsubm",
        "issions"
      ],
      [
        "vers",
        "ion"
      ],
      [
        "Ġlapt",
        "op"
      ],
      [
        "1",
        "0"
      ],
      [
        ":",
        "//"
      ],
      [
        "D",
        "CIM"
      ],
      [
        "P",
        "h"
      ],
      [
        "S",
        "ure"
      ],
      [
        "e",
        "l"
      ],
      [
        "e",
        "y"
      ],
      [
        "f",
        "er"
      ],
      [
        "g",
        "u"
      ],
      [
        "i",
        "o"
      ],
      [
        "i",
        "z"
      ],
      [
        "k",
        "ip"
      ],
      [
        "n",
        "c"
      ],
      [
        "r",
        "st"
      ],
      [
        "s",
        "with"
      ],
      [
        "t",
        "o"
      ],
      [
        "t",
        "ps"
      ],
      [
        "u",
        "l"
      ],
      [
        "u",
        "ck"
      ],
      [
        "Ġ",
        "er"
      ],
      [
        "Ġ",
        "qu"
      ],
      [
        "Ġ",
        "key"
      ],
      [
        "er",
        "n"
      ],
      [
        "Ġa",
        "t"
      ],
      [
        "Ġs",
        "ite"
      ],
      [
        "Ġf",
        "ine"
      ],
      [
        "Ġf",
        "ind"
      ],
      [
        "Ġc",
        "ounter"
      ],
      [
        "at",
        "ch"
      ],
      [
        "st",
        "rip"
      ],
      [
        "Ġw",
        "ay"
      ],
      [
        "Ġm",
        "od"
      ],
      [
        "Ġm",
        "time"
      ],
      [
        "Ġm",
        "ight"
      ],
      [
        "Ġthe",
        "y"
      ],
      [
        "nd",
        "le"
      ],
      [
        "it",
        "er"
      ],
      [
        "Ġb",
        "ig"
      ],
      [
        "Ġn",
        "ame"
      ],
      [
        "Ġp",
        "l"
      ],
      [
        "Ġp",
        "ri"
      ],
      [
        "Ġto",
        "o"
      ],
      [
        "us",
        "e"
      ],
      [
        "ot",
        "o"
      ],
      [
        "ot",
        "os"
      ],
      [
        "ot",
        "al"
      ],
      [
        "Ġin",
        "st"
      ],
      [
        "op",
        "y"
      ],
      [
        "Ġg",
        "o"
      ],
      [
        "ar",
        "s"
      ],
      [
        "th",
        "ing"
      ],
      [
        "Ġr",
        "o"
      ],
      [
        "de",
        "f"
      ],
      [
        "de",
        "lt"
      ],
      [
        "Ġus",
        "ing"
      ],
      [
        "ur",
        "ls"
      ],
      [
        "()",
        ")"
      ],
      [
        "ce",
        "pt"
      ],
      [
        "Ġha",
        "ndle"
      ],
      [
        "jo",
        "in"
      ],
      [
        "Ġfi",
        "rst"
      ],
      [
        "Ġtime",
        "delt"
      ],
      [
        "ind",
        "ows"
      ],
      [
        "Ġop",
        "t"
      ],
      [
        "Ġcop",
        "i"
      ],
      [
        "ĠD",
        "CIM"
      ],
      [
        "ĠN",
        "one"
      ],
      [
        "Ġtry",
        "ing"
      ],
      [
        "oth",
        "er"
      ],
      [
        "vic",
        "e"
      ],
      [
        "Ġmet",
        "a"
      ],
      [
        "Ġer",
        "ror"
      ],
      [
        "Ġtimedelt",
        "a"
      ],
      [
        "B",
        "ackup"
      ],
      [
        "I",
        "P"
      ],
      [
        "R",
        "L"
      ],
      [
        "T",
        "P"
      ],
      [
        "b",
        "e"
      ],
      [
        "b",
        "od"
      ],
      [
        "b",
        "oc"
      ],
      [
        "c",
        "ount"
      ],
      [
        "e",
        "qu"
      ],
      [
        "g",
        "le"
      ],
      [
        "l",
        "ine"
      ],
      [
        "n",
        "ow"
      ],
      [
        "o",
        "int"
      ],
      [
        "o",
        "gle"
      ],
      [
        "r",
        "ough"
      ],
      [
        "s",
        "um"
      ],
      [
        "u",
        "ally"
      ],
      [
        "v",
        "ate"
      ],
      [
        "v",
        "acation"
      ],
      [
        "y",
        "nc"
      ],
      [
        "y",
        "be"
      ],
      [
        "â",
        "Ģ"
      ],
      [
        "Ġ",
        "*"
      ],
      [
        "Ġ",
        "-"
      ],
      [
        "Ġ",
        "."
      ],
      [
        "Ġ",
        ">"
      ],
      [
        "Ġ",
        "R"
      ],
      [
        "Ġ",
        "["
      ],
      [
        "Ġ",
        "}"
      ],
      [
        "Ġ",
        "le"
      ],
      [
        "Ġ",
        "ke"
      ],
      [
        "Ġ",
        "Just"
      ],
      [
        "Ġ",
        "version"
      ],
      [
        "Ġt",
        "ype"
      ],
      [
        "er",
        "f"
      ],
      [
        "ĠĠĠĠ",
        "Ġ"
      ],
      [
        "Ġs",
        "up"
      ],
      [
        "Ġs",
        "oup"
      ],
      [
        "Ġs",
        "kip"
      ],
      [
        "Ġf",
        "ont"
      ],
      [
        "Ġth",
        "rough"
      ],
      [
        "Ġc",
        "ard"
      ],
      [
        "st",
        "art"
      ],
      [
        "re",
        "ad"
      ],
      [
        "Ġw",
        "hen"
      ],
      [
        "Ġw",
        "ill"
      ],
      [
        "Ġm",
        "an"
      ],
      [
        "Ġthe",
        "m"
      ],
      [
        "it",
        "s"
      ],
      [
        "you",
        "r"
      ],
      [
        "ing",
        "s"
      ],
      [
        "Ġn",
        "o"
      ],
      [
        "Ġp",
        "ath"
      ],
      [
        "Ġp",
        "ro"
      ],
      [
        "Ġ=",
        ">"
      ],
      [
        "ĠI",
        "P"
      ],
      [
        "ĠI",
        "t"
      ],
      [
        "Ġre",
        "qu"
      ],
      [
        "ow",
        "ed"
      ],
      [
        "ll",
        "owed"
      ],
      [
        "mp",
        "t"
      ],
      [
        "Ġh",
        "t"
      ],
      [
        "Ġr",
        "ound"
      ],
      [
        "ec",
        "h"
      ],
      [
        "ht",
        "tps"
      ],
      [
        "ĠT",
        "he"
      ],
      [
        "ĠT",
        "hen"
      ],
      [
        "Ġma",
        "x"
      ],
      [
        "Ġma",
        "ybe"
      ],
      [
        "Ġcon",
        "f"
      ],
      [
        "out",
        "put"
      ],
      [
        "ay",
        "s"
      ],
      [
        "ĠS",
        "a"
      ],
      [
        "Ġph",
        "otos"
      ],
      [
        "IM",
        "G"
      ],
      [
        "time",
        "s"
      ],
      [
        "ĠU",
        "se"
      ],
      [
        "Ġint",
        "e"
      ],
      [
        "Ġsome",
        "thing"
      ],
      [
        "im",
        "al"
      ],
      [
        "ĠO",
        "n"
      ],
      [
        "Ġwor",
        "k"
      ],
      [
        "Ġal",
        "read"
      ],
      [
        "Ġcol",
        "umn"
      ],
      [
        "Ġpa",
        "ge"
      ],
      [
        "ĠGo",
        "ogle"
      ],
      [
        "Ġmultip",
        "ly"
      ],
      [
        "Ġcount",
        "s"
      ],
      [
        "Ġever",
        "y"
      ],
      [
        "Ph",
        "oto"
      ],
      [
        "Ġqu",
        "ick"
      ],
      [
        "Ġcopi",
        "es"
      ],
      [
        "IP",
        "s"
      ],
      [
        "bod",
        "y"
      ],
      [
        "boc",
        "opy"
      ],
      [
        "Ġke",
        "ep"
      ],
      [
        "llowed",
        "IPs"
      ],
      [
        "Ġalread",
        "y"
      ],
      [
        "Photo",
        "Backup"
      ],
      [
        "'",
        "d"
      ],
      [
        ")",
        ","
      ],
      [
        "1",
        "8"
      ],
      [
        "2",
        "0"
      ],
      [
        "J",
        "o"
      ],
      [
        "K",
        "ey"
      ],
      [
        "P",
        "e"
      ],
      [
        "X",
        "O"
      ],
      [
        "_",
        "_"
      ],
      [
        "a",
        "m"
      ],
      [
        "a",
        "in"
      ],
      [
        "a",
        "ke"
      ],
      [
        "a",
        "se"
      ],
      [
        "a",
        "ges"
      ],
      [
        "b",
        "s"
      ],
      [
        "b",
        "ut"
      ],
      [
        "c",
        "ol"
      ],
      [
        "c",
        "ent"
      ],
      [
        "e",
        "xt"
      ],
      [
        "f",
        "f"
      ],
      [
        "f",
        "ind"
      ],
      [
        "h",
        "is"
      ],
      [
        "i",
        "al"
      ],
      [
        "l",
        "ab"
      ],
      [
        "m",
        "b"
      ],
      [
        "n",
        "ough"
      ],
      [
        "p",
        "le"
      ],
      [
        "p",
        "ree"
      ],
      [
        "s",
        "i"
      ],
      [
        "s",
        "er"
      ],
      [
        "s",
        "cript"
      ],
      [
        "t",
        "hen"
      ],
      [
        "u",
        "d"
      ],
      [
        "u",
        "i"
      ],
      [
        "u",
        "le"
      ],
      [
        "u",
        "es"
      ],
      [
        "v",
        "alue"
      ],
      [
        "w",
        "g"
      ],
      [
        "w",
        "or"
      ],
      [
        "w",
        "alk"
      ],
      [
        "y",
        "le"
      ],
      [
        "Ġ",
        "#"
      ],
      [
        "Ġ",
        "%"
      ],
      [
        "Ġ",
        "E"
      ],
      [
        "Ġ",
        "k"
      ],
      [
        "Ġ",
        "ord"
      ],
      [
        "Ġ",
        "old"
      ],
      [
        "Ġ",
        "joke"
      ],
      [
        "Ġ",
        "etc"
      ],
      [
        "Ġ",
        "urls"
      ],
      [
        "Ġ",
        "other"
      ],
      [
        "Ġt",
        "w"
      ],
      [
        "Ġt",
        "itle"
      ],
      [
        "Ġt",
        "ext"
      ],
      [
        "Ġa",
        "lso"
      ],
      [
        "or",
        "y"
      ],
      [
        "or",
        "re"
      ],
      [
        "Ġs",
        "pe"
      ],
      [
        "Ġf",
        "e"
      ],
      [
        "Ġf",
        "un"
      ],
      [
        "ou",
        "r"
      ],
      [
        "in",
        "al"
      ],
      [
        "Ġc",
        "ommon"
      ],
      [
        "Ġc",
        "ould"
      ],
      [
        "Ġc",
        "utoff"
      ],
      [
        "Ġc",
        "orre"
      ],
      [
        "re",
        "s"
      ],
      [
        "re",
        "ate"
      ],
      [
        "Ġm",
        "iss"
      ],
      [
        "le",
        "n"
      ],
      [
        "le",
        "ct"
      ],
      [
        "Ġb",
        "ot"
      ],
      [
        "Ġb",
        "lo"
      ],
      [
        "Ġb",
        "ack"
      ],
      [
        "Ġb",
        "oth"
      ],
      [
        "Ġd",
        "es"
      ],
      [
        "Ġn",
        "on"
      ],
      [
        "Ġp",
        "er"
      ],
      [
        "Ġp",
        "oint"
      ],
      [
        "Ġl",
        "in"
      ],
      [
        "Ġl",
        "im"
      ],
      [
        "ut",
        "if"
      ],
      [
        "al",
        "se"
      ],
      [
        "he",
        "ad"
      ],
      [
        "Ġe",
        "ls"
      ],
      [
        "Ġe",
        "nough"
      ],
      [
        "an",
        "ks"
      ],
      [
        "Ġre",
        "name"
      ],
      [
        "ow",
        "n"
      ],
      [
        "Ġfor",
        "ms"
      ],
      [
        "ic",
        "t"
      ],
      [
        "ic",
        "al"
      ],
      [
        "Ġh",
        "ost"
      ],
      [
        "Ġst",
        "ill"
      ],
      [
        "th",
        "at"
      ],
      [
        "ver",
        "t"
      ],
      [
        "ur",
        "l"
      ],
      [
        "if",
        "y"
      ],
      [
        "Ġha",
        "s"
      ],
      [
        "est",
        "s"
      ],
      [
        "Ġcon",
        "s"
      ],
      [
        "Ġcon",
        "vert"
      ],
      [
        "ĠF",
        "alse"
      ],
      [
        "Ġex",
        "cept"
      ],
      [
        "ĠS",
        "o"
      ],
      [
        "ab",
        "le"
      ],
      [
        "ct",
        "ion"
      ],
      [
        "cript",
        "ion"
      ],
      [
        "Ġ\"",
        "%%"
      ],
      [
        "and",
        "om"
      ],
      [
        "ĠU",
        "RL"
      ],
      [
        "Ġgi",
        "ves"
      ],
      [
        "Ġall",
        "ow"
      ],
      [
        "Ġint",
        "o"
      ],
      [
        "Ġint",
        "ern"
      ],
      [
        "Ġcheck",
        "s"
      ],
      [
        "Ġnumb",
        "er"
      ],
      [
        "for",
        "m"
      ],
      [
        "Ġv",
        "al"
      ],
      [
        "Ġv",
        "alue"
      ],
      [
        "Ġan",
        "y"
      ],
      [
        "Ġlo",
        "op"
      ],
      [
        "Ġlo",
        "ad"
      ],
      [
        "Ġsome",
        "times"
      ],
      [
        "low",
        "er"
      ],
      [
        "Ġwh",
        "ere"
      ],
      [
        "Ġwor",
        "ks"
      ],
      [
        "Ġfast",
        "er"
      ],
      [
        "Ġres",
        "p"
      ],
      [
        "Ġ5",
        "0"
      ],
      [
        "Ġhe",
        "ad"
      ],
      [
        "ĠHT",
        "ML"
      ],
      [
        "ĠHT",
        "TP"
      ],
      [
        "ĠCS",
        "S"
      ],
      [
        "iz",
        "e"
      ],
      [
        "Ġmod",
        "ule"
      ],
      [
        "Ġbig",
        "ger"
      ],
      [
        "Ġinst",
        "ead"
      ],
      [
        "Ġskip",
        "s"
      ],
      [
        "mpt",
        "y"
      ],
      [
        "Ġht",
        "ml"
      ],
      [
        "ech",
        "o"
      ],
      [
        "Ġconf",
        "ig"
      ],
      [
        "18",
        "20"
      ],
      [
        "Jo",
        "ke"
      ],
      [
        "Pe",
        "er"
      ],
      [
        "bs",
        "ite"
      ],
      [
        "cent",
        "s"
      ],
      [
        "lab",
        "el"
      ],
      [
        "wor",
        "k"
      ],
      [
        "Ġord",
        "er"
      ],
      [
        "Ġspe",
        "ed"
      ],
      [
        "Ġcorre",
        "ct"
      ],
      [
        "Ġmiss",
        "ing"
      ],
      [
        "Ġblo",
        "ck"
      ],
      [
        "Ġels",
        "e"
      ],
      [
        "'",
        "\\"
      ],
      [
        "(",
        "['"
      ],
      [
        "+",
        "\\"
      ],
      [
        "0",
        "7"
      ],
      [
        "3",
        "2"
      ],
      [
        "=",
        "'"
      ],
      [
        "?",
        "')"
      ],
      [
        "A",
        "dd"
      ],
      [
        "B",
        "y"
      ],
      [
        "C",
        "am"
      ],
      [
        "E",
        "le"
      ],
      [
        "F",
        "or"
      ],
      [
        "H",
        "T"
      ],
      [
        "H",
        "ub"
      ],
      [
        "I",
        "d"
      ],
      [
        "I",
        "f"
      ],
      [
        "S",
        "D"
      ],
      [
        "T",
        "otal"
      ],
      [
        "T",
        "his"
      ],
      [
        "U",
        "se"
      ],
      [
        "U",
        "SD"
      ],
      [
        "Y",
        "es"
      ],
      [
        "_",
        "')"
      ],
      [
        "a",
        "use"
      ],
      [
        "c",
        "o"
      ],
      [
        "c",
        "u"
      ],
      [
        "c",
        "re"
      ],
      [
        "c",
        "om"
      ],
      [
        "c",
        "sv"
      ],
      [
        "c",
        "ont"
      ],
      [
        "c",
        "utoff"
      ],
      [
        "d",
        "at"
      ],
      [
        "d",
        "it"
      ],
      [
        "d",
        "is"
      ],
      [
        "d",
        "ate"
      ],
      [
        "d",
        "ays"
      ],
      [
        "e",
        "mail"
      ],
      [
        "f",
        "ter"
      ],
      [
        "g",
        "ht"
      ],
      [
        "g",
        "est"
      ],
      [
        "g",
        "ers"
      ],
      [
        "i",
        "x"
      ],
      [
        "i",
        "er"
      ],
      [
        "l",
        "p"
      ],
      [
        "l",
        "ike"
      ],
      [
        "m",
        "it"
      ],
      [
        "m",
        "ost"
      ],
      [
        "m",
        "time"
      ],
      [
        "n",
        "er"
      ],
      [
        "n",
        "ect"
      ],
      [
        "o",
        "ver"
      ],
      [
        "p",
        "h"
      ],
      [
        "p",
        "os"
      ],
      [
        "p",
        "ing"
      ],
      [
        "p",
        "ot"
      ],
      [
        "p",
        "ort"
      ],
      [
        "r",
        "iter"
      ],
      [
        "r",
        "andom"
      ],
      [
        "s",
        "on"
      ],
      [
        "t",
        "al"
      ],
      [
        "t",
        "he"
      ],
      [
        "t",
        "itle"
      ],
      [
        "t",
        "otal"
      ],
      [
        "u",
        "ll"
      ],
      [
        "w",
        "riter"
      ],
      [
        "Ġ",
        "8"
      ],
      [
        "Ġ",
        "u"
      ],
      [
        "Ġ",
        "un"
      ],
      [
        "Ġ",
        "ok"
      ],
      [
        "Ġ",
        "own"
      ],
      [
        "Ġ",
        "over"
      ],
      [
        "Ġt",
        "er"
      ],
      [
        "Ġt",
        "in"
      ],
      [
        "Ġt",
        "up"
      ],
      [
        "Ġt",
        "ier"
      ],
      [
        "er",
        "a"
      ],
      [
        "er",
        "ed"
      ],
      [
        "er",
        "ic"
      ],
      [
        "Ġa",
        "b"
      ],
      [
        "Ġa",
        "d"
      ],
      [
        "Ġa",
        "p"
      ],
      [
        "Ġa",
        "fter"
      ],
      [
        "Ġi",
        "ss"
      ],
      [
        "ĠĠĠĠ",
        "ĠĠĠĠĠĠĠĠĠĠĠĠĠĠĠ"
      ],
      [
        "ĠĠĠĠ",
        "ĠĠĠĠĠ"
      ],
      [
        "Ġs",
        "e"
      ],
      [
        "Ġs",
        "ame"
      ],
      [
        "Ġs",
        "ure"
      ],
      [
        "Ġs",
        "end"
      ],
      [
        "Ġs",
        "our"
      ],
      [
        "in",
        "de"
      ],
      [
        "in",
        "ation"
      ],
      [
        "in",
        "ner"
      ],
      [
        "Ġth",
        "ere"
      ],
      [
        "Ġc",
        "l"
      ],
      [
        "Ġc",
        "reate"
      ],
      [
        "at",
        "ic"
      ],
      [
        "at",
        "ter"
      ],
      [
        "st",
        "amp"
      ],
      [
        "re",
        "at"
      ],
      [
        "re",
        "ss"
      ],
      [
        "re",
        "name"
      ],
      [
        "Ġthe",
        "ir"
      ],
      [
        "os",
        "e"
      ],
      [
        "it",
        "t"
      ],
      [
        "it",
        "Hub"
      ],
      [
        "Ġb",
        "r"
      ],
      [
        "Ġb",
        "as"
      ],
      [
        "Ġb",
        "ui"
      ],
      [
        "Ġd",
        "est"
      ],
      [
        "Ġd",
        "id"
      ],
      [
        "Ġd",
        "ire"
      ],
      [
        "Ġn",
        "et"
      ],
      [
        "Ġp",
        "ort"
      ],
      [
        "Ġp",
        "ython"
      ],
      [
        "Ġp",
        "ure"
      ],
      [
        "Ġp",
        "ublic"
      ],
      [
        "Ġit",
        "s"
      ],
      [
        "Ġto",
        "ol"
      ],
      [
        "Ġto",
        "tal"
      ],
      [
        "he",
        "ll"
      ],
      [
        "Ġe",
        "ve"
      ],
      [
        "Ġe",
        "as"
      ],
      [
        "Ġe",
        "mail"
      ],
      [
        "Ġe",
        "mpty"
      ],
      [
        "Ġin",
        "put"
      ],
      [
        "ri",
        "ght"
      ],
      [
        "ow",
        "er"
      ],
      [
        "ll",
        "ars"
      ],
      [
        "Ġ'",
        "/"
      ],
      [
        "Ġg",
        "en"
      ],
      [
        "Ġh",
        "ome"
      ],
      [
        "ar",
        "y"
      ],
      [
        "Ġr",
        "ow"
      ],
      [
        "Ġr",
        "ows"
      ],
      [
        "um",
        "eric"
      ],
      [
        "Ġus",
        "es"
      ],
      [
        "ĠC",
        "an"
      ],
      [
        "ec",
        "ause"
      ],
      [
        "')",
        "."
      ],
      [
        "')",
        ":"
      ],
      [
        "if",
        "ic"
      ],
      [
        "ĠT",
        "r"
      ],
      [
        "Ġdo",
        "cu"
      ],
      [
        "Ġdo",
        "llars"
      ],
      [
        "ig",
        "h"
      ],
      [
        "ig",
        "n"
      ],
      [
        "()",
        ":"
      ],
      [
        "ce",
        "ss"
      ],
      [
        "Ġcon",
        "t"
      ],
      [
        "Ġcon",
        "nect"
      ],
      [
        "ĠA",
        "nd"
      ],
      [
        "ĠA",
        "llowedIPs"
      ],
      [
        "lt",
        "ered"
      ],
      [
        "Ġex",
        "ist"
      ],
      [
        "Ġex",
        "act"
      ],
      [
        "('",
        "."
      ],
      [
        "omm",
        "and"
      ],
      [
        "lo",
        "ad"
      ],
      [
        "ĠP",
        "ages"
      ],
      [
        "ĠS",
        "D"
      ],
      [
        "time",
        "stamp"
      ],
      [
        "Ġtr",
        "a"
      ],
      [
        "Ġtime",
        "s"
      ],
      [
        "Ġdat",
        "a"
      ],
      [
        "Ġ10",
        "0"
      ],
      [
        "ir",
        "d"
      ],
      [
        "ĠFor",
        "ms"
      ],
      [
        "ĠG",
        "itHub"
      ],
      [
        "ĠN",
        "o"
      ],
      [
        "Ġser",
        "vice"
      ],
      [
        "pa",
        "re"
      ],
      [
        "Ġmake",
        "s"
      ],
      [
        "get",
        "Ele"
      ],
      [
        "get",
        "mtime"
      ],
      [
        "ĠO",
        "r"
      ],
      [
        "Ġwh",
        "y"
      ],
      [
        "Ġwr",
        "ite"
      ],
      [
        "Ġwr",
        "iter"
      ],
      [
        "Ġdri",
        "ves"
      ],
      [
        "te",
        "xt"
      ],
      [
        "ĠW",
        "hat"
      ],
      [
        "ĠW",
        "indows"
      ],
      [
        "ĠYou",
        "r"
      ],
      [
        "Ġsh",
        "ow"
      ],
      [
        "Ġsh",
        "ows"
      ],
      [
        "Ġsh",
        "ould"
      ],
      [
        "Ġcom",
        "put"
      ],
      [
        "Ġcom",
        "ple"
      ],
      [
        "Ġclient",
        "s"
      ],
      [
        "from",
        "timestamp"
      ],
      [
        "ire",
        "d"
      ],
      [
        "ire",
        "gu"
      ],
      [
        "ĠL",
        "et"
      ],
      [
        "ment",
        "By"
      ],
      [
        "Ġde",
        "vice"
      ],
      [
        "ap",
        "i"
      ],
      [
        "end",
        "swith"
      ],
      [
        "Ġ5",
        "1820"
      ],
      [
        "Ġhe",
        "lp"
      ],
      [
        "Ġcol",
        "lect"
      ],
      [
        "']",
        ")"
      ],
      [
        "']",
        "."
      ],
      [
        "00",
        "1"
      ],
      [
        "00",
        "2"
      ],
      [
        "ea",
        "h"
      ],
      [
        "ea",
        "utif"
      ],
      [
        "Ġsp",
        "ec"
      ],
      [
        "Ġcent",
        "s"
      ],
      [
        "Ġcent",
        "er"
      ],
      [
        "ans",
        "fer"
      ],
      [
        "Ġread",
        "er"
      ],
      [
        "ĠCS",
        "V"
      ],
      [
        "Ġdoes",
        "n"
      ],
      [
        "9999",
        "9999"
      ],
      [
        "Ġpl",
        "ug"
      ],
      [
        "Ġpri",
        "me"
      ],
      [
        "Ġgo",
        "od"
      ],
      [
        "Ġro",
        "bocopy"
      ],
      [
        "Ġopt",
        "ion"
      ],
      [
        "Ġerror",
        "s"
      ],
      [
        "equ",
        "al"
      ],
      [
        "âĢ",
        "Ķ"
      ],
      [
        "Ġ}",
        ")"
      ],
      [
        "Ġle",
        "t"
      ],
      [
        "start",
        "swith"
      ],
      [
        "Ġman",
        "ually"
      ],
      [
        "Ġpro",
        "b"
      ],
      [
        "Ġrequ",
        "ests"
      ],
      [
        "Ġround",
        "ing"
      ],
      [
        "ĠSa",
        "les"
      ],
      [
        "Ġinte",
        "gers"
      ],
      [
        "Ġmultiply",
        "ing"
      ],
      [
        "col",
        "umn"
      ],
      [
        "ff",
        "ic"
      ],
      [
        "find",
        "all"
      ],
      [
        "Ġtw",
        "o"
      ],
      [
        "Ġfe",
        "w"
      ],
      [
        "Ġfun",
        "ction"
      ],
      [
        "Ġhost",
        "ing"
      ],
      [
        "Ġval",
        "ues"
      ],
      [
        "ĠHTTP",
        "S"
      ],
      [
        "Ġconfig",
        "s"
      ],
      [
        "Cam",
        "era"
      ],
      [
        "HT",
        "ML"
      ],
      [
        "cont",
        "ent"
      ],
      [
        "Ġok",
        "ay"
      ],
      [
        "Ġtin",
        "y"
      ],
      [
        "Ġsour",
        "ce"
      ],
      [
        "inde",
        "x"
      ],
      [
        "inner",
        "HTML"
      ],
      [
        "Ġbas",
        "ed"
      ],
      [
        "Ġdest",
        "ination"
      ],
      [
        "Ġdire",
        "ct"
      ],
      [
        "Ġnet",
        "work"
      ],
      [
        "Ġeve",
        "n"
      ],
      [
        "Ġeas",
        "i"
      ],
      [
        "Ġdocu",
        "ment"
      ],
      [
        "getEle",
        "mentBy"
      ],
      [
        "iregu",
        "ard"
      ],
      [
        "Ġcollect",
        "ions"
      ],
      [
        "getElementBy",
        "Id"
      ],
      [
        "\"",
        ")"
      ],
      [
        "\"",
        "')"
      ],
      [
        "'",
        ":"
      ],
      [
        "'",
        "ve"
      ],
      [
        "0",
        "1"
      ],
      [
        "0",
        "2"
      ],
      [
        "2",
        "4"
      ],
      [
        ":",
        "]"
      ],
      [
        ":",
        "</"
      ],
      [
        ":",
        "\"')"
      ],
      [
        "<",
        "!"
      ],
      [
        "A",
        "llowedIPs"
      ],
      [
        "B",
        "ut"
      ],
      [
        "C",
        "T"
      ],
      [
        "D",
        "O"
      ],
      [
        "E",
        "r"
      ],
      [
        "F",
        "a"
      ],
      [
        "F",
        "ile"
      ],
      [
        "H",
        "ere"
      ],
      [
        "H",
        "ey"
      ],
      [
        "I",
        "R"
      ],
      [
        "I",
        "nt"
      ],
      [
        "M",
        "IR"
      ],
      [
        "N",
        "S"
      ],
      [
        "N",
        "o"
      ],
      [
        "N",
        "one"
      ],
      [
        "O",
        "S"
      ],
      [
        "P",
        "E"
      ],
      [
        "P",
        "I"
      ],
      [
        "P",
        "ri"
      ],
      [
        "P",
        "ort"
      ],
      [
        "P",
        "ublic"
      ],
      [
        "P",
        "OS"
      ],
      [
        "R",
        "ead"
      ],
      [
        "S",
        "B"
      ],
      [
        "S",
        "oup"
      ],
      [
        "S",
        "hell"
      ],
      [
        "T",
        "he"
      ],
      [
        "Y",
        "eah"
      ],
      [
        "Y",
        "PE"
      ],
      [
        "^",
        "|"
      ],
      [
        "_",
        "'"
      ],
      [
        "a",
        "h"
      ],
      [
        "a",
        "re"
      ],
      [
        "a",
        "ri"
      ],
      [
        "a",
        "ve"
      ],
      [
        "a",
        "ge"
      ],
      [
        "b",
        "on"
      ],
      [
        "b",
        "pa"
      ],
      [
        "c",
        "y"
      ],
      [
        "c",
        "on"
      ],
      [
        "c",
        "ss"
      ],
      [
        "c",
        "lient"
      ],
      [
        "d",
        "s"
      ],
      [
        "d",
        "ri"
      ],
      [
        "e",
        "x"
      ],
      [
        "e",
        "ver"
      ],
      [
        "e",
        "ld"
      ],
      [
        "e",
        "bsite"
      ],
      [
        "f",
        "old"
      ],
      [
        "f",
        "loat"
      ],
      [
        "g",
        "ith"
      ],
      [
        "g",
        "ical"
      ],
      [
        "h",
        "anks"
      ],
      [
        "i",
        "ls"
      ],
      [
        "j",
        "son"
      ],
      [
        "l",
        "ist"
      ],
      [
        "l",
        "ify"
      ],
      [
        "m",
        "y"
      ],
      [
        "m",
        "ic"
      ],
      [
        "m",
        "ory"
      ],
      [
        "m",
        "inal"
      ],
      [
        "n",
        "y"
      ],
      [
        "n",
        "ce"
      ],
      [
        "n",
        "el"
      ],
      [
        "n",
        "umeric"
      ],
      [
        "o",
        "h"
      ],
      [
        "o",
        "id"
      ],
      [
        "p",
        "n"
      ],
      [
        "p",
        "en"
      ],
      [
        "p",
        "rint"
      ],
      [
        "p",
        "ublic"
      ],
      [
        "r",
        "a"
      ],
      [
        "r",
        "ow"
      ],
      [
        "r",
        "act"
      ],
      [
        "s",
        "es"
      ],
      [
        "s",
        "ec"
      ],
      [
        "s",
        "ync"
      ],
      [
        "s",
        "ud"
      ],
      [
        "s",
        "ize"
      ],
      [
        "t",
        "r"
      ],
      [
        "t",
        "on"
      ],
      [
        "t",
        "xt"
      ],
      [
        "t",
        "ings"
      ],
      [
        "t",
        "len"
      ],
      [
        "u",
        "x"
      ],
      [
        "u",
        "ls"
      ],
      [
        "u",
        "ch"
      ],
      [
        "u",
        "ation"
      ],
      [
        "v",
        "ing"
      ],
      [
        "v",
        "et"
      ],
      [
        "v",
        "oid"
      ],
      [
        "w",
        "id"
      ],
      [
        "w",
        "ard"
      ],
      [
        "w",
        "all"
      ],
      [
        "w",
        "ireguard"
      ],
      [
        "w",
        "ebsite"
      ],
      [
        "w",
        "mic"
      ],
      [
        "}",
        "\")"
      ],
      [
        "Ġ",
        ")"
      ],
      [
        "Ġ",
        "_"
      ],
      [
        "Ġ",
        "user"
      ],
      [
        "Ġ",
        "out"
      ],
      [
        "Ġ",
        "%%"
      ],
      [
        "Ġ",
        "âĢ"
      ],
      [
        "Ġ",
        "right"
      ],
      [
        "Ġ",
        "^|"
      ],
      [
        "Ġt",
        "on"
      ],
      [
        "Ġt",
        "ri"
      ],
      [
        "Ġt",
        "en"
      ],
      [
        "Ġt",
        "alk"
      ],
      [
        "Ġt",
        "ake"
      ],
      [
        "Ġa",
        "c"
      ],
      [
        "Ġa",
        "ut"
      ],
      [
        "Ġa",
        "void"
      ],
      [
        "Ġi",
        "d"
      ],
      [
        "Ġi",
        "de"
      ],
      [
        "on",
        "g"
      ],
      [
        "on",
        "th"
      ],
      [
        "on",
        "ds"
      ],
      [
        "or",
        "ing"
      ],
      [
        "or",
        "ri"
      ],
      [
        "or",
        "ks"
      ],
      [
        "Ġs",
        "ile"
      ],
      [
        "Ġs",
        "ec"
      ],
      [
        "Ġs",
        "en"
      ],
      [
        "Ġs",
        "pa"
      ],
      [
        "Ġs",
        "ep"
      ],
      [
        "Ġs",
        "pl"
      ],
      [
        "Ġs",
        "ug"
      ],
      [
        "Ġs",
        "equ"
      ],
      [
        "Ġs",
        "ync"
      ],
      [
        "Ġf",
        "et"
      ],
      [
        "Ġf",
        "ull"
      ],
      [
        "ou",
        "d"
      ],
      [
        "in",
        "i"
      ],
      [
        "in",
        "ce"
      ],
      [
        "in",
        "imal"
      ],
      [
        "in",
        "ary"
      ],
      [
        "Ġth",
        "ose"
      ],
      [
        "Ġc",
        "ur"
      ],
      [
        "Ġc",
        "od"
      ],
      [
        "Ġc",
        "able"
      ],
      [
        "Ġc",
        "ommand"
      ],
      [
        "st",
        "ring"
      ],
      [
        "st",
        "yle"
      ],
      [
        "re",
        "m"
      ],
      [
        "re",
        "nt"
      ],
      [
        "re",
        "wall"
      ],
      [
        "Ġw",
        "g"
      ],
      [
        "Ġw",
        "on"
      ],
      [
        "Ġw",
        "indows"
      ],
      [
        "Ġm",
        "ath"
      ],
      [
        "Ġm",
        "ill"
      ],
      [
        "Ġm",
        "ode"
      ],
      [
        "Ġm",
        "uch"
      ],
      [
        "Ġm",
        "onth"
      ],
      [
        "Ġm",
        "inimal"
      ],
      [
        "nt",
        "ly"
      ],
      [
        "le",
        "d"
      ],
      [
        "me",
        "mb"
      ],
      [
        "nd",
        "er"
      ],
      [
        "it",
        "es"
      ],
      [
        "Ġb",
        "it"
      ],
      [
        "Ġb",
        "ad"
      ],
      [
        "Ġb",
        "ug"
      ],
      [
        "Ġb",
        "ackup"
      ],
      [
        "Ġb",
        "atch"
      ],
      [
        "Ġb",
        "ecause"
      ],
      [
        "Ġb",
        "inary"
      ],
      [
        "Ġd",
        "i"
      ],
      [
        "Ġd",
        "et"
      ],
      [
        "Ġd",
        "if"
      ],
      [
        "Ġd",
        "ay"
      ],
      [
        "Ġd",
        "ate"
      ],
      [
        "Ġd",
        "ir"
      ],
      [
        "Ġd",
        "ict"
      ],
      [
        "Ġn",
        "ow"
      ],
      [
        "Ġp",
        "re"
      ],
      [
        "Ġp",
        "ing"
      ],
      [
        "Ġp",
        "ut"
      ],
      [
        "Ġp",
        "and"
      ],
      [
        "Ġp",
        "art"
      ],
      [
        "Ġp",
        "atter"
      ],
      [
        "Ġl",
        "at"
      ],
      [
        "Ġl",
        "ot"
      ],
      [
        "Ġl",
        "an"
      ],
      [
        "Ġl",
        "ar"
      ],
      [
        "Ġl",
        "uck"
      ],
      [
        "et",
        "ings"
      ],
      [
        "et",
        "lify"
      ],
      [
        "ke",
        "d"
      ],
      [
        "Ġto",
        "p"
      ],
      [
        "al",
        "len"
      ],
      [
        "Ġe",
        "ith"
      ],
      [
        "Ġe",
        "ma"
      ],
      [
        "Ġe",
        "mb"
      ],
      [
        "Ġe",
        "dit"
      ],
      [
        "an",
        "ge"
      ],
      [
        "Ġin",
        "cre"
      ],
      [
        "ĠI",
        "n"
      ],
      [
        "Ġre",
        "f"
      ],
      [
        "Ġre",
        "ge"
      ],
      [
        "Ġre",
        "pl"
      ],
      [
        "Ġre",
        "start"
      ],
      [
        "Ġre",
        "memb"
      ],
      [
        "es",
        "cription"
      ],
      [
        "ist",
        "ent"
      ],
      [
        "ist",
        "en"
      ],
      [
        "Ġon",
        "load"
      ],
      [
        "Ġfor",
        "ward"
      ],
      [
        "ac",
        "es"
      ],
      [
        "ile",
        "d"
      ],
      [
        "Ġ'",
        "'"
      ],
      [
        "ic",
        "h"
      ],
      [
        "ic",
        "ial"
      ],
      [
        "Ġg",
        "r"
      ],
      [
        "Ġg",
        "u"
      ],
      [
        "Ġg",
        "ot"
      ],
      [
        "Ġh",
        "ow"
      ],
      [
        "Ġh",
        "igh"
      ],
      [
        "Ġst",
        "ore"
      ],
      [
        "Ġst",
        "art"
      ],
      [
        "Ġst",
        "uck"
      ],
      [
        "Ġst",
        "yle"
      ],
      [
        "Ġst",
        "atic"
      ],
      [
        "Ġst",
        "oring"
      ],
      [
        "ar",
        "ate"
      ],
      [
        "ar",
        "act"
      ],
      [
        "th",
        "ern"
      ],
      [
        "th",
        "anks"
      ],
      [
        "Ġr",
        "sync"
      ],
      [
        "Ġr",
        "ange"
      ],
      [
        "user",
        "name"
      ],
      [
        "```",
        "<|"
      ],
      [
        "de",
        "li"
      ],
      [
        "up",
        "date"
      ],
      [
        "Ġus",
        "ually"
      ],
      [
        "ĠC",
        "ould"
      ],
      [
        "Ġwith",
        "out"
      ],
      [
        "ec",
        "k"
      ],
      [
        "ec",
        "imal"
      ],
      [
        "ere",
        "nce"
      ],
      [
        "ub",
        "mit"
      ],
      [
        "ĠH",
        "ow"
      ],
      [
        "one",
        "y"
      ],
      [
        "ĠT",
        "o"
      ],
      [
        "ĠT",
        "hanks"
      ],
      [
        "Ġdo",
        "ing"
      ],
      [
        "Ġ(",
        "'"
      ],
      [
        "()",
        "\">"
      ],
      [
        "()",
        "`."
      ],
      [
        "Ġma",
        "in"
      ],
      [
        "is",
        "e"
      ],
      [
        "yth",
        "ing"
      ],
      [
        "Ġcon",
        "version"
      ],
      [
        "ĠA",
        "PI"
      ],
      [
        "ĠF",
        "ir"
      ],
      [
        "un",
        "ch"
      ],
      [
        "Ġex",
        "it"
      ],
      [
        "Ġex",
        "pl"
      ],
      [
        "Ġof",
        "f"
      ],
      [
        "Ġfi",
        "ltered"
      ],
      [
        "Ġfi",
        "eld"
      ],
      [
        "Ġfi",
        "rewall"
      ],
      [
        "ĠB",
        "ot"
      ],
      [
        "ĠB",
        "eautif"
      ],
      [
        "ro",
        "id"
      ],
      [
        "ro",
        "bocopy"
      ],
      [
        "ĠP",
        "ut"
      ],
      [
        "ĠP",
        "ower"
      ],
      [
        "ĠS",
        "ome"
      ],
      [
        "Ġme",
        "ss"
      ],
      [
        "Ġme",
        "mory"
      ],
      [
        "Ġme",
        "etings"
      ],
      [
        "ab",
        "ly"
      ],
      [
        "ab",
        "ase"
      ],
      [
        "pe",
        "at"
      ],
      [
        "pe",
        "nd"
      ],
      [
        "Ġ<",
        "/"
      ],
      [
        "Ġtr",
        "ansfer"
      ],
      [
        "ite",
        "ms"
      ],
      [
        "Ġdat",
        "abase"
      ],
      [
        "Ġreturn",
        "s"
      ],
      [
        "Ġ\"",
        ":\"')"
      ],
      [
        "Ġget",
        "s"
      ],
      [
        "Ġget",
        "Joke"
      ],
      [
        "id",
        "er"
      ],
      [
        "ĠU",
        "SB"
      ],
      [
        "Ġsub",
        "folder"
      ],
      [
        "Ġsub",
        "fold"
      ],
      [
        "ĠFor",
        "m"
      ],
      [
        "ĠN",
        "etlify"
      ],
      [
        "Ġv",
        "acation"
      ],
      [
        "Ġv",
        "pn"
      ],
      [
        "Ġan",
        "other"
      ],
      [
        "Ġfa",
        "il"
      ],
      [
        "Ġch",
        "allen"
      ],
      [
        "Ġch",
        "aract"
      ],
      [
        "Ġlo",
        "c"
      ],
      [
        "Ġlo",
        "gical"
      ],
      [
        "Ġnew",
        "line"
      ],
      [
        "ma",
        "in"
      ],
      [
        "pa",
        "use"
      ],
      [
        "get",
        "Joke"
      ],
      [
        "ult",
        "s"
      ],
      [
        "ĠO",
        "pen"
      ],
      [
        "Ġtest",
        "s"
      ],
      [
        "Ġfloat",
        "ing"
      ],
      [
        "Ġwh",
        "ile"
      ],
      [
        "Ġwr",
        "ong"
      ],
      [
        "lic",
        "k"
      ],
      [
        "pri",
        "vate"
      ],
      [
        "ĠW",
        "hen"
      ],
      [
        "Ġcom",
        "pare"
      ],
      [
        "Ġwe",
        "bsite"
      ],
      [
        "Ġwe",
        "ird"
      ],
      [
        "Ġwe",
        "bpa"
      ],
      [
        "off",
        "icial"
      ],
      [
        "\">",
        "</"
      ],
      [
        "pl",
        "ay"
      ],
      [
        "ĠL",
        "ike"
      ],
      [
        "Ġde",
        "le"
      ],
      [
        "Ġres",
        "ults"
      ],
      [
        "ap",
        "ps"
      ],
      [
        "Ġprint",
        "s"
      ],
      [
        "Ġcopy",
        "ing"
      ],
      [
        "ĠGo",
        "od"
      ],
      [
        "Ġchan",
        "g"
      ],
      [
        "Ġchan",
        "ge"
      ],
      [
        "Ġchan",
        "ges"
      ],
      [
        "Ġchan",
        "nel"
      ],
      [
        "ĠM",
        "ac"
      ],
      [
        "ĠM",
        "ake"
      ],
      [
        "Ġsp",
        "ace"
      ],
      [
        "Ġsp",
        "aces"
      ],
      [
        "Ġthan",
        "ks"
      ],
      [
        "Ġever",
        "ything"
      ],
      [
        "Ġread",
        "s"
      ],
      [
        "fer",
        "ent"
      ],
      [
        "gu",
        "age"
      ],
      [
        "iz",
        "ed"
      ],
      [
        "ul",
        "Soup"
      ],
      [
        "Ġfind",
        "s"
      ],
      [
        "Ġpl",
        "ain"
      ],
      [
        "Ġpri",
        "ce"
      ],
      [
        "Ġro",
        "ot"
      ],
      [
        "Ġopt",
        "im"
      ],
      [
        "vate",
        "Key"
      ],
      [
        "ĠR",
        "un"
      ],
      [
        "ĠR",
        "ep"
      ],
      [
        "erf",
        "ect"
      ],
      [
        "erf",
        "ace"
      ],
      [
        "Ġsup",
        "er"
      ],
      [
        "Ġsup",
        "port"
      ],
      [
        "Ġman",
        "y"
      ],
      [
        "Ġpro",
        "cess"
      ],
      [
        "Ġrequ",
        "ired"
      ],
      [
        "ĠSa",
        "ve"
      ],
      [
        "Ġinte",
        "ger"
      ],
      [
        "Ġkeep",
        "s"
      ],
      [
        "but",
        "ton"
      ],
      [
        "si",
        "ve"
      ],
      [
        "si",
        "de"
      ],
      [
        "ser",
        "ver"
      ],
      [
        "ĠE",
        "x"
      ],
      [
        "ĠE",
        "thern"
      ],
      [
        "Ġk",
        "now"
      ],
      [
        "Ġbot",
        "tlen"
      ],
      [
        "Ġdes",
        "c"
      ],
      [
        "Ġdes",
        "cription"
      ],
      [
        "Ġlin",
        "k"
      ],
      [
        "Ġlim",
        "it"
      ],
      [
        "Ġlim",
        "its"
      ],
      [
        "Ġforms",
        "pree"
      ],
      [
        "ict",
        "Read"
      ],
      [
        "Ġcons",
        "istent"
      ],
      [
        "Ġcons",
        "ider"
      ],
      [
        "Ġintern",
        "et"
      ],
      [
        "Ġintern",
        "al"
      ],
      [
        "Ġresp",
        "on"
      ],
      [
        "Ġhead",
        "er"
      ],
      [
        "Ġcorrect",
        "ly"
      ],
      [
        "?')",
        ")"
      ],
      [
        "Add",
        "ress"
      ],
      [
        "co",
        "ol"
      ],
      [
        "dat",
        "a"
      ],
      [
        "dis",
        "k"
      ],
      [
        "writer",
        "ow"
      ],
      [
        "Ġu",
        "nder"
      ],
      [
        "Ġter",
        "minal"
      ],
      [
        "Ġtup",
        "les"
      ],
      [
        "Ġab",
        "out"
      ],
      [
        "Ġad",
        "apt"
      ],
      [
        "Ġap",
        "pe"
      ],
      [
        "Ġiss",
        "ue"
      ],
      [
        "Ġse",
        "e"
      ],
      [
        "Ġbui",
        "ld"
      ],
      [
        "Ġdid",
        "n"
      ],
      [
        "Ġgen",
        "er"
      ],
      [
        "ĠTr",
        "ue"
      ],
      [
        "Ġconnect",
        "ed"
      ],
      [
        "ĠAnd",
        "roid"
      ],
      [
        "Ġtra",
        "ffic"
      ],
      [
        "Ġcomput",
        "er"
      ],
      [
        "Ġcomple",
        "te"
      ],
      [
        "Ġdevice",
        "id"
      ],
      [
        "Ġspec",
        "ific"
      ],
      [
        "Ġoption",
        "al"
      ],
      [
        "Ġlet",
        "ter"
      ],
      [
        "Ġeasi",
        "est"
      ],
      [
        "CT",
        "YPE"
      ],
      [
        "DO",
        "CTYPE"
      ],
      [
        "Er",
        "ror"
      ],
      [
        "Fa",
        "iled"
      ],
      [
        "Int",
        "erface"
      ],
      [
        "Pri",
        "vateKey"
      ],
      [
        "Public",
        "Key"
      ],
      [
        "POS",
        "T"
      ],
      [
        "con",
        "f"
      ],
      [
        "dri",
        "vet"
      ],
      [
        "gith",
        "ub"
      ],
      [
        "sec",
        "ure"
      ],
      [
        "sud",
        "o"
      ],
      [
        "uls",
        "oup"
      ],
      [
        "wid",
        "th"
      ],
      [
        "ĠâĢ",
        "ĵ"
      ],
      [
        "Ġtri",
        "ed"
      ],
      [
        "Ġavoid",
        "s"
      ],
      [
        "Ġide",
        "a"
      ],
      [
        "orri",
        "s"
      ],
      [
        "Ġsile",
        "ntly"
      ],
      [
        "Ġsec",
        "onds"
      ],
      [
        "Ġsen",
        "se"
      ],
      [
        "Ġspa",
        "m"
      ],
      [
        "Ġsep",
        "arate"
      ],
      [
        "Ġsug",
        "gest"
      ],
      [
        "Ġfet",
        "ch"
      ],
      [
        "Ġmill",
        "ion"
      ],
      [
        "Ġdet",
        "ect"
      ],
      [
        "Ġdif",
        "ferent"
      ],
      [
        "Ġdir",
        "s"
      ],
      [
        "Ġpand",
        "as"
      ],
      [
        "Ġpatter",
        "n"
      ],
      [
        "Ġlan",
        "guage"
      ],
      [
        "Ġeith",
        "er"
      ],
      [
        "Ġema",
        "ils"
      ],
      [
        "Ġemb",
        "ed"
      ],
      [
        "Ġincre",
        "ment"
      ],
      [
        "Ġrege",
        "x"
      ],
      [
        "isten",
        "Port"
      ],
      [
        "deli",
        "ms"
      ],
      [
        "ĠFir",
        "st"
      ],
      [
        "Ġexpl",
        "ain"
      ],
      [
        "ĠBeautif",
        "ulSoup"
      ],
      [
        "ĠPower",
        "Shell"
      ],
      [
        "Ġsubfold",
        "ers"
      ],
      [
        "Ġchallen",
        "ge"
      ],
      [
        "Ġcharact",
        "ers"
      ],
      [
        "Ġlogical",
        "disk"
      ],
      [
        "apps",
        "pot"
      ],
      [
        "ĠEthern",
        "et"
      ],
      [
        "Ġbottlen",
        "eck"
      ],
      [
        "ictRead",
        "er"
      ],
      [
        "Ġconsistent",
        "ly"
      ],
      [
        "drivet",
        "ype"
      ]
    ]
  }
}